#version: 0.2 - Trained by `huggingface/tokenizers`
Ġ t
Ġt h
Ġ a
Ġ w
Ġ i
o u
Ġ s
Ġ y
Ġth e
. .
e r
i n
Ġ o
e a
Ġ I
Ġ h
Ġ b
a t
n d
Ġ d
Ġ m
Ġi t
Ġy ou
r e
l l
Ġ l
Ġ c
n o
in g
Ġ g
' s
Ġ ..
ea h
Ġ.. .
Ġa nd
o n
Ġ f
Ġt o
v e
k e
g h
Ġth at
Ġy eah
Ġ p
s t
e n
Ġl i
Ġw a
Ġw h
Ġs o
' t
Ġ no
Ġw e
i t
Ġh a
? .
e s
Ġli ke
Ġg o
o r
Ġo f
l a
u t
Ġi n
a n
Ġo n
Ġb e
Ġ r
m e
a y
Ġwa s
e d
Ġd o
Ġthe y
i d
Ġ k
t h
i s
Ġ er
u gh
Ġi s
Ġs h
la ugh
laugh s
Ġ &
i c
l e
Ġ j
Ġb ut
s e
Ġ u
u st
Ġ e
Ġh e
l d
Ġc o
no w
gh t
Ġk now
e t
ll y
Ġj ust
a r
l y
Ġ n
Ġha ve
v er
Ġo h
Ġwh at
Ġd on
r o
er e
i ght
Ġthe re
Ġs t
ou t
Ġm m
ou ld
Ġwe ll
in k
Ġf or
Ġsh e
Ġno t
en t
Ġr ea
Ġth ink
o o
c h
' re
Ġer m
Ġc an
' ve
Ġso me
Ġa n
Ġgo t
Ġd id
i r
c t
Ġg et
Ġthe n
it h
Ġ =
Ġon e
n t
Ġrea lly
Ġi f
Ġth is
o w
Ġ .
a l
Ġs e
Ġa ll
Ġw ith
Ġo r
y eah
Ġs a
c k
' m
Ġm y
Ġa t
o d
o p
Ġa b
Ġa re
Ġa s
ea r
Ġn e
Ġco s
Ġ re
Ġ& =
th ing
r i
ver y
Ġb a
r a
i on
Ġm e
Ġc h
Ġu p
Ġyou r
c e
Ġl o
a lly
ou r
Ġw ould
Ġwh en
Ġab out
q u
th er
Ġm o
' ll
Ġthe m
i ll
c a
Ġha d
Ġ out
Ġth ing
Ġan y
on e
Ġr ight
Ġa l
f f
Ġm ea
i m
n a
Ġs u
it e
Ġs ay
oo k
t er
p p
Ġm a
Ġw ere
Ġ qu
in d
g e
u se
Ġw or
m m
Ġgo od
u n
Ġth ou
Ġt w
a nd
ca use
Ġmea n
Ġy es
r y
Ġsa id
ou nd
Ġp ro
Ġwa nt
i ve
Ġm u
Ġp e
Ġc a
Ġse e
Ġbe cause
Ġb it
s s
' d
ic e
op le
Ġpe ople
Ġgo ing
k ay
Ġc ould
w ay
Ġt a
u r
Ġh ow
Ġh er
i l
Ġdid n
Ġso r
Ġdo es
Ġl ook
w n
Ġno w
a d
t t
in e
Ġt i
on na
Ġe x
Ġg onna
r ea
Ġo kay
Ġu s
a b
e ll
Ġwh o
m p
o l
Ġa ct
u ally
Ġf ro
es s
Ġsome thing
ar t
k ing
Ġfro m
i g
o h
Ġti me
Ġ very
e l
ve n
er s
Ġbe en
m b
Ġs p
m a
Ġqu ite
Ġ S
at e
a st
Ġact ually
Ġp ut
Ġp la
Ġe very
Ġwh ere
Ġba ck
Ġst u
Ġd i
Ġsor t
Ġ C
ic h
Ġtw o
Ġmo re
re e
a in
ou s
Ġf a
e p
Ġh im
Ġof f
on g
w h
t ing
Ġne ed
s h
u l
o se
Ġin t
Ġpro b
Ġb u
o t
Ġo ther
Ġwh y
Ġn ice
Ġb o
Ġlo t
Ġis n
Ġy ear
is h
ou gh
Ġh is
Ġwh ich
Ġdo wn
s o
Ġ A
Ġf e
ke d
Ġth an
Ġd ay
Ġk ind
Ġa g
Ġw ent
o s
ar d
Ġthing s
Ġ M
Ġmu ch
Ġ ea
mb er
Ġh ere
Ġdo ing
at ion
Ġco me
b e
tt le
l f
Ġ T
Ġon ly
ab ly
v ing
o re
Ġthou ght
t y
i f
d ay
Ġc on
Ġta ke
e nd
Ġma ke
Ġd e
Ġ B
re d
Ġwa y
Ġwor k
Ġa r
Ġto o
i e
Ġha s
Ġthou gh
Ġli ttle
Ġp a
Ġp o
Ġstu ff
Ġ v
Ġe ven
Ġprob ably
Ġsh ould
Ġwe e
Ġo ver
Ġp re
Ġdoes n
Ġm ight
Ġm an
Ġw ill
ic k
r ight
t e
Ġst ill
Ġu m
Ġc l
Ġs i
o m
Ġdi ff
Ġh u
i es
Ġm ay
id e
Ġthe ir
r u
Ġa h
Ġ E
Ġthe se
Ġlo ve
Ġb ig
b le
Ġne ver
Ġus ed
m ent
Ġth ree
o nd
way s
Ġ.. ..
Ġre me
Ġreme mber
an t
Ġb y
Ġint o
Ġ en
Ġg u
i ous
Ġal ways
Ġl e
Ġf u
Ġw at
Ġ F
w ell
u re
p er
p e
n ing
Ġ P
Ġwas n
Ġdon e
Ġh o
y ou
Ġha pp
or t
Ġst art
n g
e st
Ġt al
Ġwee k
Ġbe t
Ġmay be
oo d
od y
Ġ ke
f ore
Ġhave n
Ġany thing
Ġdiff er
x t
Ġt ry
Ġu n
Ġp h
Ġc ar
Ġth ose
ir st
Ġu h
Ġco mp
in t
Ġl ast
d e
Ġ G
Ġwould n
Ġ D
Ġl ong
Ġbe fore
i st
it y
Ġf irst
Ġ W
Ġco m
Ġl ea
a ge
l o
Ġca ll
a ct
Ġag ain
b ut
er m
th e
Ġc ou
Ġl et
Ġsay ing
b ody
Ġsu re
Ġ our
u s
Ġt ell
Ġa f
n e
Ġmu m
Ġdiffer ent
Ġ L
Ġp art
Ġsa me
Ġf our
Ġg ive
Ġj o
Ġsu pp
th at
Ġaf ter
ou se
one y
Ġw r
c i
w e
Ġfe el
Ġt ea
Ġ ?.
ent y
Ġp l
at h
a re
Ġf un
Ġsi x
Ġo b
Ġany way
ro w
Ġal right
Ġpla y
oo l
an g
ĠC h
Ġm oney
r ough
i ld
Ġo ld
Ġ '
ea d
a me
m s
Ġt ra
Ġth rough
Ġget ting
Ġyear s
Ġhapp en
a g
ious ly
a ll
ri end
ir d
Ġe nd
ut e
p t
Ġrea d
e ver
Ġbe ing
Ġd ad
Ġh ouse
Ġtw enty
s ic
nd er
Ġw on
Ġwa n
Ġgo d
Ġf ive
is e
Ġ H
f t
Ġba d
Ġ N
Ġm in
n y
Ġwan na
h e
Ġa no
Ġr ound
Ġa c
Ġn ight
Ġa pp
ound s
Ġwat ch
Ġp u
Ġt e
Ġr o
i le
l i
Ġ J
Ġob v
Ġne xt
Ġs ch
Ġano ther
Ġf ind
Ġt en
im es
y es
wh ere
Ġu se
d d
Ġha lf
Ġe l
p s
ur n
rea t
c o
Ġne w
Ġch e
Ġb l
Ġf ine
Ġp ay
Ġar ound
Ġg ra
u m
f e
Ġp er
Ġke ep
en ce
Ġha ving
a m
Ġobv iously
se lf
r an
Ġevery thing
Ġel se
Ġs c
Ġho me
Ġu nder
Ġsch ool
wh at
nd red
u e
Ġsor ry
Ġ R
Ġhu ndred
Ġh our
Ġfu ck
or d
Ġli ve
Ġon es
Ġbet ter
Ġh ear
Ġf riend
Ġea t
Ġc our
Ġman y
p en
Ġwa l
un no
Ġpo int
rea d
t a
Ġi d
Ġe ight
Ġca me
Ġp ers
Ġthan k
r m
t s
Ġm ust
re ss
Ġal so
Ġa way
Ġd unno
f ul
Ġa m
Ġbu y
Ġl a
Ġf l
Ġma de
Ġb ook
Ġsome one
Ġb la
Ġgu y
ar y
Ġs it
act ly
Ġm on
Ġpers on
is s
Ġf if
Ġcould n
Ġtal king
ou ght
ere st
Ġd r
Ġen ough
Ġthink ing
Ġwhat ever
ri st
Ġcall ed
Ġcom ing
p le
Ġjo b
Ġst op
tt y
Ġse en
r d
Ġint erest
a s
Ġcour se
Ġd ri
Ġlook ing
g g
i ly
Ġo wn
Ġex actly
Ġwho le
Ġd is
Ġpla ce
Ġt urn
la r
i an
Ġpre tty
Ġh i
Ġb r
Ġg one
Ġe ver
la nd
Ġ O
l es
Ġsh ow
Ġfe w
ic t
Ġid ea
ion s
Ġfun ny
ver s
Ġm ar
Ġmon th
Ġbu s
Ġth ir
Ġgo es
id ay
i a
Ġtry ing
te en
Ġmo ve
Ġr un
ad s
c ent
Ġsupp ose
Ġare n
Ġr oo
ul t
Ġg ir
Ġle ft
la ss
ri ed
Ġ ear
c es
Ġwe ird
Ġha rd
or y
Ġmo st
Ġde f
Ġlove ly
e ct
Ġwant ed
Ġrea l
Ġp r
the y
ea l
h a
Ġto day
Ġlook s
Ġsay s
Ġwor d
u b
Ġe m
Ġdr ink
Ġevery one
o g
i re
Ġha nd
ĠE ng
n er
Ġto ld
s ide
er t
Ġpl ea
Ġph one
Ġf in
Ġba sic
ath er
Ġs l
w ard
Ġg reat
ĠCh rist
re n
Ġ Y
Ġb ro
Ġhe l
Ġli fe
Ġt ru
i p
s on
Ġm ind
ma s
Ġch ild
Ġst ay
Ġa w
Ġh or
Ġse c
Ġm or
Ġf ar
ar k
Ġday s
p h
Ġprob le
Ġwa it
oo ked
Ġgir l
Ġwh e
ve nt
Ġcon t
m o
Ġcou nt
Ġa d
Ġb ea
an ce
ab le
Ġno thing
s ol
Ġn ame
in ite
Ġfa m
Ġto p
Ġsa w
Ġm at
Ġtal k
at ed
ic ke
Ġre s
Ġfuck ing
ve l
ith er
Ġab le
Ġto m
Ġlo ads
Ġ K
Ġs er
Ġco ol
Ġsh it
Ġon ce
Ġlea ve
Ġbasic ally
inite ly
Ġh ead
Ġmor ning
Ġsh op
sol ute
Ġs w
Ġcou ple
b y
Ġk id
Ġtea ch
Ġstu d
e en
Ġse ven
d o
Ġthir ty
an ge
Ġre c
Ġwat er
Ġwr ong
Ġf il
ĠChrist mas
ig n
Ġp ast
m er
ou nt
Ġtru e
Ġc ra
Ġbe d
a ir
l ing
Ġea s
er en
a h
Ġdef initely
Ġh ot
t imes
y ing
Ġroo m
Ġo pen
Ġin ter
i b
Ġstart ed
Ġhel p
Ġab solute
Ġtoo k
r on
l ish
o c
Ġs k
Ġp ounds
Ġg r
Ġf ree
Ġsome body
Ġno rm
Ġf ood
Ġwor king
Ġch ar
Ġsome times
t en
Ġb rea
Ġplea se
es e
Ġb ought
Ġw eren
ea k
Ġfa ir
Ġs et
g et
Ġs ide
Ġag o
Ġinterest ing
g ine
Ġs ma
Ġh op
Ġas k
Ġe ither
Ġco o
ut es
s and
Ġea ch
Ġgot ta
Ġthou sand
st er
a p
or row
Ġmin utes
Ġi mp
read y
ond er
u p
Ġwh ile
Ġt r
on s
Ġli st
Ġal ready
Ġwhe ther
Ġl ess
u ck
u lar
Ġget s
Ġproble m
Ġe le
st and
Ġl ear
ri ble
Ġwal k
ge ther
Ġl ooked
Ġw ow
Ġabsolute ly
Ġbe l
Ġsome where
Ġgu ess
is ed
Ġw onder
os ed
i x
Ġfriend s
ro ss
Ġy et
Ġbe st
Ġtra in
Ġbo th
l ess
Ġsp e
Ġi ma
le ep
a c
a ce
Ġto gether
Ġn ear
z ing
ic al
Ġc at
Ġco mm
Ġn u
Ġsma ll
o kay
Ġd ep
Ġc ard
Ġde c
Ġunder stand
Ġe h
Ġsec ond
u al
Ġh ol
Ġfa ct
Ġw om
Ġf ound
Ġs ounds
g s
Ġsu ch
Ġgra nd
ve s
ert ain
Ġg en
Ġhour s
Ġfin ish
Ġdo or
Ġfif ty
Ġk ne
ing s
Ġt y
t o
sh e
Ġbo y
Ġhi gh
Ġj u
i z
Ġpro per
Ġweek s
Ġhappen ed
Ġt imes
en s
Ġtom orrow
ĠEng lish
it ch
pe ct
Ġhear d
Ġpa ss
Ġp ict
Ġsu r
un ch
Ġun i
oo t
Ġmo ment
le te
ent s
ve d
ke t
c ess
Ġpict ure
Ġro ad
Ġm ine
Ġc lass
Ġr id
Ġst ra
Ġd ear
d u
ct ion
Ġc ut
Ġr ather
ea n
Ġmake s
Ġhe ll
li ke
c os
r it
Ġli ter
Ġca re
Ġyou ng
re nt
Ġw ear
Ġg re
Ġfam ily
Ġd es
Ġqu est
me d
Ġ U
f or
Ġu nt
g er
Ġhop e
Ġre st
Ġma king
Ġrea son
Ġlot s
Ġa ma
Ġpla n
or k
est er
Ġli ght
are nt
e e
an y
ĠT h
ra ct
Ġhol iday
Ġm et
Ġm il
Ġmonth s
Ġph ot
Ġfu ll
Ġunt il
Ġcom es
Ġ V
in et
a ve
i v
an k
Ġrec ord
at ur
Ġkid s
Ġima gine
Ġbel ie
Ġhas n
Ġc ertain
Ġuh u
ci al
Ġex t
lo ck
in ce
Ġre p
Ġcomp lete
st e
Ġre l
Ġn ine
Ġbla ck
Ġin st
Ġkne w
Ġbu ild
f ive
Ġb ir
Ġm id
rea m
ke nd
l ic
h ow
Ġc or
Ġd ra
Ġwee kend
Ġhapp y
Ġch ea
Ġama zing
ea s
Ġst and
Ġpre s
c ked
i ble
Ġbrea k
ie w
Ġs leep
Ġmean s
Ġevery body
Ġwant s
Ġlea st
Ġb ar
Ġs ea
Ġbir th
Ġsp eak
Ġchild ren
arent ly
ke s
Ġqu ick
Ġsh all
Ġbr ing
Ġfa ce
e w
Ġfil m
Ġpu b
mer ic
Ġch ange
Ġha ng
it s
Ġfor ty
Ġta king
c u
Ġwor ld
z e
o y
Ġha ir
Ġma ss
Ġf o
Ġn inet
ri ll
Ġliter ally
at es
Ġme et
Ġout side
Ġch ang
th ere
Ġan no
it ion
g o
ĠA meric
one st
Ġr u
we en
Ġm ess
a mp
Ġapp arently
Ġse nd
n ess
Ġp ick
it ing
Ġex p
ron t
Ġp ound
Ġp ie
at er
Ġbl ood
ou th
Ġyour self
ester day
Ġh onest
Ġex c
Ġbelie ve
Ġp ot
Ġm iss
Ġs ing
Ġin v
Ġco l
i ant
ro om
ĠS u
Ġw ind
t i
Ġy esterday
Ġbet ween
at ing
Ġt ri
Ġh m
Ġta ble
Ġsupp osed
ll ing
ou p
at o
Ġi nd
Ġd ro
in s
Ġt er
icke n
Ġpa id
ic ult
Ġd in
Ġl ang
Ġl ate
u h
Ġbirth day
Ġb ra
in ess
Ġs ince
l ed
Ġs ign
oc ol
j ect
i er
Ġcount ry
Ġa dd
Ġlang u
ĠT he
en se
Ġall ow
r iday
or s
Ġf ront
es day
Ġho ld
Ġstra ight
Ġpa rent
d er
ow er
Ġany one
d le
Ġco ll
Ġac c
ward s
Ġqu id
ma il
ĠS p
Ġch ocol
Ġmu sic
Ġs im
al s
Ġche ck
Ġs ent
a ck
Ġf oot
Ġlist en
Ġmy self
b o
Ġpart ic
ĠF riday
Ġnu mber
c y
Ġdiff icult
Ġwr ite
Ġw in
t ed
Ġp ain
Ġp ol
Ġst r
Ġco ld
Ġcomplete ly
Ġg ame
Ġmin ute
pen s
b er
Ġdri ve
v our
Ġre d
Ġwith out
m an
Ġs ound
b s
Ġhor rible
Ġsp end
Ġd a
ce pt
Ġch icken
mm er
Ġba by
Ġen j
ation s
r ic
Ġbla h
Ġh ea
Ġsp o
a il
z y
ou ble
Ġsee ms
Ġchocol ate
Ġas ked
Ġte xt
Ġp ri
ll s
c ed
Ġmea nt
Ġgen er
Ġp op
Ġpo ss
Ġpartic ular
Ġt ill
Ġex pens
Ġtw el
Ġmass ive
Ġparent s
Ġco st
u d
Ġfif teen
th ough
Ġwh ite
Ġse vent
Ġcon s
co me
Ġli ving
it ed
g ra
Ġs at
Ġwor ked
Ġplay ing
Ġ ve
Ġwom an
Ġl ater
Ġty pe
rill iant
Ġar t
no t
Ġa rea
Ġpla ces
Ġcol our
Ġt ried
Ġexpens ive
nd ay
Ġb i
Ġg ard
Ġa p
Ġin c
Ġe gg
Ġbus iness
o ck
Ġt erm
Ġp ar
pp ed
Ġe mail
f er
Ġso on
Ġtwel ve
j ust
atur day
a ch
Ġ ed
i al
Ġg ave
Ġquest ion
Ġhu h
ur s
m y
ic s
f u
Ġeas y
Ġb rilliant
ri es
Ġex per
g y
air s
Ġg row
Ġmat ter
Ġnorm ally
Ġknow s
p ed
ĠSu nday
mo st
Ġmove d
Ġwork s
Ġl unch
am es
k y
Ġlear n
ran ge
ond on
Ġbo x
ĠS t
ĠS aturday
ĠL ondon
ic ally
Ġs y
Ġh ate
Ġbit s
Ġdin ner
el t
y e
Ġs we
Ġlangu age
d id
Ġta x
Ġk ill
Ġper cent
Ġy ep
Ġal ong
Ġcoo k
Ġca se
Ġb or
Ġ es
Ġst ick
Ġs ense
c lock
ou ch
Ġmid dle
Ġal though
Ġbo tt
p r
Ġcl ose
Ġgard en
Ġ ent
Ġst ory
Ġc ur
Ġear ly
w er
Ġun less
Ġtake n
Ġpart y
Ġwas h
Ġex pect
ff ee
Ġle vel
Ġus ually
Ġguy s
Ġm ent
Ġwatch ing
Ġl ad
Ġa ge
Ġma in
Ġf ish
Ġea ting
Ġdep end
Ġlo st
ll ow
Ġbea ut
n it
Ġd ress
Ġgre en
p ing
m ing
ci ally
Ġallow ed
Ġneed s
Ġstu p
ic ul
un g
Ġal most
Ġenj oy
t w
Ġnorm al
Ġword s
Ġinter n
r id
Ġg lass
ag es
Ġche ese
Ġin s
Ġput ting
Ġstup id
at ive
ke y
Ġw ine
Ġblood y
Ġshould n
Ġsu mmer
Ġaw ful
Ġfl at
Ġbook s
Ġswe et
Ġcon vers
Ġof ten
ge st
Ġgirl s
Ġs qu
Ġsh ort
Ġf la
ast er
Ġrun ning
ic ked
Ġac ross
e f
ĠCh in
Ġc up
Ġa in
g in
Ġhappen s
Ġfinish ed
Ġsu g
Ġc ent
ĠB rit
Ġst re
Ġtell ing
Ġele ven
Ġa ir
Ġd eal
Ġr ing
Ġwor ry
Ġt in
Ġgr oup
Ġco ffee
Ġdri ving
Ġwor th
Ġsit ting
Ġp ark
Ġm ate
se l
ĠN ew
Ġbe h
Ġf it
Ġam ount
Ġhu ge
i ver
Ġwal king
Ġr ub
i et
Ġcon f
s ed
er eas
c er
i o
Ġt est
Ġhad n
Ġf elt
Ġdo g
Ġturn ed
Ġf lo
ĠC os
if e
wh y
Ġe ff
Ġbeaut if
l ine
Ġread ing
Ġanno ying
Ġsee m
Ġbro ther
Ġp an
Ġan s
b ook
Ġpo st
Ġca ke
g u
it al
Ġ ?
Ġcl ear
Ġv is
Ġke pt
Ġlike d
Ġstud ents
Ġt on
g ot
Ġyour s
un k
Ġag es
Ġs me
Ġbo ther
Ġre g
Ġcomp ut
icul ous
c le
Ġl and
Ġus ing
Ġse ll
v iew
Ġmo ther
Ġs ca
id er
eal th
Ġf an
w ise
ur ch
it ies
o ice
ond ay
el s
Ġbl ue
ct or
Ġwa r
ra ph
Ġrid iculous
Ġap art
re s
mm y
ic es
Ġas s
i ence
Ġchang ed
Ġbeh ind
Ġsur pr
vers ity
Ġsu per
Ġman ag
Ġc r
Ġcl o
Ġl uck
g an
Ġsix ty
Ġm en
Ġr a
la d
Ġfa vour
ĠM onday
Ġb read
pe cially
b all
Ġtake s
Ġgive n
ear ch
Ġpre ss
iz z
id ed
r al
Ġbeautif ul
Ġd el
Ġfo llow
Ġwind ow
ation al
Ġpa per
Ġlike s
Ġread y
y s
Ġext ra
v y
Ġt ran
Ġst range
Ġla ugh
ĠT V
u nt
be cause
ment s
Ġs al
i ps
Ġor der
Ġsu n
Ġm od
Ġba g
Ġpro du
Ġf ore
m on
Ġsh o
f our
p ort
og raph
Ġold er
ĠW h
Ġlive d
Ġwh ereas
Ġb lo
Ġno body
ter s
ĠI t
ar s
ar ling
la in
Ġre ck
ĠG erm
Ġwatch ed
Ġthank s
Ġpu ll
Ġtran s
Ġo pp
Ġc ream
ate ly
Ġcomp any
Ġhell o
fu lly
Ġmea l
u ro
if ic
Ġit s
Ġf ly
Ġa ff
n s
rea lly
oo se
la n
Ġm ill
Ġsl ight
Ġs ong
ol og
ĠEng land
Ġf ill
sel ves
Ġto wn
Ġn a
Ġes pecially
c ing
ib ly
Ġt ouch
fe ct
ren ch
u g
f ort
ck s
Ġchea p
Ġsi ster
Ġto t
ha ve
Ġcra zy
Ġb ank
Ġwa rm
Ġk itch
Ġe mp
g n
Ġin nit
Ġother wise
Ġnear ly
o me
tw o
Ġany where
on es
Ġteach er
ou d
Ġbott om
Ġbr ought
Ġpay ing
Ġle g
Ġju mp
Ġbuild ing
c ri
Ġton ight
Ġconvers ation
Ġspe cial
Ġfor m
Ġd arling
Ġat t
Ġd ead
Ġreck on
Ġsu b
Ġh mm
Ġeight een
ke n
dd ing
Ġ z
for m
ha ps
Ġco ver
Ġflo or
Ġm ed
wh en
Ġsp ace
at ter
Ġg ar
Ġeven ing
Ġdepend s
Ġh it
il t
Ġcar ry
Ġbus y
Ġin side
Ġkitch en
Ġinst ead
Ġcl ean
is ing
o ve
Ġmil k
s es
er y
w ork
n esday
ea th
ĠW ed
Ġi ce
Ġans wer
c an
k s
ro wn
Ġb ath
ĠF rench
Ġuni versity
re ct
Ġpro gra
Ġdiffer ence
Ġr ain
h m
i gh
Ġfor get
Ġsa d
Ġh ist
Ġmo ving
n ed
id ent
Ġs m
Ġp en
g es
Ġcomput er
c on
u c
ĠC o
e x
Ġany body
Ġsl ow
Ġpicture s
Ġb ur
ĠWed nesday
Ġw ood
Ġb oo
Ġpot ato
Ġh ous
Ġwor se
Ġdi st
v is
Ġgo sh
Ġper haps
Ġw ea
Ġclo th
Ġlo c
Ġbig ger
ĠF ace
Ġmea t
ĠAmeric a
rid ge
Ġact ual
Ġpie ce
ĠAmeric an
Ġf at
i lar
Ġte ch
Ġl ine
wh ich
Ġre t
Ġch urch
Ġdi ed
Ġslight ly
m in
ĠFace book
Ġp ract
urs day
Ġh ealth
Ġwr it
Ġimp ort
a ke
ic king
Ġrub b
in es
Ġre nt
ur t
Ġninet een
v ice
Ġsee ing
Ġreal ise
p y
Ġd ark
Ġmar ried
os p
i ving
Ġwr iting
at ch
o b
Ġe v
Ġf ire
Ġfeel ing
ou n
Ġt icke
Ġsi ze
Ġintern et
Ġtin y
Ġf re
Ġk n
Ġon to
at ure
Ġpu sh
Ġter rible
Ġfavour ite
re w
ĠBrit ish
Ġexper ience
a pp
ĠA nd
p a
Ġth row
Ġi ll
Ġpo or
ĠTh ursday
bo ard
Ġper fect
Ġh osp
Ġlive s
is m
Ġor gan
Ġstop ped
Ġb ody
Ġc u
Ġagain st
Ġsim ilar
Ġsh ut
Ġex amp
ro l
Ġstr ong
Ġparticular ly
Ġch at
i ed
st airs
Ġwom en
Ġnew s
Ġquick ly
Ġp izz
Ġpres ent
Ġc ross
ant s
Ġsa u
Ġacc ount
il ity
Ġtea m
or ies
Ġch oose
Ġinterest ed
Ġb ird
Ġwal ked
Ġproper ly
ĠM ar
b r
Ġdec ided
Ġw ish
Ġwa ll
Ġfa ll
ea t
Ġca mp
Ġag ree
Ġlong er
Ġcomm un
Ġta ste
Ġbe gin
Ġinter view
Ġt ur
ne y
ĠF ran
Ġrecord ing
Ġstre et
Ġo dd
Ġcloth es
Ġmil es
p o
dd en
Ġsing le
Ġd ate
Ġimport ant
f ast
ur ing
Ġsp r
ĠE aster
Ġe ye
Ġeight y
ĠN or
Ġninet y
m ore
Ġs ick
Ġd ouble
Ġplay ed
Ġpr ice
Ġno r
Ġfor ward
Ġfor got
b u
Ġve get
a v
Ġrubb ish
ĠI s
so me
Ġbo ard
Ġbo ttle
ugh t
Ġm ix
Ġre m
Ġeas ier
Ġsu dden
un e
Ġchar act
Ġcl ub
th is
Ġele ct
Ġfoot ball
Ã ©
Ġoff er
ie ld
Ġneed ed
Ġo c
Ġhe y
Ġre cent
ĠT u
Ġv ide
Ġteach ing
at s
Ġhist ory
d on
in ed
Ġres earch
ing er
d y
Ġth ird
Ġw o
Ġa ut
us ed
Ġmess age
b b
Ġwait ing
Ġposs ibly
e m
y m
re t
s ix
li er
a i
le t
Ġlad y
y ed
Ġoff ice
Ġbi ke
Ġboy s
n ine
Ġpro f
Ġsevent y
ill s
ot e
Ġexamp le
Ġsp ent
g r
Ġwith in
Ġv iew
Ġwea ther
Ġe vent
Ġdrink ing
Ġd et
ĠI nd
Ġto ile
Ġs ci
ĠY ork
o ld
Ġta st
ĠS c
Ġc ute
Ġg iving
Ġe yes
Ġro ll
Ġac cent
se t
Ġcard s
Ġf ur
Ġt end
e th
re es
Ġtot ally
Ġti red
Ġas king
Ġd u
Ġevery where
ar ter
Ġcoo king
Ġdo ctor
Ġs now
Ġafter no
pp ing
Ġinv ol
vel op
sh ip
Ġbe come
Ġo pt
Ġp ur
Ġis s
Ġs mo
ure s
Ġchar ge
Ġcertain ly
p ar
Ġfe ed
p es
c om
Ġp iss
ĠA ust
Ġqu iet
Ġp os
Ġhous es
Ġf ast
Ġc ir
Ġbe er
e ight
is on
Ġthem selves
Ġment ion
a ur
Ġlo ad
ĠL e
Ġlo se
Ġpizz a
Ġk no
Ġsix teen
Ġsh a
Ġhope fully
Ġprogra m
t on
Ġt reat
Ġear lier
Ġc ity
Ġor ig
Ġhot el
Ġt ree
Ġon line
Ġbreak fast
Ġp icked
ir t
Ġf ell
Ġe qu
Ġc y
u ation
Ġkind a
Ġsug ar
Ġpol ice
Ġan im
ast ic
Ġsk in
Ġafterno on
Ġterm s
Ġat ta
ĠG od
al ity
ic ed
Ġba ll
Ġt u
Ġbor ing
Ġfour teen
Ġcat ch
re en
Ġre f
mb ers
wh o
Ġsh ame
Ġmo t
Ġhand s
Ġ Z
Ġpri v
Ġquest ions
c ket
ti me
ĠE uro
Ġbuy ing
et s
er v
Ġwor ried
Ġv ill
an ish
st ic
Ġse lf
Ġdi e
Ġde g
Ġlear ning
Ġgood ness
Ġsau ce
Ġorig in
Ġf ant
ain s
w as
Ġso ld
Ġegg s
Ġtr ouble
Ġsme ll
ĠChin ese
Ġed uc
Ġwear ing
Ġb an
Ġa v
Ġch ill
Ġfl ow
Ġb ow
Ġsa nd
Ġres p
Ġsy ste
m it
Ġbed room
Ġsho es
Ġl ow
s c
Ġhappen ing
Ġstu ck
o f
Ġb ear
Ġphot os
ĠM r
tt en
Ġfl u
ru it
Ġcent re
qu e
Ġcon ne
Ġv ar
Ġstud ent
Ġsa ve
Ġhosp ital
n i
Ġtom ato
id es
Ġjob s
th ree
Ġany more
ĠTu esday
Ġway s
Ġstart ing
Ġphot ograph
Ġh ung
Ġyoung er
Ġst ru
Ġc la
Ġmill ion
Ġsi lly
Ġpla nt
Ġfl ight
Ġmiss ed
Ġbu ilt
Ġv al
Ġc ult
Ġpro ject
Ġma ch
Ġc le
ro te
ess ion
Ġpre fer
Ġwe bs
Ġwrit ten
Ġcar s
Ġc ru
Ġne cess
Ġluck y
Ġto wards
Ġdr unk
s ion
Ġthink s
p ri
Ġsurpr ised
Ġexp lain
Ġbegin ning
Ġcont act
ĠY ou
Ġtri p
Ġhim self
Ġd ru
Ġcoll ect
Ġlet ter
l it
Ġl ar
Ġrecent ly
ress ed
i ally
Ġshow er
Ġch ance
ĠAust ral
Ġte mp
Ġin f
Ġse x
an s
ĠY eah
ce ll
Ġwe dding
g ed
p ro
Ġinvol ved
Ġthir teen
Ġde velop
ea king
ver t
Ġtoile t
Ġke y
Ġcons ider
Ġt ut
Ġspe c
Ġbro wn
u es
Ġrest aur
Ġdro p
Ġo oh
or n
ell ow
Ġprogram me
Ġbor n
Ġst ation
Ġre co
Ġf ather
Ġmeet ing
ĠSp anish
Ġin form
ĠD e
al es
Ġfant astic
c il
ĠFran ce
Ġphot o
Ġwor st
er ing
Ġo il
ang er
Ġproble ms
Ġcor ner
Ġn an
Ġtw ice
Ġsw im
Ġcle ver
Ġpa ck
Ġm outh
Ġm hm
Ġg ym
ad e
Ġstart s
Ġst ate
g le
Ġlove d
Ġstay ed
u me
Ġw rote
Ġbut ter
Ġst a
g ing
Ġdra w
Ġno ne
Ġst ep
sh ed
Ġar gu
et er
Ġsudden ly
se ven
Ġp ower
Ġpr int
Ġca mer
ver n
Ġfeel s
Ġst ar
Ġpl us
Ġcoll e
Ġloc al
or ry
Ġch ips
Ġd ry
an e
Ġshop ping
Ġsyste m
Ġfur ther
Ġfe et
Ġp ig
cu ss
i um
Ġso cial
Ġr ad
Ġlisten ing
ar ily
b it
Ġbother ed
ian s
Ġte le
ou b
Ġshop s
ist s
Ġend ed
Ġlight s
Ġda ugh
ot s
go tten
Ġbra in
Ġd uring
Ġr out
Ġlea d
t ies
Ġs na
Ġsort s
w ich
Ġgener al
b our
Ġpoint s
i ent
Ġc ry
Ġfor gotten
w ith
Ġle gs
Ġc e
Ġ vers
Ġc al
Ġnot ice
s y
Ġen gine
Ġmanag ed
Ġknow n
Ġwebs ite
ĠA f
a z
Ġf ight
uh u
ĠT w
Ġsca red
Ġba nd
Ġy ellow
Ġma d
Ġman age
Ġmar ket
Ġfil ms
Ġwash ing
Ġf ig
ust ing
Ġchea per
gr ound
Ġj our
Ġe mb
Ġla w
h uh
ĠO h
l t
Ġhu man
Ġor ange
Ġeff ect
Ġs la
er n
il ing
Ġr and
Ġcharact er
Ġbea ch
Ġle ct
Ġvide o
Ġs il
Ġfan cy
Ġsevent een
Ġf ruit
c l
Ġgo vern
Ġsee med
Ġp et
Ġrand om
t le
Ġinform ation
k er
Ġf ield
ay be
ĠD ay
a le
Ġb en
Ġsp eaking
Ġc reat
Ġexc iting
Ġwin ter
Ġfre sh
ĠSp ain
Ġnot iced
Ġqu arter
Ġpro te
u ss
ĠGerm an
Ġsit uation
Ġg lad
ail s
s ing
Ġmat ch
Ġw ife
Ġs outh
Ġch air
Ġvill age
Ġte eth
ke ts
b and
Ġsc ary
at or
Ġcount ries
Ġm ath
it ive
Ġr ice
d ge
e y
l u
ĠU K
Ġreal ised
Ġtra ve
Ġgo ld
Ġser ious
Ġbo at
u ary
Ġse par
Ġkeep s
Ġdis cuss
k ward
atur al
Ġwe ight
Ġother s
Ġper i
Ġv oice
Ġpriv ate
Ġg ames
Ġso l
op h
g ue
i ff
et y
Ġaw kward
Ġcolle ge
Ġfam ous
Ġtrain ing
sh ire
Ġgr ound
pp er
Ġstay ing
Ġ Q
Ġdis g
ff ic
Ġb ooked
Ġwhen ever
iv al
Ġli e
Ġd oub
Ġcl ea
Ġcont ract
Ġaff ord
Ġposs ible
Ġlea ving
Ġschool s
Ġm ic
Ġar m
Ġpast a
Ġperi od
Ġcont rol
Ġpl ate
Ġprodu ct
Ġg e
Ġsure ly
Ġcon st
Ġdaugh ter
Ġmu mmy
n ight
Ġoc ca
r or
Ġba sed
Ġser ies
Ġhung ry
Ġex cept
Ġdi rect
Ġc ri
Ġser iously
Ġrel ation
Ġglass es
Ġch oice
do es
Ġs on
Ġar ri
ra ss
Ġp ink
la x
ut s
ĠS h
Ġgovern ment
Ġb in
Ġdo gs
Ġpa ge
Ġafter wards
f riend
ck ing
Ġst ri
Ġhor se
Ġh at
Ġsh are
vis ion
re me
ĠN o
Ġsp ort
Ġnor th
ĠChin a
ĠC a
Ġpr in
Ġfair ly
Ġvis it
Ġlar ge
a w
is es
Ġeduc ation
w a
Ġd anger
Ġc ust
th en
Ġch op
Ġsci ence
Ġp ens
Ġser vice
a k
ĠJ an
ca de
y sic
Ġexc ited
Ġd ish
Ġcomm on
m aybe
u red
Ġup stairs
Ġeat en
Ġrem ind
Ġpotato es
Ġsal t
ab les
Ġdes ign
ay s
Ġbl ess
n el
es co
Ġf ridge
Ġpro cess
er ry
Ġent ire
ĠI n
Ġgive s
Ġpub lic
fort able
Ġd ig
olog y
Ġmach ine
Ġblo ke
m ar
Ġdisg usting
Ġelect ric
Ġpa ir
is cu
Ġ ess
Ġe st
Ġn atural
Ġfa ult
Ġoff ic
ow s
Ġstand ing
oh ol
Ġcou n
la ce
ĠH ar
Ġless on
ĠAf ric
Ġo per
Ġst age
ĠA s
Ġsea son
Ġopp os
Ġad vert
Ġspo ke
c ohol
Ġr an
ard s
Ġeff ort
Ġcra p
Ġwonder ful
h ere
er ed
te mber
Ġsa us
ce l
Ġhear t
Ġhea vy
Ġgar lic
b ed
Ġmath s
r ing
k a
Ġperson al
Ġsw itch
Ġfly ing
ĠB ar
ic y
Ġph ysic
Ġjo ke
Ġgener ally
ep tember
Ġsand wich
ĠT esco
Ġreco gn
Ġex am
th ank
Ġeas ily
b ies
ĠR uss
Ġiss ue
Ġpla stic
Ġh urt
on ed
Ġca p
lo ad
s ure
Ġde ep
y le
Ġal cohol
il ed
at ic
h am
ict ion
ph one
i ke
Ġholiday s
Ġhonest ly
Ġnecess arily
Ġba s
Ġup set
Ġf ix
Ġhu s
Ġgrow ing
cell ent
Ġsc reen
Ġspe ed
Ġflow ers
Ġas leep
Ġsort ed
e g
Ġn ames
er o
Ġf ra
st ers
Ġsta ff
Ġticke t
Ġdeg ree
ĠS eptember
ard on
ĠR o
ul es
Ġl oud
Ġco nd
Ġjo in
Ġdes cri
ther n
ĠP o
pt op
Ġb le
Ġpie ces
Ġl ay
Ġe p
Ġad v
Ġr ac
Ġbro ken
Ġpla ne
Ġsupp ort
Ġb iscu
Ġla ptop
ie st
Ġac cept
Ġexc use
Ġrestaur ant
ir ty
Ġta ll
Ġtra ffic
Ġ X
Ġplan ning
lf riend
Ġemb ar
n is
es ome
Ġsmall er
e b
ĠJan uary
b ack
Ġit self
Ġr is
Ġse lling
ĠS outh
Ġrel ig
Ġsug gest
r is
Ġconne ct
Ġcat s
Ġbow l
Ġdec ide
Ġs ens
Ġteach ers
Ġkill ed
i me
Ġtra vel
Ġment al
er c
Ġour s
es us
Ġsa ke
Ġcoo ked
Ġcare ful
igh bour
Ġapp ly
ve st
Ġdec is
Ġto ast
ent ion
Ġcir c
Ġli br
Ġgrand ad
Ġhus band
Ġp at
Ġat e
ap an
s orry
Ġt rees
Ġw ra
l im
ĠA r
ĠAustral ia
Ġso ci
Ġoppos ite
Ġembar rass
re st
Ġsu c
sh ion
Ġevent ually
Ġapp ro
m ic
Ġdis app
Ġcomp et
Ġmot or
pp y
Ġgir lfriend
Ġcamer a
z er
Ġpro v
Ġf ut
Ġp ool
Ġwe t
Ġre lax
Ġo p
Ġn et
Ġdrink s
Ġab ove
Ġstud y
Ġgrand ma
o int
ur ance
Ġlove s
Ġp erm
ĠGerm any
Ġsub ject
Ġl u
Ġwa ke
Ġma p
la y
Ġsh ot
Ġtal ked
ri ous
Ġswim ming
Ġme m
Ġsp a
Ġte en
i en
Ġm ist
ĠM or
Ġocca sion
ĠJ apan
Ġru de
if t
Ġapp le
Ġturn s
Ġs oup
Ġv an
Ġcup board
a ms
Ġb lock
Ġma g
Ġboy friend
Ġidea s
od e
Ġv ol
lo y
Ġg rown
Ġar ch
ist ic
Ġd ream
Ġa cade
Ġcan cer
Ġbu ll
ĠM a
Ġb atter
Ġdanger ous
Ġy e
Ġno se
Ġne ighbour
Ġso ft
Ġpol it
Ġc rea
ut ion
ow n
Ġth ick
Ġben ef
Ġl oo
Ġbig gest
Ġmo b
Ġenjoy ed
Ġcl os
Ġex cellent
ĠM o
ress ion
Ġhea t
Ġcar ro
Ġcr is
m med
Ġmo v
Ġli ft
Ġfar m
Ġbea ns
Ġcommun ity
Ġlaugh ing
Ġpre t
Ġaw esome
Ġw i
ch ed
Ġbro ke
Ġuse ful
Ġsk i
Ġpress ure
Ġsa fe
Ġcl osed
Ġsim ple
h o
Ġtr ust
ĠIt al
Ġa unt
Ġb ru
Ġth in
Ġle mon
Ġsec ret
Ġless ons
Ġdro pped
l ook
Ġcont in
ant ly
Ġticke ts
Ġr ich
Ġex erc
Ġho le
Ġca st
Ġid i
Ġg ran
il s
ĠSc ot
ĠA l
Ġpain t
Ġpl enty
Ġo w
Ġcur ry
Ġsh out
Ġpass ed
Ġin vest
Ġsing ing
w ow
Ġlo g
Ġten nis
Ġp sy
Ġr iver
se e
Ġopen ed
ick s
Ġinc l
Ġsp lit
Ġst o
Ġdi re
Ġpo sh
Ġsc ore
Ġc ous
Ġsw ear
Ġclear ly
Ġbath room
Ġdis c
Ġnu mbers
Ġb ill
Ġp ort
ed s
bo x
d a
p l
Ġm is
Ġqu ality
ĠP ar
Ġh ur
Ġsa lad
Ġbo red
u ine
Ġf le
an a
Ġbe com
z z
Ġv i
Ġb urn
Ġm ount
gg ing
Ġru g
g ood
Ġc ine
Ġpop ular
Ġdoub t
lan ce
s p
Ġe t
Ġsu it
ĠW or
Ġb right
Ġkeep ing
Ġsk ills
n eath
Ġter ri
Ġm ort
ĠD on
Ġro ast
Ġveget ables
Ġg ri
Ġg un
Ġlibr ary
Ġtrave lling
et ic
Ġju ice
Ġgen uine
Ġr i
Ġst e
ĠS w
Ġhard ly
Ġs le
er gy
Ġd an
Ġco ast
Ġher self
Ġaw are
Ġpass port
Ġta ught
Ġfu nd
Ġunder neath
Ġy um
at t
Ġsc en
Ġsome how
Ġba gs
Ġcon te
Ġcra ck
Ġext reme
Ġfor t
ĠScot land
Ġins urance
Ġno ise
Ġj e
j or
Ġbe ca
Ġspo on
Ġd eath
Ġc red
Ġst ore
Ġacc ident
Ġtra d
fort un
Ġtech n
n ers
Ġg ay
oo gle
Ġche ers
ib ility
Ġfut ure
Ġg ig
Ġba bies
Ġbra nd
Ġp ardon
Ġan g
ĠM ay
b ing
Ġstru gg
Ġwh is
Ġcon cer
Ġhop ing
ab out
ĠG ree
Ġpsy ch
Ġs li
Ġp ath
Ġca f
ive s
Ġsepar ate
ent ially
Ġsea t
Ġpos ition
Ġmention ed
s k
Ġr ang
ĠJ une
Ġchar ity
Ġst ories
Ġla mb
on y
ĠW ales
Ġleave s
Ġstand ard
C os
Ġshow s
ĠWh at
Ġo ven
Ġsqu are
Ġgar age
ll ed
ca st
ist er
Ġresp ons
Ġcust om
ĠS o
Ġhigh er
Ġst ock
Ġv o
Ġopt ion
Ġcult ure
Ġg l
ra m
Ġcl im
Ġep is
sh ing
Ġha ll
ic ious
Ġcl ick
Ġdel iver
Ġwa ste
ort un
Ġpret end
Ġchang ing
Ġno n
Ġlike ly
ul ts
Ġsleep ing
Ġthe ory
Ġlet ters
Ġgre y
Ġpull ed
le y
Ġargu ment
Ġar my
Ġopp ortun
Ġorigin al
Ġst ress
Ġde b
li ed
bu ry
Ġp icking
ĠEuro pe
Ġlear nt
gg ed
ean s
g age
Ġca ught
Ġinc red
ĠItal ian
Ġcor rect
Ġkn ife
e ch
Ġtast es
ĠM c
all en
Ġrelation ship
Ġpens ion
Ġcine ma
Ġby e
ĠG oogle
Ġfore ver
Ġcomp lain
Ġmar k
Ġi ron
Ġpiss ed
Ġe co
Ġanno yed
Ġvers ion
o ver
Ġconf used
Ġemp ty
ĠM an
ou ps
re nd
ĠS ky
Ġfla vour
Ġma jor
Ġput s
Ġinv ited
ĠI re
no lo
ĠYork shire
Ġsc ra
en cy
Ġt our
Ġh y
Ġsc r
u ff
ro ad
Ġplea sed
Ġinst ru
ĠIre land
Ġwonder ing
g ar
Ġknow ing
Ġcom fortable
Ġshow ed
Ġcolour s
Ġi g
Ġl ying
Ġwe l
or m
Ġun fortun
Ġdoor s
Ġtax i
Ġh oo
iv id
Ġh ill
Ġac cess
ear s
Ġimp ro
a ss
Ġco py
Ġbea t
Ġn ational
oh n
Ġsp in
Ġba con
Ġind ust
Ġrug by
e ed
ĠC an
ĠMar ch
Ġtele vision
Ġmob ile
Ġd uck
Ġhold ing
it ter
on a
Ġk iss
Ġsuc cess
Ġp i
Ġbe ef
ĠO ct
ing ers
i k
Ġsmo ke
Ġch ap
ĠP h
f ord
Ġpro m
Ġpract ice
Ġdep art
e very
id ence
ur al
Ġco ck
ar ian
Ġdes k
Ġex ist
Ġjo king
h and
Ġg inger
ro m
ĠW ar
Ġig no
Ġre qu
o ber
ch es
Ġba se
ĠWor ld
Ġf inger
Ġaff ect
l er
Ġr h
Ġst at
Ġdi v
ĠInd ian
Ġa ye
Ġr ough
f a
ug ust
Ġanim als
eter a
Ġs ite
Ġval ue
an ces
Ġre ci
Ġca kes
Ġrad io
Ġp in
Ġbox es
Ġop in
b les
ĠK or
Ġeco no
b ably
Ġce le
Ġcaf Ã©
Ġnot es
Ġen ergy
Ġbad ly
Ġcoun cil
Ġco tt
Ġapp re
a u
ber ry
pri l
Ġplay s
Ġpur ple
Ġb on
Ġco ach
Ġst yle
h er
tt e
Ġav o
Ġdown stairs
Ġnight s
um ably
ĠOct ober
Ġt ight
in a
ĠAfric a
Ġsur v
Ġd ick
y ep
Ġl ab
Ġre du
Ġcomp lic
pp ers
ĠJ u
Ġmanag er
Ġplay er
Ġro ck
Ġty pes
Ġon ion
ĠA ugust
Ġwhe el
Ġdro ve
Ġscr atch
a se
Ġbr id
y ear
ive ly
ĠO r
Ġroo f
Ġsp ot
Ġi mm
Ġfollow ing
Ġwindow s
Ġpur p
e ven
at a
al right
ge ous
Ġhang ing
a ma
Ġph oned
Ġal ive
ĠB la
Ġfam il
ex actly
ĠJ ack
Ġsoci ety
Ġgenuine ly
us ing
Ġset ting
u mmy
Ġw ild
Ġis land
Ġke en
Ġmat er
ĠTh at
mb le
ĠY ear
Ġadd ress
l s
Ġanim al
Ġg lo
Ġwho se
Ġcl ock
Ġch allen
Ġgu it
Ġtra ck
Ġro ads
Ġmix ed
Ġind ivid
pro bably
Ġsp read
Ġsh ar
ĠA pril
Ġair port
id ing
Ġtoo th
Ġsuper mar
B C
ĠJ ohn
Ġdecis ion
Ġb ang
Ġf ingers
Ġal one
Ġincl ud
z en
Ġa ud
Ġha m
ro du
ag ed
Ġjour ney
ra b
ĠA n
Ġob s
Ġang ry
ĠD o
Ġexp l
Ġmod ern
Ġco w
ra ft
Ġappre ci
t ch
Ġhelp ed
z ed
en g
ent ly
Ġpres umably
Ġreg ular
Ġatt ention
a red
ea se
m es
Ġsa le
op s
ep end
Ġhundred s
m ary
in ing
Ġthere fore
Ġre v
ĠC V
i red
Ġi mmed
Ġl ower
Ġne ck
Ġch uck
Ġv ote
it ions
id d
iss ion
ber ries
Ġsme lls
ĠI p
Ġc ro
Ġf oc
Ġgr oups
d in
Ġse ver
Ġmu sh
if y
Ġr ail
Ġchang es
ick y
Ġte lly
Ġmost ly
Ġcover ed
ou red
Ġf r
r ish
Ġp oo
re ed
ic er
op e
Ġv ag
Ġstra w
Ġimmed i
la rious
Ġfind ing
Ġli t
ct ure
Ġback ground
ĠF eb
y our
Ġs earch
h as
ic le
Ġbring ing
out s
Ġbla n
Ġy ay
Ġpart s
ove mber
Ġmic row
Ġd ance
Ġtr ous
Ġcon c
ĠG u
Ġspend ing
Ġfig ure
Ġb un
Ġbird s
Ġch o
Ġsm art
e c
Ġun cle
Ġcomp an
Ġche e
Ġt ough
ca ke
Ġhi larious
Ġ ver
Ġd irty
Ġco mb
Ġpre gn
Ġbeca me
Ġg as
Ġchill i
Ġn ature
ce mber
Ġl ines
Ġclass es
Ġlevel s
Ġsport s
Ġcred it
u ra
Ġha r
Ġse ction
ĠG e
Ġnight ma
Ġret urn
Ġa la
Ġsecond s
la ry
Ġr ules
Ġnow here
Ġrout e
Ġris k
am n
Ġtomato es
co mm
Ġfa shion
Ġbl ow
ĠLe go
Ġres pect
Ġgran ny
Ġdress ed
Ġmean ing
Ġlangu ages
Ġwel come
im um
Ġspec ific
ĠI rish
ut h
Ġhard er
Ġi r
le ct
Ġco at
Ġan ti
ition al
Ġtell s
Ġfin al
Ġprof ession
Ġk ick
Ġex ams
ĠTw itter
it es
Ġhow ever
Ġatta ck
Ġy o
Ġc and
Ġf rea
Ġre mo
Ġcar p
Ġreason s
Ġab road
Ġhealth y
Ġnot e
Ġconte xt
Ġr ab
Ġbo ss
Ġmain ly
Ġl ink
st ed
Ġqu e
Ġshow ing
Ġcomplic ated
b ly
Ġbott les
ch e
Ġne ither
Ġwant ing
ĠFeb ru
Ġw oo
Ġdad dy
Ġpub lish
Ġdo t
ĠDe cember
Ġexerc ise
ĠN ovember
ta ly
l in
Ġdo cu
Ġdown load
Ġde v
ĠB o
Ġf ir
Ġwo ah
Ġunfortun ately
ĠFebru ary
w ould
Ġguit ar
Ġhelp ing
Ġcompan ies
Ġroo ms
Ġcla im
r ate
Ġpu dding
Ġrep ly
Ġdra g
Ġmod el
ĠInd ia
Ġind eed
Ġz ero
la ble
ĠM iss
Ġob ject
Ġindivid ual
Ġmiss ing
Ġbiscu its
f l
Ġn icer
Ġqu al
il es
c ling
Ġin vent
Ġr ate
ol i
ĠB u
Ġen v
ĠJ ew
fer ence
e v
Ġu r
Ġt ou
Ġs our
Ġan a
Ġcall ing
Ġgra vy
Ġrun s
ĠI taly
id s
Ġst one
ter n
pp le
ĠW e
Ġdri ver
Ġwo ke
Ġp ea
Ġbu mp
ĠH o
Ġtur ning
Ġr ide
Ġobv ious
se c
Ġdis co
Ġdist ance
ĠNor th
Ġprote ct
Ġoccasion ally
Ġbrid ge
Ġidi ot
p ers
Ġbit ch
ograph y
c ious
Ġfe st
Ġav ai
Ġs ides
me nd
Ġfore ign
Ġsha pe
Ġt ro
Ġst ood
Ġsc rew
Ġcomm ent
Ġinv ite
nolo gy
u mb
Ġp atter
Ġre ce
Ġsurpr ise
ar ies
Ġn ast
Ġdepart ment
Ġnightma re
l ight
Ġspo ken
Ġs n
Ġe uro
Ġcomp ared
Ġaut h
i ents
ĠD av
Ġhor ses
Ġrel ative
Ġpregn ant
Ġt ar
er g
Ġsp are
Ġthousand s
Ġemail s
Ġatt ract
st ro
if ied
Ġvar ious
Ġopin ion
mp t
ĠP ol
Ġrecord ed
Ġpurp ose
Ġto r
Ġfor k
Ġsp ell
Ġde cent
Ġslow ly
Ġbut ton
Ġst airs
ct ors
Ġre view
ĠPar is
Ġtou rist
Ġsh oo
Ġthing y
ĠC ar
Ġc ree
ir on
Ġwho ever
ĠB BC
Ġear s
Ġtrous ers
ie v
Ġear n
Ġenj o
Ġr ow
Ġcost s
Ġcele br
h ead
Ġint rodu
us es
Ġarri ved
Ġb orrow
Ġg a
Ġfu cked
ĠL ab
Ġd amn
Ġj am
Ġsa ving
Ġbo mb
Ġest ate
Ġah ead
ĠG ood
Ġa ver
Ġsh ock
Ġspr ing
Ġmem ory
ĠE x
ĠE ast
Ġrecogn ise
Ġopportun ity
Ġsa ved
im ent
ĠT ur
Ġteen ag
h ip
Ġb unch
use um
Ġcut ting
ĠBrit ain
Ġenjo ying
a f
Ġt im
co tt
Ġcur rent
Ġsaus ages
Ġs ou
Ġy you
Ġca sh
Ġpar king
Ġdo ll
ĠB e
S E
u be
Ġi P
Ġd ue
Ġst eak
Ġta p
Ġapp oint
Ġear th
Ġju dge
Ġmov ie
Ġser v
Ġsend ing
Ġmush room
Ġcall s
Ġmen u
Ġc rit
Ġgo r
Ġfo ld
Ġde m
ĠH e
Ġcomm it
Ġb ri
Ġb ul
ĠCa mb
ĠHar ry
Ġm ile
Ġta pe
Ġt un
Ġf ed
sh it
ĠA ma
Ġpr ices
m en
p ut
in o
Ġplant s
ot ter
Ġen c
Ġgra b
Ġrep ort
Ġbatter y
h ouse
Ġt id
Ġw ire
Ġho st
ress ive
ĠDav id
u de
Ġdo d
Ġpet rol
Ġy og
Ġvi ol
c ul
Ġdra ma
i or
Ġwe st
Ġup d
Ġspe ech
Ġclea ning
ma ch
Ġint ell
ĠP a
ĠN ational
Ġent ertain
en ing
le x
Ġlo ck
Ġc ig
Ġche cked
Ġnast y
Ġshe ep
Ġsle pt
ĠJu ly
Ġqu een
ĠP er
ar row
Ġad ult
end ed
Ġtra de
ĠP ort
Ġmicrow ave
Ġp ure
ot ion
Ġcour t
Ġid ent
Ġcommun ic
Ġgra ss
Ġed ge
Ġsurv ive
Ġenv iron
r ant
z on
Ġf li
en ces
Ġact iv
Ġhel ps
Ġfree zer
Ġembarrass ing
en ed
Ġpri mary
Ġexpect ing
Ġmort gage
Ġavai lable
Ġrec om
Ġj eans
al k
Ġpe pper
Ġfa lling
Ġar ms
ĠG o
Ġdet ails
Ġdan cing
sh er
Ġclos er
Ġp ra
Ġbe ha
Ġrecom mend
Ġm i
Ġarea s
Ġdel icious
Ġemp loy
Ġvol unt
eng th
Ġm ir
Ġche m
Ġgor geous
Ġpa cked
Ġgra du
Ġsc ar
Ġin it
Ġar se
Ġpr on
Ġwonder ed
Ġr ace
te e
comm od
Ġcan not
il os
Ġsp icy
Ġpr ison
Ġad mit
Ġty p
Ġpain ting
Ġbecom es
Ġenviron ment
Ġr are
Ġfa ke
Ġun it
Ġill eg
c c
Ġd ess
Ġp itch
is ation
Ġs no
Ġr ange
Ġc art
Ġcl oud
Ġmin i
Ġquick er
Ġmed ic
Ġp ork
ĠB ut
Ġph ones
ran k
Ġtalk s
Ġcy cle
Ġtech nology
Ġaut om
o ss
ad ays
Ġdis p
Ġperfect ly
ou ra
Ġclass ic
k in
Ġwh a
Ġad vice
Ġda ma
Ġa er
Ġh ide
Ġro le
Ġpos itive
Ġorigin ally
Ġala rm
Ġproper ty
Ġacade mic
Ġtw ent
Ġhu nt
ĠG C
Ġst ars
Ġan t
Ġta bles
li me
Ġg iant
Ġto w
led ge
Ġbe ll
Ġch a
Ġnow adays
Ġac commod
Ġher s
sh op
Ġrain ing
Ġdru gs
ĠAma zon
d es
Ġsh ed
Ġtrans l
Ġcous in
Ġ ought
er al
Ġmeal s
Ġimmedi ately
Ġbu d
cept ion
Ġd ent
Ġcry ing
p re
ĠM us
ĠB rown
Ġsto mach
Ġon ions
ct ions
ĠU n
Ġass ume
Ġveget arian
Ġs ink
Ġp int
Ġj ac
ĠW est
Ġcrea te
Ġk nit
ri but
Ġend s
Ġpre v
Ġche f
Ġsong s
Ġtur key
Ġsens ible
Ġh ed
Ġg ru
ac y
Ġc row
Ġp ill
Ġcare er
Ġflight s
Ġt it
Ġkno ck
Ġcarro ts
Ġact ion
Ġlo sing
Ġsever al
c ould
Ġch est
ĠGC SE
Ġli mit
Ġk ing
Ġca use
Ġind epend
d ing
f air
Ġli c
Ġmu rd
Ġca b
ru pt
rend ous
Ġcon v
Ġro b
ĠRuss ia
om an
Ġc er
ar a
Ġn urs
Ġwhere ver
Ġge ography
ar re
ro at
icke t
Ġappreci ate
lime y
Ġhelp ful
Ġbo il
Ġrep lace
Ġaver age
Ġiss ues
u la
ir ts
Ġfriend ly
gg er
Ġgre w
Ġepis ode
Ġindust ry
re et
Ġcont ro
Ġcheck ing
Ġdire ction
v i
ĠS im
ĠM on
Ġea st
Ġsound ed
ugh ty
Ġdi et
Ġfl ower
Ġhand y
Ġconcer ned
h mm
Ġd iss
ol k
ate g
Ġfu ss
Ġour selves
ĠZ ea
Ġrelig ion
Ġcont ent
Ġthrow ing
Ġdod gy
Ġth i
Ġn ut
ĠY out
Ġboo ts
Ġsupermar ket
f irst
in ation
Ġgo og
ist ics
Ġtot al
Ġana ly
Ġperson ally
Ġorgan ised
Ġtemp er
Ġch i
Ġhor rendous
Ġmat es
Ġwalk s
iv il
ma le
gg y
Ġru le
Ġchat ting
mp s
ie th
Ġdec or
Ġliter ature
ra id
ĠP otter
Ġinf lu
f rom
Ġw ore
Ġsix th
Ġd ata
Ġn at
tt ing
Ġti e
Ġfin ally
r ation
Ġthe at
Ġk it
Ġco de
Ġy ummy
it ude
ur ity
Ġus es
ĠA ir
ĠJ ames
ia no
oun ce
ĠEuro p
Ġbear d
Ġconsider ing
Ġp un
Ġn uts
Ġmist ake
Ġdocu ment
Ġc etera
Ġba lls
Ġfe male
Ġcl ue
Ġneighbour s
ir ing
ta il
Ġfamil ies
u ry
Ġl ength
ri a
Ġcomp ar
Ġhand le
Ġd are
Ġcon cent
Ġstud ying
er ve
Ġplan ned
Ġdo ctors
Ġsa f
Ġpain ful
Ġtast y
Ġp iano
ĠZea land
l or
r ict
Ġf urn
ĠS y
Ġaf raid
Ġear ning
Ġengine ering
ĠT o
Ġbl ind
Ġmet al
Ġsign s
Ġna ughty
Ġs ession
re l
ent ial
Ġne g
Ġoffer ed
ri age
ĠT ha
Ġpl u
Ġspr ay
Ġchallen ge
Ġd ying
Ġpart ner
Ġcamp ing
ura lly
Ġpu lling
i ar
Ġplan s
Ġfest ival
Ġch rist
Ġapp lic
Ġsea ts
Ġconvers ations
Ġn ails
Ġch an
ĠS cott
Ġsk y
Ġleg al
ĠCamb ridge
d ad
ch ing
Ġba lance
ĠE ve
Ġhol es
Ġilleg al
no rm
Ġne st
s er
Ġso fa
Ġpa cket
Ġper form
Ġpres ents
Ġorder ed
Ġaunt ie
Ġcig are
Ġt rea
ver se
Ġpro p
ĠD V
Ġsh oot
Ġma le
sh es
Ġc ell
Ġsh ift
ĠS ains
ord s
Ġhu m
ĠU m
Ġjump er
ĠKor ea
Ġenc oura
c kets
Ġin come
Ġtr uth
Ġtechn ically
Ġb oot
Ġp our
Ġba re
Ġpl ates
Ġcharact ers
b a
g ers
Ġla ke
od ka
Ġmater ial
H S
Ġn erv
ĠW ell
Ġsw ap
Ġphotograph s
Ġimp ressed
ĠPol ish
Ġd ates
id dle
Ġtw e
Ġm ood
Ġin g
Ġmar ks
Ġappro ach
ĠSt reet
Ġnerv ous
Ġsc an
Ġmess ages
Ġfra me
r ay
Ġch airs
ĠM ac
Ġdeg rees
Ġreci pe
s it
u le
w ers
it or
Ġch ose
Ġsp ir
ti red
Ġmed ia
Ġbenef it
Ġm useum
Ġhi re
Ġsk ill
ĠTha i
Ġt ick
Ġstop s
Ġoc c
Ġcir cle
b el
m i
ĠB ra
Ġhome work
Ġart icle
k ers
m ark
Ġst ro
Ġst eal
Ġfun n
ĠJ esus
Ġfill ed
Ġsaus age
Ġdescri be
Ġp ed
Ġbur nt
s u
Ġw ise
Ġp unch
iz arre
Ġdig ital
ĠYout ube
Ġmar ry
Ġvide os
Ġlunch time
Ġincred ible
ea m
it ure
ver ed
ul ation
Ġun us
Ġbro cc
Ġcri key
ĠSains bury
ell o
Ġsc ream
Ġhead s
Ġsign ed
n ice
ut ter
ĠS ha
Ġback wards
Ġlea f
Ġsec urity
Ġring ing
Ġd read
ca kes
ĠC or
Ġpo cket
ag ne
Ġcast le
j a
Ġa im
Ġw ide
Ġp ow
Ġopt ions
s is
Ġh oney
Ġh ated
ther s
ĠC D
Ġkind s
Ġover d
ĠP eter
Ġpart ies
Ġrel ated
Ġconne ction
w are
Ġh om
et ti
ist an
Ġlet ting
all ow
Ġimp ression
Ġintell ig
Ġprofession al
u sh
Ġcar ried
Ġdepend ing
ĠDV D
Ġme mber
Ġv odka
Ġfin an
ea red
Ġsh h
ot ed
Ġpu mp
ĠAmerican s
Ġcott age
n al
Ġd ust
b ble
s a
Ġfu lly
Ġbrocc oli
ĠW ill
Ġbla me
Ġclass room
Ġhea ting
Ġimpro ve
Ġb izarre
ĠA rab
ĠM ich
ĠE s
in ting
la s
Ġn ail
Ġpla in
Ġpl ug
Ġbl ond
Ġfoc us
w or
Ġf ab
Ġfour th
ĠGe or
Ġa mb
Ġb at
ĠW el
ĠRuss ian
Ġtheat re
Ġp eas
Ġsol id
Ġar range
Ġexpect ed
pri ate
Ġstep s
Ġt ub
Ġe th
Ġfro zen
Ġbro ad
Ġinc rea
ĠIp ad
b ur
Ġo o
Ġgo lf
he y
Ġr ose
Ġtop ic
Ġreason able
Ġpan ic
ĠBla ck
b on
Ġp y
Ġbe y
Ġlo l
Ġpa ges
Ġtable t
Ġans wers
Ġentire ly
c ar
Ġb limey
Ġconf ident
Ġdess ert
Ġb ite
ĠS he
ĠP r
oun ge
Ġing red
Ġunus ual
r ating
at ically
Ġd iction
Ġc ough
Ġlo an
ĠD a
Ġhalf way
ress ing
ĠO x
Ġcomput ers
Ġfight ing
ilos oph
p ool
Ġopen ing
Ġtrain s
Ġsal es
Ġban ana
Ġski ing
ĠEurop ean
Ġch ip
os es
Ġcome dy
ĠB ir
ch ie
ĠG reat
Ġreal ity
Ġtest s
Ġsuccess ful
Ġche w
Ġrec y
Ġcr icket
ĠWel sh
Ġco p
Ġgrand pa
ing u
ĠB en
Ġsi xt
Ġen g
Ġaccommod ation
Ġfurn iture
Ġt ent
Ġl ounge
Ġsent ence
Ġmag az
Ġavo id
Ġgra de
Ġintern ational
Ġperm ission
p ly
Ġcarp et
Ġli f
Ġsh ip
Ġst amp
ĠC l
Ġfix ed
Ġwra p
f ied
h at
Ġm er
ri an
Ġgu ar
ĠCh ar
Ġmid night
Ġfor ce
ĠC orn
Ġfill ing
Ġproduct s
Ġwhis ky
Ġph ra
Ġsca le
Ġlect ure
Ġe ld
Ġpro of
Ġlad ies
Ġboo m
Ġconst antly
Ġcontin ue
Ġir rit
o on
ll a
ke ting
Ġdi es
ĠC am
Ġbo ll
pe ople
Ġcar av
Ġdifferent ly
Ġsci ent
Ġsmo king
i als
Ġc ivil
Ġwa nder
Ġrea li
Ġpro ve
Ġti p
ord ing
Ġg ross
Ġknow ledge
od es
Ġre tired
Ġpe el
Ġshould er
ĠL ike
Ġweekend s
did n
Ġbe nd
ig ning
Ġbu m
ĠW ind
Ġpot entially
pa red
Ġchee ky
Ġo l
Ġli m
la m
Ġsh irt
Ġu lt
ĠB l
Ġaw ake
Ġthe me
Ġwa rd
act ually
Ġblo g
b or
Ġf i
Ġf ear
Ġremember ed
Ġru sh
some thing
Ġtrad itional
Ġr ot
Ġco pe
Ġmin imum
Ġapp lied
Ġauth or
m hm
Ġc re
Ġwa lls
Ġr ap
mp y
ict or
Ġcris ps
ĠScott ish
Ġstre tch
Ġprogra mm
oss ible
Ġbud get
ĠMus lim
Ġcur t
Ġskin ny
Ġbey ond
Ġn i
Ġpro g
Ġkne e
ock s
gh etti
lo yed
Ġext ent
Ġbar be
Ġna ked
Ġpush ing
Ġneg ative
ĠC on
Ġret ire
Ġcreat ive
Ġjac ket
Ġg ear
ĠM in
Ġcour ses
Ġsit s
Ġworry ing
a el
id ers
Ġor din
ter y
Ġmu l
ĠE d
Ġem otion
Ġscen e
Ġtyp ical
n ut
p ir
Ġto ol
la w
co mp
Ġeight ies
ĠGree ce
Ġvolunt e
a ld
Ġph ilosoph
ran ce
Ġcor p
Ġmar keting
Ġmanage ment
Ġconnect ed
Ġrespons ibility
c ut
Ġme mbers
ĠO f
Ġprof it
ĠJapan ese
Ġarch ite
u med
Ġt ong
in c
ra el
Ġextreme ly
Ġmea sure
ad a
ĠLab our
ch ester
Ġde stro
Ġpre pared
Ġtr icky
ĠThe y
Ġterri bly
u ms
Ġg ate
qu es
Ġmu lt
ĠN e
ĠSt ar
Ġlect ur
Ġtar get
Ġtemper ature
n ic
ter m
Ġve g
Ġpen is
ĠPo land
Ġserv ices
Ġfa sc
Ġimp ossible
Ġcarry ing
Ġkno cked
Ġeuro s
Ġm ouse
Ġl ane
al f
ĠS a
Ġpr oud
s pect
Ġg ap
Ġp red
Ġj esus
Ġch amp
ca se
land s
ĠV ictor
iet y
Ġoper ation
Ġcap ital
ĠGree k
b al
o ff
in ating
Ġwh oo
Ġr at
Ġhe ld
Ġcra sh
Ġremind s
Ġguar an
oo th
ĠChrist ian
Ġtrans fer
Ġtrans cri
Ġjour nal
b by
Ġk il
sh all
Ġjo ined
Ġass ist
Ġnice ly
Ġbru sh
ve y
Ġst or
ĠM ad
ĠT ra
Ġjump ing
Ġprov ide
Ġspa ghetti
Ġtun nel
se ll
Ġch im
tt ed
ĠM P
Ġpo ison
ĠH ow
Ġmic ro
Ġhed ge
c ue
in y
Ġshe et
Ġsu ff
ĠN HS
Ġcrow d
h old
m um
ill e
Ġke ys
Ġgra mm
any way
Ġwin ning
m os
Ġinst ance
Ġra w
g a
Ġd ough
Ġf ry
ĠR ob
Ġla zy
Ġdes per
Ġsweet s
Ġdish wa
Ġshout ing
Ġrab bit
i us
ro p
Ġmo an
Ġbed s
ĠIs rael
ĠMr s
Ġst ressed
Ġma sh
Ġad vent
Ġmajor ity
Ġfr ust
Ġth rown
Ġta il
ol es
dd le
Ġidea l
ming ham
Ġmed ical
att oo
o k
Ġk icked
Ġset s
Ġsim ply
Ġbi kes
Ġfeed back
Ġpi pe
Ġappoint ment
p ress
ĠI ce
and a
pt ion
Ġfif th
Ġres ults
Ġcy cling
Ġdraw ing
ff y
d own
ri er
Ġmon key
Ġmove s
Ġcarro t
Ġmount ain
Ġpra wn
ĠGeor ge
Ġso cks
Ġele ment
Ġpush ed
h ib
in th
is n
Ġch oo
if ically
ĠD ub
Ġstop ping
Ġwash ed
Ġrh y
Ġfa iled
Ġacc ording
Ġsm ile
at in
at ory
Ġstick s
ĠCo ke
Ġingred ients
Ġo we
Ġsp on
Ġfif ties
ĠU ni
Ġes ca
Ġwood en
Ġstrugg ling
Ġshoo ting
Ġdiction ary
ĠBir mingham
Ġ ll
Ġl ads
il ities
Ġsl ide
Ġgener ation
Ġdevelop ed
Ġdiscuss ion
Ġfle w
Ġordin ary
v ant
Ġout f
Ġma gn
Ġvag ue
Ġg rea
Ġbut t
sh irt
Ġsl ice
ach e
Ġprint ed
Ġde lete
Ġbrea st
Ġque ue
Ġmushroom s
h ood
Ġg ro
Ġmo on
ĠB er
as ed
ip es
Ġbrea king
Ġluck ily
Ġcal m
Ġcond ition
Ġmount ains
Ġp or
oo ming
ĠS m
Ġpa use
Ġgu est
Ġpart ly
ag ing
Ġset t
ens ive
in ct
Ġre fer
Ġex act
ord er
Ġhear ing
f if
o le
t es
Ġg all
Ġst ab
ch an
Ġev al
Ġnat urally
f y
Ġf right
la nt
int s
Ġstr ing
Ġbas is
Ġbiscu it
Ġattract ive
Ġu nd
ain ed
so ci
Ġround about
Ġmill ions
Ġa chie
Ġd ing
Ġno vel
Ġhe els
Ġmake up
Ġah a
Ġjo kes
um n
tw enty
Ġcu cu
Ġtut or
y a
Ġst icking
ess ed
Ġag reed
ĠB ru
Ġar gue
Ġadd ed
Ġbri ef
Ġsaf ety
ea st
Ġsort ing
go ing
ĠQ u
Ġoffic er
st op
Ġcon cept
Ġflat s
Ġdel i
Ġcree py
Ġgoog le
a sh
Ġj un
ish ed
um ing
Ġess entially
e me
Ġb one
Ġf ried
Ġtw ist
Ġfl ood
ĠU S
Ġnet work
Ġcer eal
Ġgo al
le ction
Ġlo cked
Ġtea ms
Ġperm an
Ġmu d
Ġfall en
Ġequ ival
Ġsixt ies
g ly
Ġt attoo
is y
Ġus ual
Ġplay ers
ark s
Ġcompet ition
ĠSky pe
Ġinclud ing
Ġf erry
Ġmu s
Ġdet ail
Ġlect ures
Ġpow der
Ġblond e
Ġdishwa sher
Ġw eak
ut y
ff le
un ning
ĠB ro
ĠL o
as p
Ġbuild ings
Ġsandwich es
Ġbas ket
ea ble
st on
ĠB el
Ġpres ume
Ġhous ing
Ġrestaur ants
Ġmotor way
Ġmul ti
b ag
r ated
Ġsa lary
Ġas soci
ab solute
Ġcon ference
Ġth rew
or ter
Ġr ings
Ġsa i
Ġsu mm
Ġmet res
e ms
f act
Ġst ir
Ġmat t
ĠV al
Ġcor n
Ġev il
Ġlic ence
ld i
Ġunderstand ing
Ġfo x
Ġrelig ious
Ġmurd er
Ġequival ent
g od
Ġs s
Ġh ates
Ġl in
Ġhe ight
Ġre ception
ĠT om
eal ous
Ġbar s
Ġspec ifically
Ġha bit
ed ing
ar i
Ġal tern
Ġdi p
Ġrecord ings
ĠI T
Ġf aster
ic les
al m
Ġbr ings
Ġfair y
Ġrac ist
Ġje well
ĠP ark
ĠL u
Ġbenef its
Ġact ing
ie f
ĠP ro
ĠG ra
ĠL iver
Ġapp ear
Ġcont ribut
mo ther
Ġuni vers
Ġchicken s
Ġsevent ies
Ġcent ral
Ġbull shit
Ġdoll ars
Ġg ut
al og
Ġke ttle
ĠO ff
Ġtreat ment
Ġnan ny
Ġt ank
Ġc ateg
Ġn ah
Ġfree zing
Ġtrain ed
Ġima gin
Ġopp osed
Ġcreat ed
cel ona
Ġpatter n
b la
Ġd en
ta ke
Ġpr ay
by e
Ġstr ict
Ġemail ed
er on
Ġb ran
Ġsh ap
Ġal b
ab et
ag ger
Ġad ults
Ġexper ien
Ġphysic al
ĠMor ris
Ġqu ote
Ġlea der
Ġstre ng
Ġfir m
Ġmir ror
ĠOx ford
se x
Ġme chan
Ġchar ged
Ġev idence
pa per
Ġrequ ire
ĠJew ish
ĠM ex
Ġtheir s
h is
m ade
sh ips
Ġv ac
ĠP E
Ġdress es
ĠNor thern
Ġclub s
Ġsil ver
Ġje lly
Ġstress ful
Ġcarav an
im ate
Ġreg ist
Ġtu na
Ġtit le
Ġoverd raft
ĠWind ows
Ġr om
ic a
Ġj ealous
Ġpa pers
Ġv ouch
Ġpre p
pe st
Ġun like
Ġser ve
Ġpar s
Ġess ay
ĠBar celona
c ra
Ġab ility
Ġspeak s
Ġexper iment
Ġtreat ed
w ord
Ġg ent
le nd
oo h
Ġme l
ĠB a
oc ked
Ġtu be
ĠAustral ian
Ġgri ef
norm ous
Ġtong ue
ĠLiver pool
Ġsh ad
Ġex ten
Ġmassive ly
Ġg rill
il st
Ġpay s
Ġstud ies
Ġtrans port
Ġinterview s
p arent
Ġth reat
Ġb oun
Ġan n
Ġap olog
Ġland l
Ġnecess ary
Ġdevelop ment
does n
Ġprev ious
absolute ly
Ġconsider ed
ic an
Ġca ble
Ġv ine
Ġperson ality
Ġlisten ed
Ġatt itude
Ġcirc us
Ġprogramm es
e h
Ġl ingu
Ġp it
an cy
Ġr asp
Ġco re
Ġdri ven
Ġrid ing
Ġsurpr ising
Ġcamer as
i am
Ġwa ve
Ġha rm
Ġca pt
Ġsp ider
ĠL a
Ġapp eal
ord in
Ġembarrass ed
Ġpea ce
Ġboll ocks
Ġe normous
Ġfor ms
na me
art s
Ġdi ary
ĠA ldi
Ġanno ys
Ġarri ve
Ġcustom er
Ġtwe et
f uck
Ġin j
ri al
Ġun fair
ĠR oman
iz e
Ġatta ched
Ġigno re
Ġdent ist
Ġcigare tte
z es
Ġth roat
Ġdep os
Ġtable ts
Ġsho e
Ġstrugg le
h ello
u nder
Ġn arrow
om s
Ġdiv or
Ġeld er
ic ar
Ġfa lls
ĠA pple
Ġsc oo
Ġeat s
ĠO ne
Ġbur ning
w ere
Ġi it
at ors
Ġg ather
th s
na m
Ġfun eral
Ġpan cake
Ġphysic ally
Ġteenag er
ĠMich ael
ĠUni versity
Ġb ound
Ġn ap
Ġse es
Ġfa il
ĠD is
Ġbrea the
Ġsqu ee
Ġsal mon
Ġaccent s
Ġshar ing
o x
Ġab s
ĠR ich
Ġexper t
Ġequ ip
ĠRo ad
Ġgramm ar
ĠIce land
Ġdeli very
Ġt une
Ġc ider
Ġf ri
ind er
ĠG P
Ġsecond ary
Ġfeed ing
Ġproject s
Ġphysic s
Ġrail way
f i
Ġbe g
Ġn er
Ġshe l
mm a
Ġbu ff
Ġsch eme
res ent
Ġass ess
Ġdirect ly
Ġdeliver ed
ra d
ive d
Ġbel ow
Ġart ist
Ġmagaz ine
Ġmatt ress
ea b
Ġto wer
ci ent
Ġche que
Ġsw ea
Ġdiss ert
t res
ant a
ant ic
Ġthrough out
Ġla id
ib er
iz ed
Ġexplain ed
Ġrelax ed
Ġw ealth
Ġp ile
Ġlate st
Ġincred ibly
Ġperform ance
la ys
Ġre fu
qu ite
Ġfe es
ĠT e
Ġun if
Ġbl ooming
Ġdra wer
Ġsy mb
Ġelectric ity
ea ch
ĠI phone
Ġmin us
Ġpoint less
Ġad min
Ġpass ion
Ġtext ed
Ġprodu ce
Ġcollect ion
Ġaud ience
h ad
in x
Ġto e
Ġu gly
et ro
Ġrea ch
ĠA b
Ġrep la
gy pt
vi our
ĠS te
ĠJ o
Ġimp ressive
Ġadv ance
Ġpolit ical
Ġpolit ics
Ġma int
Ġsign al
Ġsun ny
Ġoffic ial
Ġbecom ing
Ġm ould
Ġp ies
Ġin ject
th ink
Ġma ster
ĠJ ust
Ġuse less
Ġc ities
ly mp
Ġma m
Ġma x
Ġca lend
Ġsit u
Ġpri or
Ġshort s
Ġbur ger
Ġstate ment
Ġtwent ies
r ang
u x
w ood
Ġh ook
Ġp ence
Ġwe igh
Ġn ur
Ġba king
Ġex hib
Ġun com
Ġtr ay
Ġcons ult
Ġtid y
Ġdama ge
Ġb ones
Ġpo ll
Ġmust n
Ġbel t
Ġbrother s
Ġrem ote
Ġconst ru
Ġ 3
id l
Ġk na
ol ic
ĠP e
Ġunder st
Ġpract ical
Ġclim b
Ġapplic ation
bel iev
g ive
Ġp ir
Ġso re
Ġha ird
Ġany how
ĠC up
Ġmar sh
ip ed
Ġhor ri
ger y
Ġfollow ed
Ġpract ise
ĠMorris ons
Ġpar a
Ġass umed
Ġresp ond
ho st
Ġbeha viour
Ġalb um
h i
ĠW ars
ĠO lymp
Ġres our
Ġdep ressed
Ġcustom ers
Ġecono my
Ġwe ed
Ġwor n
ell a
Ġpo nd
Ġsi sters
Ġfl our
Ġdeal ing
Ġcomplain ing
i ers
st ing
ut ch
Ġco vers
ill a
os en
Ġsc ri
ĠK ing
Ġtemp ted
ĠiP h
d ed
Ġre ma
ĠM e
Ġpo et
ĠL an
Ġask s
Ġhur ts
Ġindepend ent
th ese
ĠC ath
Ġjewell ery
Ġmar riage
Ġele ph
Ġbel ong
Ġnan a
Ġmis er
Ġcucu mber
ing ing
ĠE gypt
Ġname d
Ġclean ed
Ġdu de
Ġclea ner
Ġrelative ly
Ġdem and
Ġyog a
Ġmi xt
Ġautom atically
Ġt its
Ġf iver
Ġwa sted
Ġse eds
Ġas pect
Ġtri es
Ġlearn ed
Ġdire ctor
Ġfort une
c ers
Ġno isy
ĠL idl
Ġspeak ers
Ġdisapp oint
Ġdisc ount
ct ed
Ġla s
Ġima ge
ĠV en
Ġtri ple
Ġscream ing
Ġfasc inating
l ies
Ġsh y
Ġj ar
Ġba st
Ġter ra
Ġstrong er
Ġadv ant
ĠMan chester
idd en
i lly
r ound
Ġno od
Ġcomp lex
Ġapp les
Ġche es
Ġdis ab
Ġcol oured
ĠAs ian
parent s
f ather
Ġf ence
Ġst eam
ca re
ĠS ch
Ġv irt
Ġgu ide
Ġdis ease
Ġbus es
Ġdrag on
re te
it ary
le vant
Ġover night
ĠL atin
g en
Ġcomp are
ag ram
vis or
Ġveget able
Ġsuggest ed
Ġbo iling
ĠR oy
Ġla ck
Ġdep ressing
Ġter ror
Ġfle x
Ġuncom fortable
b l
c raft
h ang
no n
Ġhist or
Ġdist ract
Ġmov ies
Ġepis odes
b its
o mb
p ea
Ġb al
Ġp ier
th od
ust ed
Ġsu its
ĠB au
Ġwind y
Ġadd ict
Ġkill ing
Ġrespons ible
Ġequip ment
b et
et te
Ġown ed
Ġad ver
Ġfact ory
Ġkne es
Ġpass ing
Ġlight er
Ġrad i
Ġdesign ed
Ġimm ig
Ġmixt ure
a ult
Ġwh ilst
Ġch ick
Ġch osen
air y
Ġimp act
Ġru ined
Ġcons erv
Ġbank s
ĠAfric an
Ġvo ca
ĠTur k
Ġgradu ate
Ġnur se
Ġdu mp
Ġstru cture
Ġrout ine
Ġadvert ising
ĠMo ther
Ġw itch
Ġg y
ch y
ab y
Ġsupp er
Ġfield s
Ġcontin u
Ġmiser able
ĠBau er
Ġw it
th y
Ġright s
ven ue
ĠB ig
Ġcou p
Ġfla sh
Ġsm ooth
wa it
Ġconv in
b ow
Ġk icking
Ġag ent
Ġlea ther
Ġhand ed
Ġpop ulation
Ġfre qu
Ġeffect ively
c ies
Ġ 0
Ġw ings
Ġyou th
Ġf eat
Ġrea ction
oo m
Ġcan cel
ĠE U
Ġfun ction
ĠH or
Ġte x
Ġplea s
Ġsqu ir
Ġactiv ity
it er
ĠD an
Ġsupp ly
Ġstand s
Ġtechn ical
ĠCam eron
Ġdissert ation
Ġcalend ar
a ment
f ish
ol en
Ġv oted
Ġun believ
Ġend ing
Ġchar ging
Ġwear s
olog ical
Ġz one
Ġspin ach
Ġunivers ities
ĠM iddle
Ġward ro
b ay
d s
Ġb ung
Ġd rank
Ġspeak er
Ġglo ves
Ġdepos it
w rit
Ġy a
Ġli qu
ge on
f ying
Ġt an
ol ution
Ġwill ing
Ġam ong
Ġthir ties
Ġres ult
Ġmeet ings
Ġloc ation
Ġcri me
Ġfinan cial
Ġg ang
Ġmea s
Ġca ses
row s
Ġro lls
Ġguess ing
Ġju d
Ġreg ard
lu de
Ġbon us
f all
Ġb ills
Ġar rest
te st
Ġun c
Ġfree ze
Ġkna ck
k ea
p he
Ġc ath
ch ange
Ġex ha
mb s
Ġsch ed
Ġcountry side
Ġmag ic
g ain
i j
st ick
an as
Ġsh orter
Ġn ick
rea ms
ĠP re
ci p
Ġpass word
bb ed
a way
w s
Ġr ip
Ġch ain
Ġv ia
Ġtal ent
ph ere
ph ones
Ġcount er
Ġninet ies
Ġsign ific
Ġmusic al
Ġstick y
Ġwar ning
Ġfore st
Ġyo gh
A nd
Ġo i
Ġb od
Ġr ib
ic o
Ġj inx
Ġre h
ru sh
ĠG reen
Ġbook ing
Ġpar ked
Ġprin cess
Ġcho ir
Ġbare ly
Ġspir it
Ġgent le
v al
Ġth they
Ġp ean
mm ing
Ġpl ot
Ġfinish ing
Ġorgan ise
Ġpresent ation
Ġdisco vered
Ġdread ful
Ġc ub
Ġmy ster
mb led
Ġpa ed
ĠW a
Ġtra il
Ġhot els
Ġnor thern
Ġecono m
Ġchan nel
ĠCl ub
Ġachie ve
Ġtex ting
or ting
Ġbe lls
Ġca s
Ġlate ly
Ġconf using
Ġconcent rate
ĠTurk ish
Ġp ants
la sh
Ġshe lf
rea k
Ġact or
ain t
dd ings
Ġrep resent
Ġpub s
Ġblan ket
Ġguaran tee
b es
w ill
no r
Ġdri ves
Ġsk ip
Ġtri ps
y al
Ġh en
Ġbo iled
Ġgr ate
Ġtext s
Ġwood s
Ġorgan ic
Ġmot iv
Ġgri m
Ġstreng th
c ool
h u
o v
Ġp il
Ġbo nd
ĠG ame
ĠH a
Ġmin ce
Ġhi p
Ġbr ick
Ġhea ven
Ġsqu ash
Ġinvent ed
ĠPer u
Ġth a
Ġl oose
Ġg ift
Ġat mos
Ġmu sc
ĠC ity
ĠG re
Ġcons cious
Ġhit ting
work s
Ġappro priate
Ġinvest ig
ĠCan ada
ĠSha kes
Ġdesper ate
Ġin ch
al king
Ġch u
be y
ĠD en
Ġadver ts
Ġf et
Ġso lar
ig ner
Ġclim bing
Ġdeb t
Ġlo ft
ĠK en
Ġbrea thing
Ġrub ber
Ġdru m
Ġfund ing
Ġregular ly
Ġfrea k
ĠDis ney
w all
Ġli p
Ġwh ale
Ġout s
Ġma sters
if ts
ĠR ome
Ġprog ress
Ġsymb ol
c key
i ate
Ġp ipes
Ġwh ack
Ġbe ep
Ġe c
Ġqu ar
ell ing
ĠP ri
ne ver
Ġgra ph
Ġbuy s
Ġcompet itive
Ġconc ert
Ġsou thern
Ġbutt ons
b ra
g ent
p ack
x y
Ġs en
Ġshe ets
Ġas h
ma llow
Ġbu gger
Ġv ir
us ion
gg le
Ġprodu ction
Ġp od
Ġst ream
Ġbrea th
Ġtr ick
Ġsur gery
Ġcamp a
Ġevent s
Ġlu mp
Ġaltern ative
d am
Ġh idden
on ly
Ġp atch
Ġin her
ĠT op
dd y
Ġgrand mother
Ġpain ted
Ġfish ing
Ġste el
Ġj a
Ġbu sh
ĠE m
Ġgu il
Ġbreak s
Ġins ane
Ġvis a
g on
on se
Ġwe b
me t
Ġse ed
Ġsat is
Ġpan cakes
Ġtech ni
a pt
d om
i i
u ps
Ġd ice
or ing
Ġj ack
Ġhe ck
ch ild
wh ile
Ġfe e
Ġgra d
Ġinc lude
Ġcu ps
Ġsha red
Ġapply ing
Ġcirc um
Ġrequ est
Ġlim ited
n uts
Ġc ert
al though
ĠF l
Ġjo int
Ġcoll ea
Ġhea v
Ġdress ing
Ġmotor b
Ġcurrent ly
Ġresour ces
k ind
w ing
er eab
st ill
Ġbe lly
Ġup gra
Ġpe ppers
ĠS ec
Ġbu bb
Ġcl in
Ġjo y
ĠR ed
Ġtri al
Ġcal cul
Ġchop ped
ĠIn st
Ġunderst ood
Ġguil ty
Ġo ops
Ġfu el
Ġown s
Ġkid ding
Ġprin ter
Ġgun s
cast le
Ġbun ny
ĠUn ited
Ġmarsh mallow
Ġadvant age
Ġnood les
Ġm int
Ġbe e
ic ate
end ing
Ġgu ard
ĠD ar
ĠN et
Ġfre ed
Ġfig ures
Ġtrave lled
Ġet c
Ġshar p
e mp
Ġno pe
Ġst arter
Ġst olen
wh ereas
Ġpen cil
Ġtu mmy
ĠAs da
ona ld
af ter
Ġbung al
f ic
r at
s ay
t ra
Ġwho a
Ġbu g
ĠM art
Ġstuff ed
Ġv it
Ġdin ing
Ġdecis ions
ĠBo x
a e
n et
s ions
Ġd ed
ch air
ge nd
Ġsp iders
Ġlot tery
ĠA M
ĠM ag
ĠF in
ĠD or
Ġsing er
ific ation
Ġref lect
Ġcri min
Ġwi pe
alog ue
Ġyogh urt
m ind
in ated
ick ers
Ġem erg
Ġpot s
Ġbi ology
iet nam
Ġeye b
Ġclos ing
ĠSw ed
b an
d unno
v iously
st al
Ġall erg
Ġsp ect
be fore
Ġv ow
ĠF or
lo ve
Ġgrand parents
Ġent er
Ġtast ed
Ġpig s
Ġsna p
Ġinit ially
Ġeval uation
ĠRich ard
m ight
Ġqu ant
Ġbo ats
ĠT un
end er
ĠE bay
Ġdef in
Ġshit ty
Ġresp onse
Ġmach ines
Ġdeb ate
Ġvag ina
Ġbal con
u nd
Ġp ad
Ġan x
ss y
il i
Ġsp ark
ul ous
Ġint ense
ĠA re
Ġrep eat
ud i
Ġfit ted
Ġstreet s
ĠNor way
Ġpublish ing
ja mas
bur gh
Ġpy jamas
Ġlectur er
Ġwa ge
Ġas se
Ġch in
Ġbu cket
as ing
Ġra ise
Ġble nd
Ġri pped
Ġgru mpy
Ġocc ur
Ġvoca bu
Ġs eal
Ġr um
Ġcon ven
Ġde er
Ġv ib
Ġcar bon
Ġtouch ing
Ġcross ed
Ġpack age
Ġsli p
Ġconc rete
Ġteenag ers
Ġperman ent
Ġlas agne
pea re
es h
Ġta g
ĠC y
Ġho ckey
ny m
Ġsur f
Ġvis ual
Ġdru g
Ġcust ard
Ġprom ise
ereab outs
w ear
Ġb order
Ġsh ocked
Ġn ea
our s
ĠCh urch
Ġve h
Ġtoile ts
Ġflu ffy
Ġtim ing
ĠEs sex
Ġassist ant
m ate
Ġt rend
Ġbe ers
Ġre ly
our se
Ġsu ck
Ġinst all
Ġent it
igh th
Ġbedroom s
Ġengine er
Ġmatch es
ĠPh D
Ġintellig ent
Ġprep are
Ġwardro be
Ġl on
Ġf iction
le ted
Ġset tle
Ġkill er
Ġgarden ing
po int
Ġvers us
ĠQ ue
a kes
f li
ou l
Ġd rew
no thing
Ġf art
ke ep
de f
Ġtea s
Ġad op
Ġpres ident
Ġpen ny
Ġlaw y
d ri
Ġs igning
er ia
Ġp ram
ed ral
ir l
Ġpe e
ess ions
Ġac qu
Ġshow n
Ġemp loyed
Ġform al
ak istan
Ġhar sh
ĠTur key
Ġeng aged
Ġconvin ced
Ġj et
Ġsu spect
ĠB right
ĠO n
Ġwhe els
Ġcut s
ĠV ietnam
Ġtouch ed
Ġaccount s
Ġwra pped
Ġtro ll
Ġphra se
Ġatmos phere
n ish
Ġsu bs
ul ate
Ġke tch
Ġfriend ship
Ġinter act
Ġind o
Ġconf ir
cell ed
Ġredu ced
Ġstraw berry
ĠHo ll
Ġfli p
Ġphilosoph y
Ġunif orm
ĠShakes peare
k now
l ines
Ġdo min
ĠA m
ist ry
ĠNew castle
Ġtele phone
Ġstat us
Ġcow s
Ġchem ical
f ree
k ins
Ġha sh
ut ed
ct s
ge l
ot y
os c
ĠM ail
Ġapp rent
Ġfl ies
Ġpri ze
Ġpost ed
Ġapart ment
Ġwarm er
Ġcult ural
Ġpower ful
Ġchu cked
c al
l ph
Ġk i
Ġsa iling
Ġch unk
ol f
Ġhom es
Ġetc etera
Ġvocabu lary
D onald
Ġw ing
Ġm ice
Ġst ones
ĠP l
Ġunder ground
Ġfil ter
iv ity
Ġsil ence
Ġrelation ships
Ġcous ins
Ġsli ppers
Ġobs essed
Ġinflu ence
ĠThai land
Ġol ive
Ġsitu ations
Ġsh r
Ġn ought
ĠA h
ĠP akistan
Ġna v
Ġcru ise
Ġsil ent
o st
er ved
Ġca bb
sh ould
ĠM ed
Ġsit es
Ġstay s
Ġboo bs
Ġtend s
Ġfell a
din burgh
Ġcomb ination
f la
Ġs ight
Ġme thod
Ġpers pect
Ġmar king
Ġtrain ers
Ġpaper work
Ġna vy
Ġprote in
Ġdiscuss ing
Ġrough ly
Ġstro ke
Ġoutf it
ĠBer lin
Ġfreed om
b oy
Ġr ise
ot es
Ġag g
Ġhor ror
Ġad apt
Ġpop ped
Ġsubject s
Ġsetting s
Ġsett led
n es
Ġt ed
Ġsa il
Ġde mon
Ġsl im
Ġmil itary
Ġpot ential
Ġdro ps
Ġshock ing
ĠCorn wall
I t
l ers
l ife
o ons
w ar
ro se
Ġse lect
ff in
ĠM al
ĠE r
Ġbefore hand
ci a
ath on
ĠCh ris
Ġgra pes
Ġsc ru
Ġroo t
Ġcare s
Ġrep lied
Ġdra m
Ġent rance
Ġcent ury
Ġdeal s
Ġfan ci
Ġelect ron
Ġham ster
Ġth read
Ġh ills
Ġg in
Ġba be
na v
Ġca used
ĠD ra
Ġdis aster
port ion
ĠGu ard
m ond
Ġli me
Ġta sk
Ġpo inting
ru p
ĠE dinburgh
ĠR ad
ster n
Ġpoor ly
Ġamong st
v on
er b
Ġb ins
is er
Ġsa mp
Ġpre m
Ġdri ed
Ġeighteen th
Ġlead ers
Ġdisapp eared
lay er
Ġspa ces
c ons
ver ted
Ġan k
Ġta ct
ĠB oo
Ġold est
Ġdri vers
Ġhigh light
ĠTh ere
Ġvar iety
Ġhur ting
Ġinstru ment
Ġnurs ery
Ġexten sion
Ġvine gar
ĠiPh one
f ield
n ie
Ġc in
Ġg host
Ġha mmer
ro me
Ġoff ers
ĠM ary
ĠB ob
Ġar rang
Ġstud io
Ġanno y
Ġcr unch
Ġjump ed
Ġce iling
Ġcond itions
Ġrelax ing
Ġremo ve
Ġupd ate
C h
b ird
Ġd amp
Ġgo ose
Ġcan celled
Ġba ke
Ġcl iff
Ġsk irt
Ġplan et
Ġforget ting
Ġcamp us
cl ear
ĠAs ia
Ġduck s
Ġreci pes
Ġisland s
Ġhost el
Ġpaed oph
Ġl ord
on t
Ġst air
Ġcont ain
Ġpercent age
Ġkey board
Ġlead s
Ġbalcon y
l ig
t op
Ġl ens
Ġp ic
Ġwa king
ut en
Ġgood bye
rea l
Ġdi am
sh ine
so ever
Ġde ck
Ġman u
Ġten ner
ire s
Ġcomm ents
ee z
Ġrel eas
Ġconf idence
Ġsub st
Ġaccept ed
Ġtow el
A T
Ġd im
Ġwe dge
Ġex change
Ġmin or
Ġmanag ing
az z
Ġswitch ed
Ġmoan ing
Ġlandl ord
Ġnea rest
c orn
s ort
Ġs ni
Ġb icy
th ose
Ġdis ag
Ġdes ert
Ġland ed
Ġval id
Ġthirteen th
Ġhuman s
Ġfarm ers
Ġmater ials
ĠPa ul
Ġpure ly
Ġfrust rating
Ġunbeliev able
Ġliqu id
Ġcampa ign
u ction
Ġup side
un less
Ġti ed
ĠB at
Ġpa le
Ġover all
Ġro lling
Ġmar ked
Ġinclud ed
Ġentertain ment
ĠBox ing
Ġto ys
it ation
Ġse mi
ig s
Ġtime t
ul p
Ġcra w
Ġhair y
Ġcover ing
Ġspr outs
Ġprof ile
Ġpair s
Ġdisappoint ed
Ġt iss
Ġf al
Ġwhat soever
Ġfor wards
Ġsur round
Ġmet er
Ġchea ting
Ġsy mpt
Ġtest ed
Ġorgan isation
Ġperspect ive
b ab
Ġd uty
Ġli d
od ge
ĠN ight
Ġpol ite
ob viously
Ġpars n
Ġlingu istics
Ġha ss
ast e
ĠJ im
um es
Ġsho ve
Ġban anas
Ġsoft ware
Ġur gh
Ġcurt ains
ĠVictor ian
Ġrom antic
fli x
d en
Ġl ent
it tle
me ster
Ġsh ush
Ġre b
Ġre ference
Ġsu ic
Ġpre c
ame l
gg ling
Ġeas iest
ĠSt ates
Ġass uming
Ġdist ur
Ġcontact s
Ġmyster y
Ġmanu fact
Ġs lo
Ġm ild
Ġf ru
Ġsh ake
Ġsh ots
Ġco con
Ġdi ag
Ġle gend
Ġgra ms
Ġhigh ly
Ġfifteen th
Ġgard ens
Ġdel iber
Ġfig ured
Ġemotion al
Ġhaird ress
ĠCath olic
Ġcert ific
Ġketch up
Ġl un
Ġan cient
Ġmo s
ĠA ll
Ġlea gue
ĠCh an
Ġbad ge
Ġdra wn
eas ant
Ġmed ium
Ġacade m
Ġhoo p
ĠBrown ies
ĠSm ith
b ac
v o
Ġthe ra
ll er
ic ing
Ġn icked
Ġsw allow
Ġmess aged
Ġsat nav
ĠArab ic
a ps
w ick
Ã ¨
Ġl orry
it zer
ch ar
Ġch asing
Ġout do
Ġma sk
Ġsp elt
ul gar
Ġpo em
Ġchild hood
Ġgr ant
Ġgrand father
Ġridiculous ly
ug al
Ġkno cking
Ġprin ting
Ġexpl ore
Ġcell s
ĠRob in
Ġfanci ed
v a
Ġw rist
Ġf its
Ġwh i
Ġpo ster
Ġmess ed
Ġposs ibility
Ġview s
Ġroll er
Ġstraw berries
Ġpatter ns
Ġintrodu ced
Ġcrit ic
Ġcircum st
Ġf ile
Ġgo at
Ġbit ter
ru e
Ġen th
Ġcom fy
Ġano nym
Ġsma shed
Ġrecogn ised
thank s
Ġmist akes
ĠInst agram
b read
Ġl ed
st ar
Ġfor ties
Ġsu sp
Ġqu iz
ol ks
Ġeff ic
old s
Ġlead ing
Ġentertain ing
Ġexhib ition
s en
u ed
Ġwh ereabouts
Ġr ust
is ure
Ġne got
ion al
ff e
ot ic
Ġag ency
Ġcome d
Ġen gage
Ġfar mer
Ġdra in
Ġpick s
Ġpark s
Ġtest ing
ĠWh o
Ġport ion
Ġboil er
Ġreali ze
Ġmusc les
ĠNet flix
Ġdiam ond
Ġs ir
ĠI D
Ġf ool
Ġto ps
Ġst ink
Ġpre par
ĠL ew
Ġsur vey
Ġdro pping
Ġcost ume
Ġreg ister
Ġblo kes
Ġargu ing
Ġreview s
Ġmedic ine
ĠVen ice
Ġemerg ency
Ġth that
ve t
Ġgo ss
ed d
Ġdon key
Ġst unning
Ġfor th
Ġlo ving
Ġwor ries
ĠA nt
ĠB ible
Ġcomp la
ĠD id
Ġopen s
uck s
Ġcare ers
Ġrecord s
Ġins p
Ġequ al
Ġcollect ing
Ġsn eak
Ġactiv ities
Ġhum our
Ġwhoo ps
Ġsen ior
Ġvit am
Ġdemon st
u mber
Ġw rest
Ġd uh
Ġd ug
se y
Ġpe pp
ĠC al
Ġla wn
Ġchea pest
Ġru in
Ġexp and
Ġblo cked
Ġrent ed
Ġkil ome
d ers
i el
s ounds
ic op
Ġst all
Ġor ch
ab lish
Ġhu g
ead y
ĠH ouse
fe ction
Ġcard board
Ġproper ties
olog ist
Ġpizz as
Ġremind ed
Ġredu nd
Ġcompar ison
Ġrasp berries
ĠBright on
u mp
Ġd airy
Ġco pper
Ġshe ll
ĠL loy
for ward
Ġmod ules
Ġdu mb
ĠOlymp ics
f ly
Ġm ou
Ġre ca
Ġup per
Ġmess ing
Ġfore cast
Ġeffect ive
Ġbatter ies
Ġhoo ver
ĠPort ugal
Ġlif est
Ġner ves
l on
ĠI nt
on i
pp a
Ġwhich ever
ĠF our
Ġph ase
Ġcount ing
Ġroll ed
Ġconst ant
Ġdisc ard
Ġsaving s
j i
Ġyou n
Ġre ne
Ġba ked
mm us
ĠC ent
Ġar sed
Ġv icar
Ġper for
rist ol
Ġmorning s
Ġhigh est
Ġcons ent
Ġmatter s
Ġtrad ition
ĠEx press
ĠDa ily
Ġsquee ze
Ġcath edral
Ġh iding
Ġsh irts
ch at
Ġfa ces
ĠM il
Ġthought s
ci ation
Ġspend s
Ġsca re
Ġwrit es
Ġloo p
Ġcrack ers
ĠSim on
Ġvouch er
ĠHoll and
Ġt re
Ġto y
ĠT r
Ġle isure
Ġob lig
ĠH ol
ĠR e
ĠK ind
Ġser ving
Ġbar gain
Ġmass age
bb ing
Ġself ish
Ġstri p
Ġsle e
Ġinstru ctions
Ġeleph ant
Ġpleas ant
Ġh on
Ġb es
Ġd y
Ġdi gest
Ġbu bble
Ġfu dge
ĠW all
ĠL ake
ang le
Ġmin ister
Ġla p
Ġz omb
Ġsex y
Ġgold en
i pt
m ite
Ġc ran
it als
ar ma
ro t
Ġgot ten
Ġse qu
im ately
ate ver
ĠM y
ie ce
ood y
Ġchar ges
Ġama zed
Ġlaugh ed
Ġcal ories
Ġsto le
Ġrecy cling
Ġirrit ating
Ġcorp us
Ġyoun gest
O h
a x
c or
Ġ 2
Ġw ool
it ler
Ġsh ave
se qu
ff les
ĠT ony
ĠD i
Ġcra ft
Ġrecord er
Ġadd itional
Ġgrow s
Ġcook ies
Ġchurch es
Ġtemp or
pro of
ĠTw o
ĠIn n
Ġfamil iar
Ġrab bits
allow een
Ġstor age
Ġbran ch
Ġgrad ually
def initely
Ġcocon ut
ĠLew is
h alf
l ie
m outh
p ret
Ġt iles
Ġp ony
th irty
ch er
Ġma shed
ĠA t
Ġstuff ing
us i
Ġres ist
Ġser ved
ric s
Ġpri est
Ġaut umn
Ġcoach ing
z zy
ĠI ran
Ġd ating
Ġc ong
Ġwh eat
Ġsh iny
Ġne phe
Ġba ss
qu et
Ġact ive
ul f
ĠA ng
Ġhel icop
Ġda ft
Ġbusiness es
Ġnews paper
po ly
Ġlay er
Ġsou l
Ġviol ence
ĠDub ai
Ġfal se
g ian
Ġw we
le ment
Ġu mb
na mon
tt es
ĠM arks
ĠB ond
sic ally
ĠJ ones
Ġfind s
iss ors
Ġfla p
sel s
ific ations
Ġkn ickers
po on
Ġsol ution
Ġdisapp ear
Ġbill ion
Ġfort night
Ġtor t
Ġfunn ily
Ġchees y
child ren
Ġcabb age
t ry
Ġh ats
Ġit ems
re g
Ġno m
Ġdo lph
th ird
Ġn um
qu it
ĠH alloween
ĠR ight
Ġdri ll
ha ppy
Ġtru ck
Ġexp lan
Ġpol ish
Ġins ist
ĠWh ite
app arently
Ġeffect s
Ġclea red
Ġble eding
Ġpron ounce
Ġdivor ced
Ġscri pt
Ġeyeb rows
Ġallerg ic
Ġarrang ed
D on
o ther
z il
Ġt ons
Ġth the
Ġd er
Ġat te
Ġre verse
Ġpro portion
ĠB ristol
ĠJ ul
Ġhead ing
Ġmess y
Ġbeaut y
Ġvar i
Ġsepar ately
Ġpretend ing
Ġkit ten
Ġpean ut
st ru
ĠS anta
ĠF ar
ps y
gg s
ĠLe eds
Ġrout es
Ġpat ient
Ġcommunic ate
Ġvague ly
h ill
Ġl y
Ġso ap
Ġco al
Ġre levant
Ġta ck
ad ium
Ġeven ings
ĠD ead
Ġfair ness
Ġfinish es
Ġplan es
Ġchocol ates
Ġargu ments
Ġdish es
Ġviol ent
Ġmedic ation
Ġknit ting
Ġrhy me
Ġesca pe
itzer land
p ot
Ġb er
Ġr ank
ro id
Ġst ere
Ġfor ced
Ġan gle
Ġse mester
Ġti ger
Ġcom fort
Ġfeel ings
Ġnear er
Ġins pect
ĠX box
Ġpath etic
Ġremo ved
Ġcommunic ation
Ġmulti ple
Ġentit led
c ur
h en
Ġbe es
Ġsu ng
Ġher o
Ġfa cing
Ġpar cel
Ġed it
Ġintern al
Ġsmo ked
Ġincrea se
Ġcateg ory
Ġbungal ow
m ates
Ġr am
Ġre ject
ra s
Ġher bs
ru s
Ġph on
ĠK ong
to gether
Ġstraight forward
Ġinc ident
Ġgreen house
Ġseventeen th
Ġsol ve
Ġoffic ially
Ġcris py
Ġopportun ities
Ġbarbe cue
Ġmax imum
ĠRoy al
ĠBoo ts
Ġ ut
Ġh un
Ġg ain
Ġin ches
Ġoff ended
ul ated
ul ations
Ġhu mmus
ĠF lor
ĠH itler
ative s
els ea
Ġtown s
Ġocca sions
sec co
iev al
osc ow
Ġsympt oms
b rush
p an
in al
Ġh ood
Ġdi ale
Ġbu lly
ĠM ine
Ġcomp lim
Ġreason ably
Ġbar n
Ġfilm ing
Ġfell ow
Ġpig gy
Ġexerc ises
Ġencoura ge
Ġmotorb ike
Ġh eal
Ġal ph
Ġpers u
Ġla unch
Ġrec ruit
Ġrep ea
Ġstraight away
Ġpri me
Ġkn ives
Ġest ablish
Ġble w
Ġcrea ting
every one
ĠBla ir
Ġgoss ip
Ġlifest yle
Ġs ar
Ġn no
Ġse lection
ca s
Ġmu g
el ess
ma id
ĠA lan
ĠG a
ĠW ith
ag en
ĠJ e
Ġsw eat
Ġgen ius
ĠV i
Ġland s
some one
Ġgl uten
Ġsupermar kets
Ġbul bs
n els
u a
u lly
Ġt ang
Ġto es
id a
Ġj ail
Ġsc issors
gg ings
Ġstud ied
Ġfact or
Ġdin ners
Ġallow ance
Ġbaby sit
Ġcook ie
Ġra ised
Ġwrit er
ĠSw itzerland
Ġindust rial
Ġtourist s
ĠGCSE s
Ġelder ly
Ġrepla ced
Ġdisab led
Ġwit ness
T he
Ġp urch
le ts
Ġse min
ĠS un
end ers
Ġpo ly
Ġshould ers
Ġcl ip
int erest
ĠCh i
ib b
Ġdes igner
ĠTh is
Ġcr ust
Ġrent ing
Ġbull et
Ġfort un
Ġsour ce
Ġgall ery
bla h
ĠLan ca
Ġknack ered
Ġconven ient
Ġtroll ey
ĠChan nel
Ġcircumst ances
Ġenth usi
Ġw re
Ġh ence
Ġco inc
ab ility
Ġsp ons
ĠR us
Ġown er
Ġad m
Ġseven th
ĠWh ere
Ġteen age
rab ble
Ġbump ed
Ġrece ipt
Ġpron un
Ġaer op
Ġintellig ence
Ġshad ow
f ood
r ison
Ġst y
Ġmo no
og s
Ġcomm er
Ġwin ner
Ġspo il
Ġfit ting
Ġvis iting
ĠCo st
Ġlay ers
Ġident ify
ĠWa it
Ġlawy er
f olk
u lance
en ced
Ġso il
it iz
ck er
Ġsu cks
wh atever
ĠB ake
om in
Ġun its
ĠD el
ĠD utch
ĠW in
Ġpl at
Ġdes erve
Ġinterview ed
Ġcatch ing
Ġcollect ed
Ġband s
Ġlaw s
ĠMor oc
ĠMc Donald
Ġrece ived
bor ough
Ġarchite ct
Ġmus cle
Ġsched ule
Ġapprent ices
Ġhass le
Ġb ent
ic ian
ic ians
Ġj unk
Ġsa vour
Ġta kea
Ġsp ices
Ġfa ith
ĠP en
ĠG las
ĠH ong
ĠH ave
Ġgra des
Ġmar athon
Ġsl ices
Ġbea ten
Ġteach es
ĠTh ames
Ġart ific
Ġpar ish
ĠFran k
Ġdet erm
ĠSc rabble
Ġsna ke
Ġsens itive
Ġswear ing
Ġhur ry
Ġterri fied
Ġqual ified
Ġpred ict
Ġapolog ise
Ġmaint ain
t oo
t ag
Ġt art
Ġth umb
Ġb reed
Ġp al
Ġp ets
Ġso d
Ġsh uff
ul if
Ġar ts
lo ads
ĠJ en
lass es
ph er
ac le
ac ked
Ġnu clear
Ġdes p
Ġpan el
Ġref eren
Ġdescri ption
Ġbowl s
Ġcock tail
Ġanaly sis
Ġagg ressive
ulif l
t ieth
Ġsh she
al t
mb ly
ĠC la
ĠD r
Ġadd ing
Ġspecial ist
pa ss
Ġexplain ing
Ġsna ck
Ġaccident ally
Ġblow ing
Ġcrimin al
love ly
Ġcin namon
e k
i at
Ġs essions
in er
Ġb id
id ents
Ġoff ence
wh e
Ġtra cks
ĠN ot
ta ils
Ġdef inite
Ġexamp les
Ġlab our
Ġspon ge
ĠVal ent
Ġlon gest
m ine
Ġo y
Ġr ates
Ġu na
Ġme lt
Ġch ances
Ġsp it
Ġhapp ily
ĠCh elsea
ĠH eath
Ġro cks
Ġro yal
ĠR y
Ġinterest s
Ġsl ower
Ġcount s
Ġmat ure
ĠTh o
Ġbur g
Ġtall er
Ġfab ulous
ĠQue en
ĠMine craft
Ġalph abet
r ants
Ġa th
Ġl es
ri e
ter ed
and er
ĠM ars
ĠB ulgar
ĠD ad
Ġjo lly
uck y
Ġexc l
Ġsupposed ly
app ro
com ing
Ġcru mble
Ġdick head
Ġcrit ical
ĠSim ps
p lace
p ardon
Ġth r
ĠI I
Ġd ea
Ġin no
Ġdo me
ink ing
Ġca ps
ĠM oscow
ag er
all ing
Ġpay ment
ĠV ir
gu es
Ġcru el
Ġrev eal
Ġscient ific
Ġlin ked
Ġdefin ition
e no
es pecially
pp ies
Ġma ma
Ġti es
ĠC ons
ĠO ut
Ġinter pret
Ġart icles
Ġdark er
Ġstri ke
Ġble nder
Ġrac ing
ĠTun is
Ġtimet able
W hat
a ph
w ater
Ġt at
Ġth or
Ġi cing
Ġl an
Ġf ea
Ġst ack
Ġmo ck
Ġpe st
Ġca ulifl
nder land
Ġmove ment
Ġcont ra
Ġcra shed
Ġdep ression
Ġexp ress
Ġinv iting
Ġsun shine
ĠCo mm
Ġlar ger
Ġaccept able
fl ower
Ġyog urt
Ġscar f
ĠBra zil
Ġrot ate
Ġarchite cture
Ġprawn s
ĠGuard ian
Ġstere oty
L T
a king
o e
Ġli on
Ġup on
Ġint e
ĠB oy
Ġpa ce
Ġpu ppy
gg age
ub lic
Ġnineteen th
oun ced
Ġsau ces
Ġoffer ing
Ġchill ed
ĠWait rose
h our
Ġw ig
Ġh its
Ġre tail
ĠC ard
ĠNor folk
Ġrare ly
ĠMex ico
r ite
w ind
Ġwa ving
Ġr ope
Ġsa ck
ous ly
ĠT E
us ive
ne ys
all ey
ub er
Ġpast e
Ġpast ry
Ġexp ression
Ġgrow th
ung le
Ġfollow ers
atch er
don ald
Ġcy cl
Ġpack ing
Ġspin ning
Ġocc up
O r
c ard
Ġst ations
Ġas ide
Ġba ld
ĠH el
ĠJ ama
Ġwait ed
Ġele ction
Ġmiss ion
Ġcris is
Ġscore d
Ġintrodu ce
Ġassess ment
Ġgrate ful
Ġdeliber ately
ĠI f
Ġf rank
Ġrea ct
ch ool
Ġan ni
Ġca m
Ġnice st
ĠF irst
Ġho bby
ĠL ife
Ġsy ll
con t
ĠNo k
Ġjoin ing
Ġgig s
Ġbun s
ĠJew s
Ġadvent ure
Ġpronun ciation
i ot
la yed
an ced
mb ling
Ġag ed
ĠF riend
ĠP et
Ġpart ners
Ġfin ance
go sh
ĠMar mite
Ġstar ing
Ġscra pe
Ġpublish ed
Ġcurt ain
Ġumb re
h oo
Ġt one
Ġy yeah
Ġc ried
Ġf olk
is a
Ġmo ist
na p
ell ed
Ġwho re
ich e
ĠM O
ist ically
ame d
Ġunder gra
ĠK at
Ġtrain er
Ġrest rict
Ġdin os
fu me
Ġpen al
Ġboard s
Ġban ned
Ġess ays
every thing
Ġaud io
Ġgut ted
Ġbod ies
Ġdisag ree
w atch
Ġs ket
Ġso f
Ġha l
Ġlo ss
Ġout ra
Ġsp l
Ġfe min
Ġro cket
Ġfl op
Ġuni que
ĠSu nderland
Ġcook er
Ġz oo
Ġmed ieval
Ġcu shion
Ġsha ved
ĠMc donald
ĠKor ean
Ġchem istry
Ġdisp lay
Ġamb ulance
Ġcorp or
Ġchamp agne
Ġshap ed
Ġunlike ly
Ġpir ate
Ġbast ard
Ġindo ors
ĠRad io
ĠKind le
Ġles b
I P
Y ou
w in
no ther
Ġfa cil
Ġplea sure
Ġgen etic
Ġsur name
ĠV an
ball s
Ġphotograph y
ĠHo lly
Ġcart oon
Ġinte gr
ĠNok ia
u it
Ġs so
Ġg ee
on ia
Ġp eak
Ġin k
Ġst itch
Ġqu it
ĠS qu
Ġbu ried
Ġhapp ier
Ġbea n
ĠK ent
Ġfil es
ib ilities
Ġpres cri
Ġfat ty
Ġhosp itals
iff er
Ġvan illa
ĠMa x
Ġcock tails
Ġdough nut
Ġvirt ually
Ġeffic ient
A F
a ire
u ll
Ġy ach
Ġf ib
gh an
it t
la ne
ar r
ma ke
ĠT ri
Ġwork ers
int on
Ġche er
ĠR en
Ġown ers
Ġhand bag
Ġcount y
ron es
Ġcomm ission
iz zy
izz a
Ġvol ume
ĠCV s
Ġfunn iest
Ġexperien ced
Ġfri gging
etro ot
Ġank le
Ġ utter
on ce
Ġin appro
Ġer a
Ġj eez
om er
ĠL ea
Ġunder wear
Ġbirthday s
Ġwarm ing
Ġsub mit
Ġchill ies
Ġrandom ly
Ġdiscuss ed
Ġcupboard s
Ġrecommend ed
Ġtow els
Ġpil ot
Ġexplan ation
b ling
s ks
y d
Ġw ou
in i
Ġch ess
Ġup se
Ġlo go
ur b
ĠL in
Ġad just
Ġfound ation
Ġstra p
Ġinst antly
Ġgener ous
ĠWh y
Ġorgan ising
Ġdu vet
Ġsil k
Ġben ch
Ġoper ate
Ġpsych ology
Ġpor ridge
Ġsignific ant
ĠVi king
ĠCard iff
l ict
t ell
Ġo v
Ġto ffee
Ġp ix
Ġtw ins
ĠB ea
look ing
Ġscra mbled
Ġcand les
Ġpill ow
ĠMin i
Ġjun ction
ĠFlor ida
Ġb ing
no e
ve ll
Ġin fect
ad ed
ĠC ount
Ġchar ger
amp ire
Ġsyste ms
Ġprefer red
Ġfuss y
fuck ing
Ġhelicop ter
Ġcomplim ent
ĠCons erv
g ium
Ġdon ate
Ġst adium
Ġab use
ear t
Ġcos y
ell e
ĠS pen
ate gy
ĠM ill
Ġv om
ĠP ower
Ġlast s
ĠH unt
Ġty ping
Ġstr ategy
Ġland ing
Ġboo ze
Ġdist inct
Ġself ie
Ġsla sh
Ġconnect ions
Ġprov ided
Ġcelebr ate
Ġautom atic
Ġarrest ed
Ġtechni que
Ġconfir m
Ġsavour y
Ġartific ial
t u
la st
se vent
Ġst iff
Ġbu zz
ĠH en
do ing
Ġpress ed
Ġprodu ced
Ġacade my
Ġblan k
h ist
o ll
p et
Ġc rew
is le
tt o
ead ing
Ġten th
Ġbr icks
get ting
Ġart ists
Ġlog ic
Ġwealth y
Ġrefu ge
Ġhistor ical
Ġprec ise
ĠVir gin
Ġumbre lla
v in
Ġl ou
Ġwa ist
et ically
ver ty
Ġtw at
Ġpe op
Ġpe cul
Ġsp an
Ġevery day
Ġcar amel
Ġbad ger
Ġmar ble
Ġspo ilt
Ġed itor
Ġinvest ment
Ġcho ices
Ġspell ing
ĠCD s
ĠPr ince
Ġaddict ed
Ġpaedoph ile
Ġthor ough
Ġpecul iar
g ic
p aste
th rough
Ġer ror
Ġst ain
Ġrea r
Ġma il
Ġsp y
Ġsp arrow
ĠS ing
ĠS even
ĠG irl
ĠD y
ne xt
Ġtra mp
ĠN ut
Ġres cue
Ġcor rupt
Ġstar ving
ĠAl ice
Ġcopy right
Ġtool s
Ġregist ered
Ġcertific ate
Ġcaulifl ower
b ased
p art
Ġa ck
Ġb ay
Ġg la
ro g
ch o
ow ing
Ġal together
Ġpe o
Ġex ec
ĠS how
ĠC ol
ĠL ove
we et
Ġplace ment
Ġfact s
Ġinst ant
Ġadd s
Ġpop ping
Ġfla g
ime tres
Ġmem ories
Ġidi ots
Ġlab el
Ġdownload ed
tern al
Ġcommit ted
Ġaer ial
Ġchoo sing
Ġvac u
Ġcoup les
Ġmos quit
Ġack now
p ad
v an
Ġo ct
Ġno ns
Ġbe etroot
ter ing
ĠC roat
ĠM er
Ġpre vent
ĠE ar
ĠH ome
Ġpoint ed
Ġsw ing
ach ed
po ons
Ġsixteen th
Ġtwent ieth
pre tty
Ġcab in
Ġcontro lled
Ġwander ing
ĠSte ve
Ġsuic ide
Ġtakea way
ĠFriend s
r ical
Ġ ou
Ġy ard
Ġd reams
ve ment
Ġr ig
ed e
Ġn eat
Ġcan s
ow ns
Ġsu m
ess or
os ition
ĠB as
Ġtra pped
Ġbl ues
um in
icke y
Ġsk ating
Ġrep ut
Ġcoll aps
Ġda ily
Ġsub t
Ġsold iers
Ġwebs ites
Ġweight s
zz le
Ġsteal ing
Ġpoet ry
Ġflex ible
edd ar
Ġinappro priate
vell ous
n inth
u ct
Ġsh ag
ore s
Ġcl icked
Ġen velop
Ġper fume
as y
Ġgrand children
Ġrel ease
lic it
Ġstand ards
Ġpol icy
Ġflu sh
Ġadvert ise
Ġste ep
Ġexha usted
Ġrib s
Ġdiag no
ĠBulgar ia
c led
f ront
Ġli king
Ġso m
Ġno ises
le tte
Ġne ut
im er
ĠS ta
ĠB or
ĠP at
Ġhapp iness
Ġshow ers
Ġfil med
Ġrep air
Ġcur ric
gin es
Ġatt end
Ġev ol
Ġcand le
Ġdies el
ĠBel gium
ĠGra nd
Ġheav ily
Ġhash tag
Ġcommer cial
e le
l ist
m ill
v il
w an
Ġt iring
Ġb ust
Ġsp ice
ĠS ams
ĠY es
Ġlist s
Ġgl ue
Ġant ib
Ġdestro y
Ġfright ened
Ġnephe w
v oured
Ġst orm
Ġex it
Ġex agger
Ġpl um
Ġhi red
ĠO b
Ġmet re
Ġlad der
Ġmod els
Ġaff air
Ġaccount ant
Ġval ues
Ġsex ual
Ġcomplain ed
Ġcelebr ity
Ġcab inet
Ġsuff er
Ġconserv atory
Ġdram atic
b reak
j o
Ġa st
Ġc unt
en e
Ġgo als
is ms
Ġst able
Ġcon sequ
ĠP an
Ġho ly
ne e
Ġplay ground
ĠN ap
Ġwatch es
Ġbl own
ĠO s
ĠK ra
Ġsw ord
Ġsoon er
Ġanswer ed
Ġkno b
Ġbear ing
Ġengine ers
Ġblock s
Ġsuit able
Ġdama ged
ĠSy ria
ĠPro secco
Ġlun gs
n ies
Ġth rill
Ġs in
Ġc ure
Ġwe stern
ad es
onna ise
ĠA S
ĠP art
erm int
ĠH ard
Ġwater fall
Ġchea t
Ġcur ly
Ġcu rious
Ġbrown ies
Ġdescri bed
Ġsuit case
Ġscrew ed
Ġbat tle
Ġchamp ion
Ġbeg ins
Ġbicy cle
Ġanni vers
b ath
j ud
w ent
Ġf ond
Ġli ck
la de
Ġsh ifts
Ġj ungle
ot o
ĠW ik
Ġsc ales
Ġpop s
Ġhuge ly
Ġbeautif ully
Ġfire works
Ġdev il
Ġsquir rel
writ ing
Ġkilome tres
b ig
f th
g ow
Ġth y
et ime
Ġst ages
Ġsome time
Ġre li
mp ath
ĠM A
Ġmay onnaise
ĠE l
Ġph eno
ĠL and
Ġinter rupt
Ġcor rid
Ġbra ve
Ġmod e
Ġmod ule
ĠWh ats
Ġcult ures
Ġprote ction
Ġlemon ade
Ġpi geon
Ġtim er
Ġfold er
Ġindepend ence
ba sically
Ġhairdress er
I s
b ar
b ell
h ol
r ates
u ate
Ġbe have
Ġlo cks
Ġfro g
Ġwork er
Ġcl ient
Ġhome less
Ġmonth ly
Ġcra cking
Ġcare fully
Ġdro wn
gra ph
Ġflo ors
Ġclear ing
Ġass ign
oun cil
Ġdevelop ing
Ġpsych ological
Ġvo ting
Ġcott on
wor king
Ġarrange ment
w o
Ġf ran
Ġp anda
Ġco co
Ġsa ves
Ġact ions
ĠP C
Ġlea n
ĠH ot
Ġten se
Ġmust ard
Ġres ident
ĠK e
Ġpract ising
Ġcross ing
Ġoffic ers
Ġaffect ed
Ġtooth paste
Ġknit ted
Ġdocument ary
i med
Ġw what
Ġf izzy
st ep
or a
pp et
ĠL ord
ĠH er
Ġpr ince
ap ore
ĠSu per
Ġsat ell
six ty
Ġcough ing
Ġpepp ermint
o es
Ġw ob
re ls
Ġto dd
Ġwh ist
it a
Ġr ul
Ġca ve
Ġback s
Ġdi abet
ul s
ul um
Ġcourse work
Ġroo ts
Ġima ges
Ġmoment s
Ġinst inct
Ġhair cut
Ġfan s
Ġhosp ice
Ġmot ion
sc reen
Ġstru ct
Ġdraw ers
Ġlay ing
Ġhunt ing
Ġrob in
Ġbarbe que
Ġguest s
Ġreleas ed
p ol
Ġt read
Ġw id
er ies
Ġis ol
Ġn inth
Ġup load
ĠC lar
Ġag ents
ĠM ur
Ġlast ed
ran ean
Ġmar kets
Ġreal istic
Ġkid ney
Ġbelie f
Ġment ally
ĠNew s
Ġfit ness
Ġpost ers
Ġload ed
Ġchap ter
Ġavo ca
Ġfab ric
ĠMuslim s
Ġinj ured
iter ranean
Ġregard less
Ġclin ic
ĠSwed en
Ġsni ff
c les
d is
Ġw ider
in st
re y
Ġp ear
Ġr oses
Ġco ins
Ġch lor
Ġal mond
ĠS ar
ĠC C
ĠC ouncil
ĠB eat
Ġpo verty
Ġpre f
Ġsi zes
Ġun s
ĠJ ere
ĠJ am
ti ed
Ġtax ed
Ġstick er
Ġclose st
res p
Ġmanag ers
Ġleg it
Ġbur st
Ġatta cked
ĠDe von
ĠMa lays
Ġglo bal
Ġmicro phone
Ġshel ves
Ġadop t
ĠRus sell
ĠCost a
ĠGlas gow
ĠSams ung
i la
w ed
Ġa uber
Ġb ounce
Ġwa ges
ce ed
Ġpo le
ci ple
we ight
Ġnu gg
Ġsy rup
Ġtu ition
lit tle
Ġchee k
Ġanaly se
Ġsumm at
Ġdistract ed
Ġjud ging
ĠMart in
Ġveh icle
Ġnons ense
Y eah
m ust
Ġit em
ve nder
Ġha y
Ġin fection
Ġsh ade
Ġoff ices
ish op
ĠM id
ĠF ather
ĠP lay
Ġun happy
ĠW ater
ĠR a
ĠTh rones
ud a
Ġcook s
Ġsqu ad
Ġvis ited
Ġwar s
Ġsnow ing
Ġadvert ised
Ġfund ament
Ġscen es
Ġpun ish
iped ia
Ġcub es
Ġtiss ue
be ing
ĠB ur
Ġle m
Ġle ggings
ĠP M
erm an
Ġbl ur
ĠU p
Ġsleep y
Ġpar ag
Ġra is
Ġprodu cing
Ġcu ddle
Ġagree ment
some times
Ġequ ally
ĠAf ghan
Ġsla p
Ġchop ping
Ġaffect s
Ġimmedi ate
Ġinflu enced
Ġjun ior
ĠVal en
Ġadmin ist
ĠAb bey
Ġpod cast
emp loyed
Ġbes ide
ĠValent ine
Ġath let
Ġvacu um
g reat
t rue
Ġin se
ar io
ow ers
Ġab and
Ġre sol
ort s
Ġun h
as es
Ġpr ick
Ġtop ics
Ġuni verse
any thing
Ġcost umes
Ġsqu id
Ġpan els
Ġcamp s
Ġbow ling
Ġadv anced
Ġlu x
Ġcrack er
Ġfli pping
Ġjournal ist
Ġabs or
Ġupgra de
Ġanx iety
iot ics
Ġt ear
Ġm ut
Ġk o
Ġjust ify
Ġst eady
Ġch erry
un s
Ġact ors
Ġsp ots
ĠB ay
ĠL ittle
Ġins ul
Ġeleven th
Ġdel ight
atter ed
Ġstar ters
sec ond
Ġtrea sure
Ġredund ant
i os
u gu
Ġa id
in ate
ea pple
Ġb ol
Ġc rown
Ġn ip
ver ing
Ġor ders
Ġup s
ca pe
im a
ĠA pp
Ġcon cl
om y
ĠP ath
Ġmum s
Ġmar vellous
Ġacc ur
Ġstr ateg
Ġspo ons
Ġamount s
ĠGerm ans
Ġcu sh
Ġlow est
Ġbear s
Ġvar nish
Ġval u
Ġcap able
Ġcorrect ly
Ġcand id
ĠiP od
Ġbeha ved
Ġvolunte ers
Ġbuff et
Ġfrequ ently
cip line
Ġasse mbly
Ġpurch ase
ĠMO T
Ġo key
Ġg lit
Ġto ler
ay e
Ġst ew
Ġre vision
Ġme ga
ĠS an
Ġdi ving
ĠB ang
ĠP ass
Ġph ys
Ġbelie ved
Ġrel ate
Ġvis ion
Ġpress ing
ĠEaster n
Ġatta cking
was n
Ġprin ciple
lim ited
ho le
Ġburn s
Ġbang ing
Ġga ps
Ġadmit ted
Ġdestro yed
Ġmou st
Ġantib iotics
h all
re h
re sh
al so
Ġback pack
stand ing
Ġsend s
Ġinc or
Ġleg ally
Ġanswer ing
Ġcir cu
Ġequ als
ĠSh er
Ġtooth brush
Ġwire s
Ġpour ing
Ġfinan cially
Ġbrief ly
Ġvir us
Ġannivers ary
ĠJam ie
er ts
Ġcan al
Ġch ains
ind ing
ĠM ount
if ying
Ġde st
Ġde leted
Ġremember ing
Ġrel ief
book s
Ġball et
Ġhy p
Ġcigare ttes
Ġult imately
Ġlectur ers
Ġshap es
ĠMed iterranean
ĠLloy d
a pped
o inting
p ap
Ġw ins
Ġthe sis
en ger
or ous
Ġj azz
Ġco ordin
ar ium
Ġse lls
Ġch av
im ents
ĠS ea
ĠS am
ĠS nap
if i
Ġwork shop
ant om
Ġhouse hold
um an
Ġla vender
Ġpass es
Ġext ract
amp ton
Ġcent res
pa use
po x
Ġplant ed
Ġcru sh
Ġunfortun ate
Ġappoint ments
Ġjudge ment
Ġident ity
Ġinit ial
Ġnurs es
ĠSy d
Ġplu gged
Ġretire ment
Ġquar ters
Ġted dy
Ġanonym ous
sen al
Ġcomed ian
Ġapprentices hip
ĠSpen cer
Ġr if
Ġcon vent
Ġv ast
Ġhear ts
ĠO kay
Ġmar gar
Ġres erv
Ġcra cked
Ġgrand dad
ĠV od
Ġext end
Ġcup cakes
Ġfavour ites
Ġtrans p
Ġbur gers
Ġpract ically
bu ild
Ġboard ing
Ġperiod s
Ġdig ging
Ġcirc les
Ġarch ae
Ġprotect ed
Ġpint s
Ġchan nels
ibb ean
Ġspons or
Ġoutra geous
ĠSing apore
b ul
f ine
l ation
o med
Ġl one
en er
Ġe ighth
Ġshe pher
Ġma ps
ad or
ĠB ank
Ġpo ems
ru m
ĠH am
Ġapp s
Ġsc ro
Ġmon itor
gg ie
lad y
Ġlog ical
Ġredu ce
Ġrev olution
Ġupd ated
ĠUn ion
Ġhedge h
Ġspirit ual
ĠPri mark
f in
f ire
o ca
Ġha z
Ġis h
Ġe la
Ġher b
ĠP izza
am ing
Ġla mp
Ġswe ep
Ġsweet corn
Ġextra ordin
Ġterri fying
Ġprev iously
Ġspect ac
Ġsemin ar
c ourse
r atic
Ġl ung
it ious
it ute
or ms
le g
Ġn ation
Ġba lan
Ġch eddar
Ġbit ten
Ġde mo
Ġpa cks
ĠF act
Ġcar riage
ha ven
Ġmind s
Ġhead ache
oc op
Ġfood s
Ġbar rier
bo la
ach u
Ġtur no
ĠIs land
Ġdaugh ters
Ġfra mes
Ġbeca u
Ġiron ing
Ġigno red
Ġlink s
Ġtourist y
Ġshoo ts
ĠAir b
ĠMad rid
Ġpray er
Ġmould y
ij ing
Ġsubs cri
know n
Ġdistur bing
Ġsket ch
Ġdiabet es
ugu ese
ĠSyd ney
T V
d ie
Ġ ugh
Ġt ears
Ġw is
Ġm op
Ġso cially
Ġsh i
ĠS er
ĠC ra
ĠT ed
Ġv ice
Ġgu m
Ġstr ings
Ġsy mpath
Ġsal ty
Ġflu id
Ġpens ions
ĠIp layer
Ġsmart phone
Ġcompar ing
Ġreali zed
Ġrefer red
Ġcarbon ara
Ġdea f
Ġneut ral
Ġavoca do
ĠValen cia
p ath
Ġm ig
Ġco ke
ar b
ur d
Ġti ps
ĠC at
ĠM el
ĠT ig
Ġcom ic
gu in
Ġfollow s
Ġdet ect
Ġdisapp ointing
Ġmem or
Ġwhis per
Ġtor ch
Ġcha os
Ġstab bed
Ġtattoo s
Ġpeace ful
Ġpoll ution
Ġsamp le
Ġwrest ling
Ġdesp ite
Ġoct op
p se
ĠI ns
ro st
Ġal ien
sh irts
ĠA D
ĠB T
Ġho b
pt ain
Ġweird o
Ġmat ern
Ġgre ed
Ġext ended
Ġspo tted
Ġve gan
Ġbas il
Ġconcer n
Ġinstru ctor
Ġpin eapple
kin i
Ġtransl ate
ĠChar lie
ĠSa udi
Ġfry ing
Ġgather ing
Ġpic nic
Ġdiale ct
Ġs an
Ġo xy
Ġf izz
Ġli ber
Ġin cent
Ġr ating
Ġr oles
th m
Ġst ag
op es
ra in
Ġme no
Ġsu ite
and o
and y
ma ssy
ep t
ot ions
Ġcl i
ĠD ist
ĠL ou
ĠL ion
ĠH ood
ĠH all
Ġpu p
Ġpu ddings
ĠR h
pen se
ĠK ev
ac ity
Ġphot ocop
Ġprodu cer
Ġtreat s
Ġatta ch
Ġsold ier
Ġcontact ed
Ġspec ies
Ġdirect ions
Ġrac ket
ĠAr senal
ĠOff ice
Ġsurf ace
Ġinsp ired
Ġtempor ary
ĠTunis ia
Ġreput ation
ĠJere my
e er
u ing
Ġa qu
Ġs nee
Ġb re
Ġc ere
thing s
ge ls
Ġpla ster
ĠM en
ĠM ouse
ore d
Ġdis m
Ġrid es
Ġgre ens
Ġcup cake
Ġpiss es
Ġref used
ĠCa ptain
ĠRo ss
Ġaware ness
Ġecono mic
Ġver b
Ġcand y
Ġcontro vers
ĠSec ond
Ġsung lasses
ĠHen ry
ĠWik ipedia
f am
g onna
Ġo me
Ġco in
Ġmu ddy
ĠS pe
Ġbu gs
ĠA sh
os ing
ĠM att
ĠT ru
Ġcon verted
ĠB ill
ĠW ester
ĠL ad
Ġsl ides
Ġdec ides
Ġcold er
Ġtwel fth
Ġcons ist
Ġent ry
ĠCo ll
Ġeduc ated
Ġqual ifications
ĠCar ibbean
Ġrecy cle
Ġoutf its
Ġswea ting
Ġcollea gue
ĠSher lock
r ick
Ġs ard
Ġthe rm
Ġfor give
ĠG ames
Ġpan icking
four th
six th
Ġscen ario
ĠPh il
Ġcloud s
Ġgrea test
Ġfright ening
Ġexperien ces
Ġprior ity
o lar
t ut
y ay
in ea
Ġb ib
Ġd at
Ġl act
Ġc itiz
Ġe ve
ct ic
Ġas pir
Ġne e
Ġre ward
Ġde vice
Ġcl ues
ant ine
ood le
Ġdiffer ences
ĠD am
Ġlet s
ĠJ a
ĠR un
ha ving
Ġsleep s
Ġsound ing
Ġed ges
Ġfla shing
Ġpan s
Ġreg ret
Ġfootball er
ĠBar b
Ġpassport s
Ġhy po
Ġlit re
Ġpainting s
Ġped est
Ġmechan ism
Ġtrail er
Ġmarshmallow s
Ġprepar ation
Ġdome stic
Ġpenal ty
Ġturno ver
Ġs ust
Ġwe d
Ġr ack
ir y
Ġsa v
Ġex cess
Ġdown hill
if ul
Ġreme m
Ġen qu
Ġun pl
Ġmon ster
Ġdis eas
Ġrun ner
Ġad vis
ĠK it
Ġinter pre
Ġdec iding
she et
Ġter rit
Ġda sh
Ġexpens es
ĠSt ep
Ġemp tied
Ġret ard
pl ease
Ġstore s
Ġstat istics
fa shion
Ġopin ions
ĠPort uguese
Ġconv ince
Ġvouch ers
Ġconsult ant
bl oody
Ġfea thers
Ġfacil ities
Ġmoust ache
Ġwis dom
n inet
r ather
Ġtw in
Ġca using
Ġca uses
ĠF ire
Ġun ion
Ġpr ide
Ġtri angle
Ġform ula
Ġill ness
Ġatta cks
Ġeduc ational
Ġflow n
ĠPo mp
ĠMor rison
Ġobs erv
ĠWe thers
Ġreplace ment
Ġencoura ging
Ġmult ip
ĠMex ican
ĠRy an
c is
h or
i pe
t re
ll et
st icks
la ces
ĠS ca
Ġint ention
ĠF ree
Ġun limited
Ġph easant
ĠW ord
Ġsl ope
ud s
ky o
Ġbeach es
mpt ion
bac co
Ġnegot i
Ġenthusi astic
ĠOb ama
G ood
g ie
r ors
u ch
Ġi if
Ġh ou
Ġb ark
Ġd itch
Ġto ot
Ġto bacco
Ġli es
Ġli ver
it age
it ution
ere l
ra q
Ġact s
ers on
ong ol
Ġag r
ĠB rian
Ġdiff icul
Ġcar b
Ġcar rier
Ġlea se
Ġfar ms
Ġsma sh
Ġlight ning
ĠTh atcher
Ġphotograph er
Ġdry er
Ġarri ving
Ġoper a
ĠRo ver
ĠJohn ny
ĠBe ijing
Ġident ical
ĠAir ways
Ġphra ses
Ġcre m
Ġjournal ism
rop box
Ġcollea gues
Ġperfor ming
Ġrepea ted
Ġcorrid or
Ġoxy gen
ĠDist rict
Ġdifficul ty
F L
O S
b rit
f ia
p ical
s ur
t urn
Ġ venue
Ġthe ore
Ġl ined
Ġf er
it able
Ġwell ies
Ġan al
Ġpe er
Ġex ternal
ĠF ord
Ġun p
Ġjo ker
Ġpl ural
Ġpu ff
ile y
Ġgra ve
Ġsc ones
ĠR ay
Ġhi pp
ĠO li
Ġdef ault
Ġsec ure
Ġsk is
Ġju ggling
Ġind ic
Ġbra ckets
Ġsy nd
Ġsuper visor
Ġcream y
Ġcoun sell
Ġoper ating
Ġlu mps
Ġshout ed
Ġste ering
Ġrece ive
Ġbomb s
Ġgrea ter
Ġmel ted
Ġboun cy
Ġphon ing
Ġshuff le
Ġlesb ian
Ġparag raph
S A
a nother
j an
r ings
Ġb unk
Ġwa x
Ġso da
Ġwe ddings
it is
Ġk ay
Ġmy th
Ġch or
ce nd
im p
ĠT im
ĠT ime
Ġfl ick
Ġbea ting
Ġfil thy
Ġcomm ute
Ġmid day
Ġlu ggage
Ġscra p
ik i
Ġemploy er
Ġrob ot
ĠTo kyo
Ġdivor ce
Ġterra ce
Ġmatern ity
C E
f ind
Ġp urs
ill ed
tt a
ĠA d
ĠP ale
ĠW as
Ġchea ted
ĠFriday s
cri min
Ġaut o
Ġcru mp
Ġspectac ular
e ii
m ier
v ia
Ġt icking
no id
Ġr ows
Ġse wing
Ġta ps
ĠS ub
ĠA ct
Ġph arma
Ġcomp ost
ĠG r
Ġlet tu
we gian
Ġpu nt
am ic
Ġdis cipline
ĠK y
Ġlight ing
ĠV AT
Ġamazing ly
Ġbar ge
als a
Ġpol es
Ġlunch es
Ġsy n
Ġreck ons
Ġrain ed
ob ic
Ġstrong ly
Ġdru ms
Ġmath em
Ġdev ast
Ġbul b
Ġupd ates
Ġtransl ation
Ġpill ows
Ġchi lly
Ġeth nic
Ġesca ped
Ġdemand ing
Ġvow els
Ġly rics
Ġplat form
Ġreferen ces
Ġlan es
Ġsubt it
Ġcush ions
Ġincent ive
b ro
p or
u gg
Ġ vent
Ġth th
Ġw ives
Ġf idd
ut o
im al
ĠB r
Ġar row
Ġv ict
Ġman ual
ru g
ĠD ropbox
us c
Ġread er
Ġset tee
Ġinteresting ly
Ġcur ries
Ġsme lt
Ġreg ion
Ġland lady
Ġsuper b
Ġrain bow
Ġodd s
po st
Ġball oons
Ġref use
Ġstri pes
Ġrac ism
Ġflavour s
che ers
Ġbul k
Ġsurvive d
Ġvolunte er
Ġcapt ain
Ġsneak y
Ġdolph ins
Ġfortun ately
ĠMoroc co
Ġmargar ine
Ġlone ly
I M
c et
g os
Ġ ven
Ġd ys
Ġf ought
Ġp orn
op er
ĠM et
ĠP al
ci ence
ĠH igh
ĠJ on
Ġfl esh
ĠChrist massy
Ġtru ly
Ġcra ppy
Ġgen es
Ġfo am
Ġexpect ations
Ġenjoy s
Ġsme lly
Ġclo thing
Ġstrange ly
seven th
ĠBar c
Ġwra ps
look s
Ġcele brit
ĠGo th
Ġcop ies
fif th
Ġconstru ction
Ġstair case
ĠBeat les
ĠKev in
d ra
u ous
Ġ ouch
Ġa y
ch i
Ġmu ck
Ġde layed
Ġsi bling
ĠE bola
ĠH aw
li ff
Ġweird ly
Ġcheck s
Ġform at
Ġquiet ly
Ġsha king
Ġdocu ments
Ġtid ying
ĠBl ue
Ġbast ards
Ġyach t
Ġcoco a
T hat
c Ã©
Ġthe ories
ea lly
Ġd ual
re ts
on ation
st an
th ur
se lling
Ġall ot
Ġch ief
Ġlo ans
ca no
Ġpro ced
Ġca ge
Ġact ress
ĠS av
Ġfa ff
wh el
ĠA A
ĠM useum
ĠT imes
ĠB ell
Ġpo ckets
ort ion
Ġac id
ĠJ ane
Ġgra bbed
Ġhome made
ub a
Ġbasic s
Ġsl ot
Ġcount ed
Ġopen er
Ġclass ics
Ġru shed
Ġsim pl
Ġfoot path
icul ate
Ġjump s
ĠNor wich
Ġstru ck
eg as
Ġvo ices
sa id
Ġcateg ories
Ġreca ll
Ġundergra du
iffer ent
ĠLea gue
oll en
fashion ed
c od
l ate
Ġth there
Ġw iped
Ġb row
Ġd ict
Ġg el
Ġno min
Ġgo o
Ġj ars
Ġrea ched
Ġal t
ĠS k
Ġoff ensive
ĠA ra
ĠM ark
ĠB ook
Ġv a
Ġcar ries
ĠH R
Ġapp eared
Ġmor al
Ġdra gged
Ġcons pir
Ġblue berries
Ġz ip
ffic ient
Ġris ky
Ġpat ience
Ġburn ed
Ġexpl ode
Ġpassion ate
Ġvitam in
Ġenvelop e
Ġcurric ulum
Ġcere mon
Ġdiseas es
N o
Ġy ea
Ġy east
ĠI raq
Ġc lar
Ġto en
st y
Ġch ase
Ġsp i
sh ops
Ġen gines
ĠP ac
Ġfirst ly
ĠJ ord
ĠR ep
Ġside ways
Ġdec la
Ġbra ins
Ġda ff
Ġworth while
Ġtrans act
Ġsm iling
Ġrubb ing
Ġsnow man
Ġvill ages
reme mber
Ġscore s
Ġborrow ed
Ġemploy ment
fif ty
ĠLo ch
Ġrasp berry
bet ween
ĠKen ya
Ġparsn ips
Ġoutdo or
Ġatte mpt
Ġcelebrit ies
b rilliant
l ow
w ant
Ġa and
en cies
ĠS now
ĠS to
Ġman go
ĠF ive
ĠP P
Ġind ie
ud ed
ex c
Ġret ro
Ġhealth care
Ġelect rical
Ġprof essor
Ġcirc ular
umb a
Ġintrodu ction
ĠWill iam
Ġbubb les
Ġsatell ite
c ous
i ander
Ġh int
Ġb ishop
Ġd ar
Ġp ills
ut ions
Ġin ner
Ġst ea
Ġfor med
Ġfor ks
Ġyour selves
Ġwor m
un es
un ction
Ġta b
mb oo
ul pt
ot a
Ġbo bs
ĠB all
ĠL ent
ĠL ook
Ġdad s
ĠH ist
Ġsc one
Ġcour ts
Ġcame l
Ġthank fully
Ġdis like
Ġidea lly
Ġthir tieth
Ġear ned
Ġsw apped
Ġsw ollen
Ġwater proof
ster dam
for ce
Ġbi kini
Ġemp has
Ġcolle ges
Ġseason s
Ġsecret ly
Ġbrand y
hand ed
Ġwild life
fl ies
Ġrelative s
Ġauthor ity
Ġmotiv ation
ĠDen mark
Ġlens es
ĠBat man
ĠWhats app
Ġvalu able
Ġmeno pause
ĠPomp eii
Ġagr icult
k o
w est
Ġw ound
Ġy ards
Ġb olog
Ġm oo
Ġf ired
Ġwa kes
Ġr od
th an
ic ol
Ġwhat not
Ġba ct
Ġqu i
Ġwor ship
ĠS IM
ĠM ongol
Ġke bab
Ġcomp reh
we ek
ĠH un
Ġten ants
ĠY our
Ġred s
Ġloc als
Ġarm ies
ĠSw iss
Ġconte mp
Ġstat ue
ĠAn ne
Ġclaim s
Ġauth ors
Ġimprove ment
ĠChar les
Ġtarget s
under st
Ġrefu nd
Ġtalent ed
ĠFin land
Ġoccur red
cons cious
Ġupse tting
ĠWester n
Ġtheore t
C D
c ru
n ce
p ay
ĠI b
Ġwa re
Ġj ab
Ġe y
Ġn in
ĠS al
ĠM um
Ġcon vert
Ġcl ing
ĠP ic
Ġcomp ens
ĠD ick
Ġfive s
Ġapp alling
Ġsw an
Ġbra ce
ĠSunday s
Ġdu ll
ni k
cl ick
Ġfresh ers
Ġpat io
uff ed
Ġexist ing
Ġchallen ging
ĠGe ord
Ġguaran te
Ġthreat ening
Ġscoo p
Ġsubst ant
Ġdeterm ined
Ġfrank ly
ĠLin ked
ĠSar ah
ĠAfghan istan
i zing
j ack
z he
Ġw w
Ġst are
ra ction
ĠS aint
sh ot
ĠE ton
ment ia
ĠG old
li z
ĠO sc
ĠK im
Ġcoll ar
Ġref ere
Ġlaptop s
Ġintell ect
Ġpump kin
Ġtranscri bing
pap ers
ĠPale st
m inton
n b
p iece
z i
er ving
Ġm use
Ġk ilos
Ġbut cher
Ġco t
ar ch
Ġn iche
ch a
Ġma ker
ge ons
un ny
Ġex pense
Ġsort a
Ġv ampire
ĠP ig
est h
int o
ĠH i
Ġbl each
Ġdis crimin
Ġmet aph
ĠV egas
Ġdra ft
ze ch
Ġhair s
Ġmusic ian
Ġes cal
Ġna ppy
Ġwea p
app ing
Ġcu be
Ġwo ken
Ġfourteen th
Ġref lection
Ġprote st
oph one
cel er
iest a
Ġimpro ved
Ġqual ification
ĠVictor ia
Ġpoison ing
Ġinject ions
Ġimmig ration
Ġfeat ures
ĠPre mier
Ġreh ears
Ġfet ch
ĠAm sterdam
ĠJim my
Ã¨ me
ĠTr ust
Ġsty les
Ġaccur ate
f oot
i ative
s ame
Ġm al
re m
Ġc ul
ing e
Ġwa sting
Ġr ural
Ġst ing
op p
Ġlo ll
Ġma id
Ġma car
Ġmu ff
ĠC ross
ĠD J
Ġhouse mate
Ġbad minton
Ġround s
Ġtr icks
ac ed
for ty
Ġsca nd
ĠAnd roid
Ġflu ent
cl ub
Ġvisit ors
Ġalcohol ic
Ġvi be
Ġur ban
Ġcommit ment
Ġpara noid
Ġfeat ure
Ġlip stick
Ġfru its
Ġaerop lane
ĠMalays ia
Ġlux ury
ĠOli ver
ĠHun ger
g ins
s sels
Ġ 4
Ġl at
Ġg ently
Ġfro st
Ġdi vision
Ġday time
ĠT ai
Ġar rog
Ġv alley
ĠP and
ĠG at
ĠN i
Ġhor n
Ġbea st
Ġtr unk
Ġdist rict
bb ling
Ġtend er
Ġsna kes
Ġsna cks
Ġspeed ing
Ġpat ron
Ġir re
Ġfrea ked
would n
ĠBe cause
utter ing
Ġbroad band
Ġya wn
ĠFl ore
Ġcrunch y
c s
s i
w agen
Ġw icked
Ġs ings
in ter
Ġb ot
Ġg ender
en ance
Ġre w
un ky
ĠD es
ĠL et
Ġbook shop
Ġhi ya
Ġrun ny
Ġcor iander
with out
Ġce il
Ġdeep er
Ġwhis k
nolo g
Ġvolunt ary
Ġchew ing
Ġscient ist
Ġcontribut e
ĠHel en
ĠHolly wood
d og
r ator
t alk
Ã ±
Ġth rees
no poly
on ic
ust er
Ġe e
ro v
ink le
ir k
Ġba mboo
Ġma sc
Ġqu o
Ġex ists
ab eth
ĠM aster
if orn
Ġsi zed
irst y
int age
ĠW im
ĠW onder
Ġtra p
Ġsc ulpt
Ġbr ides
Ġhor rid
get tes
Ġcat alogue
iz ation
Ġsea food
Ġexp licit
Ġbra ss
Ġgener ations
ud es
Ġenjoy able
board s
ĠIs lam
Ġbrown ie
Ġcontract s
Ġess ential
Ġcap acity
Ġpat ients
Ġcrea ms
Ġlift s
Ġhoo ps
Ġdepart ments
Ġfoc used
Ġfashion ed
Ġcloud y
Ġdisp os
ĠDVD s
Ġmagn et
Ġassoci ate
Ġswea ty
Ġeconom ics
Ġcong rat
Ġlou der
Ġthorough ly
Ġtodd ler
ĠApp rent
Ġlettu ce
zhe imer
B ay
Ġs well
st ics
Ġsu s
Ġneed les
ĠE n
ĠF ore
Ġun f
ĠW ay
Ġsupp orting
are n
ĠH ob
ĠN ice
Ġdef end
Ġhor iz
Ġad or
Ġser ver
Ġchar ities
Ġimp ress
Ġsmall est
Ġbuild ers
Ġsleep over
Ġpar ad
Ġtax is
ĠWh ich
Ġwish es
Ġdoub led
Ġkiss ing
ĠPh oto
Ġcro p
Ġblan kets
Ġobject ive
Ġdess erts
Ġdecor ating
Ġlif etime
Ġproof read
Ġrhy thm
Ġinher it
Ġzomb ies
Ġfran ch
Ġconspir acy
liz abeth
Ġo ak
Ġdon g
Ġor ang
Ġmo le
Ġbu ck
Ġpa w
Ġv ile
ĠF red
Ġcomp uls
Ġfun g
Ġtra um
ĠH ugh
Ġelse where
ĠO range
Ġsk ate
Ġbuild er
Ġcent imetres
ĠAust ria
Ġpriv ile
Ġprin cip
Ġcompet e
Ġcris p
Ġdev ices
ĠBu dd
ĠLab rad
ĠEd ward
ĠGre y
ĠCal iforn
ĠCroat ia
Ġome lette
ĠSca nd
Ġware house
p eas
Ġs alsa
Ġr ats
Ġab st
ol er
ĠC ast
so red
so ft
ĠM at
be k
be en
ĠB ad
ne ed
ĠL ib
Ġbr ut
Ġtru ffles
Ġtri gger
ĠWh en
Ġban ter
pl us
Ġchuck ing
Ġlit ter
Ġincrea sing
Ġmonkey s
olks wagen
Ġrene w
Ġrefuge es
Ġauber gine
Ġdat ab
T ube
k ow
k ka
r ous
v ille
in ty
Ġb rew
at ar
Ġf eas
Ġf east
st ra
en ess
it z
la ins
Ġdo zen
Ġch ut
ce p
mp ire
Ġact ively
ig an
ĠC ir
ĠC ad
sh ut
Ġv intage
ĠH ung
Ġpu lls
iss ions
Ġrun g
ub arb
Ġhor mon
oc al
Ġgrand da
Ġju g
Ġmeet s
Ġexp osed
Ġind uction
Ġchicken pox
Ġed ition
Ġshort ly
Ġpost c
Ġra sh
Ġjump ers
Ġboo b
app y
Ġdet ention
Ġinvol ve
Ġban king
ĠNo tting
ring e
ĠAr thur
Ġsuc ceed
ĠMo nopoly
sp eaking
Ġsquare s
ĠMc C
Ġanti que
Ġcommit tee
Ġreport s
Ġrose mary
Ġmembers hip
Ġpars ley
Ġconstru ct
Ġradi ator
ĠLanca ster
ĠSimps ons
ĠApprent ice
d ro
h ope
z a
Ġt uck
Ġs ang
in cess
Ġso ph
Ġso ak
or ay
Ġst ove
Ġfor um
Ġor ient
Ġre do
Ġba k
Ġlo ses
Ġma c
Ġher bal
ĠS ome
Ġtwo s
Ġbo ing
ish ing
Ġover whel
Ġcl ients
ĠF ood
ĠG ri
ne ct
ne cess
Ġac res
Ġac celer
ĠR om
ĠR ock
ta king
Ġam using
as k
Ġdri pping
Ġpast y
Ġele ments
Ġcat tle
ĠV ien
Ġhea ted
Ġtext ure
Ġins pir
Ġfla me
Ġmix ing
Ġhuman ity
Ġspread ing
Ġinclud es
Ġdare n
Ġarrange ments
Ġult ra
Ġgraph ics
Ġded ic
Ġchunk s
ĠInt ern
Ġtre k
ĠKra kow
Ġrais ins
Ġcontrovers ial
Ġsust ain
Ġsynd rome
ĠPhoto shop
Ġa mp
ea nt
Ġd arts
Ġf use
Ġp ist
Ġst er
al i
ĠM ic
Ġpa vement
ĠO CD
ign ed
ap art
Ġfact ors
Ġclass ical
ĠSt ate
Ġchill ing
Ġcru mbs
Ġlift ed
ĠAl zheimer
Ġinvest ed
Ġroast ed
Ġhum id
Ġtweet ed
ĠAt lant
Ġrecruit ment
Ġresident ial
Ġlact ose
ĠSub way
ĠRep ublic
ĠGat wick
ĠCaliforn ia
g ling
j e
k i
z bek
Ġw when
Ġs st
Ġh id
Ġc el
st ream
Ġsa cri
Ġba sh
Ġlo gs
Ġlo gged
ca ses
ma king
ĠA w
ĠT it
ĠB lu
ĠP D
the ir
ire ct
Ġhop eless
Ġspe cially
Ġlaugh s
Ġwall paper
Ġclim ate
ĠCan ad
Ġprom otion
Ġdiv ided
Ġsmile y
Ġterror ist
Ġorch est
interest ing
resp ond
Ġhypo th
M A
d ies
l ucky
m ith
o ir
w l
Ġs ons
er ves
Ġh ut
Ġp ity
Ġli ed
ic ip
et or
ar chy
Ġse ctions
Ġsa cked
Ġback up
Ġv otes
Ġgu ilt
per haps
Ġnight club
ĠJ er
Ġper ce
Ġgir ly
Ġdrink er
Ġtru ffle
Ġdep th
for med
icken s
Ġallow s
Ġmusic ians
Ġsent ences
Ġfoot age
Ġpain s
Ġinc on
Ġed iting
Ġes press
Ġreg iment
Ġass ault
Ġra ces
Ġsad ly
Ġmeat balls
Ġcu dd
Ġtur b
Ġspr out
some body
Ġmillion aire
Ġsna pped
lax y
Ġsli pped
Ġdeliver ing
Ġscrew s
Ġemploy ers
Ġmurd ered
Ġgoog led
Ġlol z
ĠNe xt
Ġouts our
Ġseal ed
Ġparsn ip
ĠTho mas
Ġsparrow s
ĠEar th
ĠAirb nb
Ġsubtit les
ou thern
in son
no body
Ġr ation
Ġdo w
Ġn il
Ġan ch
Ġdi aries
ĠC ook
ĠC amp
ĠE lizabeth
Ġgu ards
ĠF ro
Ġweek ly
Ġcar ol
ang o
Ġread s
Ġhard est
Ġbed time
Ġhot ter
Ġmass es
Ġexp lains
Ġart istic
Ġvis its
ealth y
Ġloc ally
atch ed
Ġinterview ing
ĠIs a
Ġquiet er
Ġmention ing
Ġpolice man
Ġflu ff
ĠYou Tube
Ġjour neys
Ġsuggest ion
Ġpolit ically
Ġincl ined
Ġstrugg led
Ġhy per
Ġexpl os
Ġcro cod
Ġfashion able
Ġprop ag
Ġapproach ed
Ġcop ied
Ġlim its
ĠLu cy
Ġfail ure
sevent y
Ġceremon y
Ġdaff od
Ġs ke
Ġc ord
Ġha unt
Ġfa re
ĠM oses
ĠT ech
Ġpa lace
Ġgu inea
ĠG ulf
ĠD u
Ġlea ning
Ġac cep
Ġel im
Ġmar ma
Ġgrand son
ĠV olkswagen
eight y
Ġrequ ired
Ġcott ages
Ġsever e
Ġcomb ine
Ġtyp ically
could n
Ġeth ics
Ġscient ists
Ġassoci ated
Ġpier cing
Ġgraph ic
Ġshr ink
Ġlands cape
ĠComm un
vin j
Ġcollaps ed
Ġshepher d
Ġclar inet
ĠPac ific
ĠFlore nce
B S
S t
s ight
Ġdon ated
ch ang
Ġal ter
sh ow
Ġbo b
ĠT inder
ĠF ry
ĠD ur
ag ain
Ġla ser
Ġshit s
ĠU h
Ġpartic ip
gu ard
Ġorder ing
Ġev olution
Ġbutter fly
Ġtoast ed
Ġcous cous
Ġrow ing
Ġpun ct
Ġpunch ed
Ġcop ying
Ġcivil ised
Ġsard ines
Ġabst ract
ĠNotting ham
b ows
c la
d ifferent
f ol
Ġa isle
Ġw ri
Ġw olf
Ġy uck
in av
Ġb atch
Ġd irt
re pre
Ġl ame
Ġf og
Ġto aster
Ġr ou
Ġsh amp
Ġan ger
ri ers
Ġma ca
Ġbit es
ol ine
mb les
Ġv icious
Ġreme mbers
ĠF iction
ĠF anta
ĠP ra
ĠP ug
ĠL E
Ġold s
pt ic
Ġapp et
ia ms
cent ric
by n
Ġsk irts
Ġgr id
Ġty res
ber g
Ġcolour ing
Ġra ffle
Ġchat ty
Ġnews papers
Ġpiss ing
Ġrac kets
back s
Ġsuggest ing
Ġprov ides
Ġvol cano
Ġnational ity
Ġigno rant
Ġbon kers
ĠDo ctor
pers on
Ġgradu ated
Ġfrust rated
Ġperman ently
Ġscoo ter
aby te
ĠTop shop
ĠSwed ish
Ġvow el
Ġcraw ling
Ġvari ation
Ġpersu ade
Ġburg lar
ĠPower point
Ġconcl usion
ĠStep hen
usc any
Ġchut ney
Ġbak ery
fol io
repre ne
u y
Ġi in
Ġd ye
Ġp alm
Ġli ps
Ġst ool
Ġre de
Ġma st
ĠM and
ĠT ories
Ġde mentia
Ġman ner
ĠF ight
Ġun necess
ĠG ard
ĠG all
ĠG ran
Ġpay ments
Ġem otions
Ġhead ed
Ġguess ed
Ġyoung sters
Ġgre na
Ġblack s
Ġpick led
Ġwind screen
Ġbottom s
Ġelect ro
Ġball oon
Ġinf ra
Ġpack aging
Ġcoun selling
Ġsupport ed
Ġport folio
Ġiron ic
Ġdoll ar
wor th
Ġchim ney
Ġflood ed
ĠUS B
Ġimagin ation
Ġshel ter
Ġinject ion
Ġgentle man
Ġcontain er
Ġnum er
Ġguarante ed
Ġt urt
es ar
Ġlo af
na h
ur ning
ĠM ick
ĠT en
ĠT ay
Ġpo ke
ĠF ox
est ival
Ġcomp ass
Ġchar ming
Ġnear by
Ġcor respond
Ġsign ature
Ġent reprene
Ġview ing
Ġcy cled
ĠAr gent
Ġpretend ed
Ġdiv ide
Ġcelebr ation
Ġprop os
Ġbasket ball
Ġfox es
Ġlandl ords
Ġcas ual
ĠSec ret
Ġtort ure
wo ah
Ġsubstant ial
Ġmarma lade
h an
m at
n ear
p ist
Ġt ins
Ġth o
Ġd um
Ġp ing
Ġst agger
od a
Ġint im
Ġea se
ty pe
ĠP ulp
Ġsl op
ste in
Ġconf lict
po ss
Ġshare s
Ġchest nuts
Ġtrea ting
ĠPr incess
ĠTe le
Ġnav ig
Ġthera py
other wise
ĠSnap chat
Ġextraordin ary
Ġdevast ated
Ġmuse ums
Ġcel ery
a ff
c ol
l ins
l ots
r ong
s pe
Ġt el
Ġa ce
Ġa uction
Ġw ink
Ġs oups
Ġd ated
Ġwa gon
Ġso le
Ġgo wn
la b
Ġin h
et ics
Ġn ative
al ways
Ġsa x
od ed
Ġout break
Ġmu ffin
ad er
Ġdi alogue
ich o
Ġint ri
Ġfe ver
ĠB C
ĠP G
Ġph o
Ġcomp on
Ġcomp leted
li a
Ġper ception
ĠR E
ord on
Ġhand some
ather ine
Ġfar ming
Ġad visor
Ġfree lance
Ġpass enger
Ġmess aging
Ġinv oice
Ġtri be
Ġbra ke
ocol ate
ock ing
Ġintern ship
Ġwar rant
Ġwrit ers
Ġcommun ities
Ġcreat es
Ġprocess ed
Ġrelig ions
Ġfund s
Ġbase ment
Ġrev ol
Ġobject s
Ġcontro ller
ĠCor byn
Ġemotion ally
Ġcondition ing
Ġimmig rants
ĠDan iel
Ġchemical s
Ġdim ens
Ġdinos aur
ĠSqu are
ĠViking s
Ġconfirm ation
Ġpunish ment
Ġaband oned
Ġincon ven
Ġshamp oo
b rea
v as
Ġa ward
Ġto ss
Ġwh ip
Ġsh ite
ra cy
Ġch unky
Ġma fia
ĠC r
Ġde ca
ĠB uda
ĠE mpire
Ġgu id
Ġjo gging
ĠN a
ĠJ ess
Ġper pet
gg ers
Ġmind ed
ĠK id
Ġrep orting
Ġadd iction
Ġgener ic
Ġfish y
Ġsqu at
Ġpost ing
Ġtu cked
Ġsepar ated
Ġchop s
Ġfix ing
Ġspa wn
Ġvi able
Ġtour s
Ġrh ubarb
Ġwheel chair
Ġmicrow a
ĠCar l
Ġincrea sed
Ġspon sored
ĠJust in
Ġeleph ants
Ġmeas uring
Ġinno cent
Ġacknow ledge
Ġglit ter
ĠPass over
Ġphys io
Ġarchae ology
Ġirre levant
f ace
l iest
Ġi i
Ġs laugh
.. .
er k
Ġb ou
Ġg im
Ġr ival
th rit
Ġst al
Ġre char
ĠA rm
Ġv ul
Ġman ic
Ġtal es
Ġcomp rom
ĠL i
ĠH al
Ġten s
co ck
Ġdef ine
Ġsur ve
Ġcheese cake
Ġpresent ed
ĠRo vinj
Ġthin ner
Ġri vers
Ġmagaz ines
Ġult imate
ĠBru ssels
Ġrequire s
Ġsquir rels
ĠDar th
Ġoutdo ors
Ġcontra st
Ġpheno men
ĠGeord ie
ĠScand inav
ĠMic ro
e ighth
Ġt et
Ġh he
Ġc i
Ġf f
st art
Ġti pped
ĠM oodle
ĠT or
Ġover c
ĠE mma
ĠF lash
ĠD eath
ĠR es
mo on
Ġcat er
Ġhold er
ĠSt an
Ġstick ers
Ã© mon
Ġmouth ful
Ġelectric ian
bed room
ĠPo k
ĠAr t
ĠAr gos
Ġnet ball
Ġindividual s
Ġscrew dri
Ġdecor ate
ĠBra d
ĠCor onation
bur g
Ġcontinu ing
ĠMid lands
ĠVod af
Ġintim id
F C
I n
S o
b led
k ok
l ery
n ese
o la
u ries
w ords
y r
Ġ 1
Ġth igh
Ġth this
at ical
Ġli ar
Ġin n
is ance
le mma
Ġe Bay
Ġco ats
Ġn erve
Ġn arr
Ġst ung
ch ers
Ġqu ilt
oh yd
Ġdi lemma
Ġint oler
ĠT a
if ting
ĠB on
Ġover la
Ġhu b
ĠE ver
ĠW ood
Ġob st
ĠCh amp
ĠN ick
Ġmin ing
og en
Ġhel met
ĠK night
Ġtr oub
Ġlist ed
Ġsur geon
ĠV ader
Ġbelie ves
Ġfo il
Ġcol on
Ġstr ang
Ġmeant ime
Ġtax es
Ġshort bread
lan es
ex cellent
Ġrent s
Ġclub bing
Ġelect ed
ym es
Ġfur ry
Ġsmo kes
Ġpriv acy
Ġdraw ings
Ġthick er
Ġow l
Ġfund ra
Ġtight s
Ġglo be
Ġsearch ing
Ġanti ques
Ġattract ed
ĠBrown ie
Ġjac kets
Ġaim ing
Ġund o
Ġtwist ed
Ġinteract ion
Ġcraw l
umber land
Ġsyll ab
Ġvom it
Ġrif le
ĠSer vice
Ġcitiz en
ĠAra bs
Ġey el
rov nik
Ġsoph istic
Ġintri gu
T h
b eat
t om
Ġw well
ĠI S
Ġh ose
Ġb urs
Ġd ub
Ġg ifts
or ious
Ġr er
ir ls
Ġse ctor
Ġab ilities
Ġne v
Ġta le
ĠS e
Ġpla ced
ĠC E
ĠM i
Ġcon j
ĠB et
ĠB ear
Ġpo king
Ġman sion
ĠG en
ĠD ark
ĠH ind
Ġbr ide
ĠO z
Ġear rings
Ġsw ede
Ġcut lery
Ġrel ations
Ġwin es
Ġposs ibilities
Ġve st
Ġquestion ing
Ġkill s
Ġfla voured
Ġbother ing
Ġinf o
Ġcreat ure
Ġneighbour hood
Ġdesk top
Ġfrea ky
Ġcarp ets
Ġviol in
Ġconcent rating
Ġnest s
Ġencoura ged
Ġkil o
Ġassoci ation
bla ck
Ġec centric
Ġspark ly
Ġveh icles
Ch rist
Ġcompla int
Ġvitam ins
Ġcoinc idence
ĠTE FL
Ġattend ance
Ġisol ated
Ġsnee ze
Ġcounsell or
ĠMongol ia
Ġscand al
C A
L ike
l ong
m or
p ies
Ġf en
it i
or er
Ġin sec
Ġn oun
ce st
Ġthing ies
mp ing
be st
ĠT uscany
ĠE rm
Ġweek day
Ġro tten
Ġel bow
Ġgra v
mo ve
Ġbra s
gra nd
ach es
Ġed ible
Ġatt ic
Ġz oom
ĠNor wegian
Ġinf ant
ĠUK IP
Ġprov iding
Ġprom ised
Ġnut rit
Ġeth ical
Ġol ives
Ġsurprising ly
Ġhorri fic
Ġbelong s
Ġrust y
ĠHol mes
ĠConserv ative
Ġnugg et
ĠJord an
ĠTech nic
ĠTay lor
g les
p ower
u mption
Ġd do
st able
or gan
ut ing
th ought
oo ps
Ġre in
Ġba gu
im ilar
el ve
ĠS om
ĠM etro
be e
ĠT erry
Ġv ary
ĠF am
Ġlea k
ĠJ ak
Ġbla st
Ġsecond ly
ĠU zbek
Ġswe eth
Ġpen guin
ĠAnd y
bb led
Ġspread sheet
Ġplu mber
Ġstretch ing
Ġchick peas
Ġmanufact uring
Ġsusp icious
Ġwob bly
Ġbrut al
ĠCanad ian
Ġorchest ra
ĠPok Ã©mon
ĠVodaf one
Ġbagu ette
Ġsweeth eart
' '
a ha
b en
f ting
h ire
i ens
l ea
o vers
Ġa che
er an
Ġit chy
Ġl odge
Ġthat hat
en ni
it ative
la mic
Ġsh ark
op ath
Ġba cked
Ġch art
Ġpro sec
ine e
ma ids
Ġdi zzy
Ġbu shes
ĠB ol
Ġpa ckets
Ġman a
Ġman ip
ĠP ik
as co
Ġmar gin
Ġdef rost
ip h
Ġnu isance
Ġdoor way
Ġbar rel
Ġru ins
Ġru shing
Ġacc idents
Ġbusiness man
Ġment ality
Ġreg ional
ograph ic
ob ia
Ġill ust
ĠIs le
Ġopt im
Ġsauce pan
Ġcla y
Ġrout er
Ġexcept ion
Ġow ed
Ġexist ed
lin er
Ġdisco ver
Ġcrit eria
Ġcart oons
Ġlic ense
ĠChristian ity
Ġspon t
Ġdetail ed
Ġinj ury
Ġmaint enance
Ġsatis fying
Ġoblig ed
Ġ2 4
Ġpony tail
Ġestablish ed
ĠPat rick
jud ice
urd ish
Ġvict im
ĠLabrad or
Ġhormon es
ĠPra gue
b urn
c at
c ount
Ġh ym
Ġc ens
Ġp ears
Ġso a
Ġr ere
ight s
Ġst em
Ġcan n
im ag
Ġsu cked
Ġca noe
Ġsee king
ur gh
Ġher itage
el f
ĠS ix
ĠS orry
ast ers
Ġdi ab
Ġfa cial
Ġneed ing
ĠM eth
Ġea ter
ĠT y
Ġpo inty
Ġover ly
Ġle e
ĠP ula
Ġho tt
Ġlea king
Ġpu ppet
Ġsch olar
Ġbl inking
Ġhi ppy
Ġsl ots
Ġland line
Ġsho ved
Ġdist ribut
ĠIs is
Ġdet ached
ĠInd ones
Ġtu mble
Ġbutter flies
Ġpsych iat
every body
Ġcoach es
ĠDub rovnik
ĠBro thers
ĠLu ke
Ġachieve ment
Ġash amed
Ġkitten s
Ġsof as
Ġbing o
Ġinfect ed
Ġsacri f
ĠBuda pest
d epend
i ge
u v
Ġa u
Ġm es
Ġl ining
Ġli ons
Ġwa g
Ġgo ats
Ġr ucks
ed ge
oo f
Ġme ow
Ġma sks
Ġpe ep
ĠT ar
if ted
ĠB an
ĠP ix
Ġph ew
Ġcar bs
ĠD om
ĠL ee
ag o
ĠH eb
Ġwal nuts
ĠO ld
Ġser ial
Ġpar rot
Ġcur ren
Ġins ult
Ġthrow s
Ġrad ical
Ġsla ves
sp eak
Ġfrea king
ĠEast enders
ĠPa lace
ĠBel fast
Ġelder flower
Ġanx ious
Ġcorpor ate
Ġunh ealthy
Ġcarb ohyd
Ġcompuls ory
ĠCad bury
Ġpropag anda
ĠMicro soft
Ġrucks ack
b us
c up
u ma
ĠI kea
re ens
Ġp iles
Ġer ad
ur ts
ĠB ey
om ile
act ive
ĠL iz
ag a
ĠJ erry
dd ie
Ġgra pe
Ġhead phones
Ġclear er
Ġsurpr ises
ĠMar g
Ġpos itions
norm al
ĠCorn ish
Ġmult icol
Ġll ike
fif teen
ĠBru ges
Ġappear ance
Ġsatis fact
Ġtechni ques
Ġteas poon
Ġacadem ics
ĠJama ican
inst ead
Ġdispos able
Ġcongrat ulations
Ġdatab ase
b ers
d ling
r ich
r ary
u gs
Ġs is
Ġd d
re x
Ġp id
Ġp ip
Ġp ins
Ġso ck
Ġwe lf
Ġha lls
Ġon going
is ion
Ġu k
ar in
Ġall ey
Ġre vers
ra ms
Ġch oc
Ġsp at
Ġar thrit
Ġover h
ĠG et
ĠD ickens
lo g
ĠL ane
Ġfour s
ath an
are t
Ġbeing s
Ġmin ers
ile ys
ĠR S
ord ers
Ġla kes
Ġdri ft
Ġfin ed
Ġmind set
ph y
ib and
ross man
Ġdoor step
Ġju ggle
Ġgre et
Ġadd ition
Ġdifficult ies
Ġve ggie
Ġpar all
Ġexper iments
elt ic
Ġstory line
Ġmother s
Ġsun light
Ġdead line
ĠWednesday s
vis ions
Ġcommun al
ĠLe g
ĠZ umba
Ġstate ments
Ġprint s
ane ous
bour ne
Ġproduct ive
eg ro
Ġnet working
ien cy
Ġpolit icians
Ġsecret ary
Ġcontin ent
Ġmort ar
Ġlamb s
Ġexist ence
Ġrh ymes
Ġpurp oses
Ġappreci ated
Ġlit res
ĠBu sh
ĠPa x
Ġfuss ed
Ġhoney moon
Ġpeel ing
lam ation
Ġaspect s
Ġnick name
igs aw
ĠCent ral
Ġtradition ally
Ġsar ca
Ġcycl ist
ĠPart y
Ġunpl easant
Ġallot ment
ĠWonder land
Ġfeas ible
Ġespress o
enni um
Ġwelf are
c ross
v ag
Ġd il
Ġg al
Ġg ained
on ies
Ġwh what
Ġdo h
od d
op en
Ġab bey
mb l
Ġsp lash
ĠS outhern
ĠC atherine
Ġfa g
Ġwork out
Ġcl own
ĠP i
Ġho bb
Ġho oray
ĠN az
Ġmin es
Ġapp li
Ġbl u
Ġmar ch
Ġbea ms
Ġgr ated
Ġchar m
Ġtr ays
Ġunderstand s
Ġju mble
Ġroad works
Ġblack bird
Ġdra ined
Ġsea side
Ġbra kes
ĠSt ra
ĠSaturday s
Ġapart ments
Ġpen ises
pa id
Ġresearch ing
ai red
Ġdry ing
Ġsla ve
Ġsol ving
Ġpublic ity
Ġkiss es
Ġpi geons
Ġwire less
sa la
Ġirrit ated
Ġnovel s
Ġann ounced
Ġremote ly
Ġrema ining
Ġinher ited
Ġclin ical
Ġtrend y
Ġelectron ic
Ġprem ium
Ġnegot iate
ĠMil iband
Ġdy na
Ġincor rect
ĠMeth od
C he
F I
d ep
h y
m us
Ġy up
ea ting
Ġmm y
Ġre ind
ĠC ru
Ġneed le
ĠB illy
ĠG rossman
ĠD iet
ĠW ag
ĠH T
ĠH appy
ĠR eally
Ġdis con
Ġreal istically
ub by
Ġres erve
Ġfair s
ĠTh ree
ank s
Ġblack cur
Ġhang over
Ġemp lo
Ġbath s
Ġorgan s
Ġref re
Ġbill ions
ĠDon ald
Ġexpl oring
ĠGu y
Ġnurs ing
Ġspray ed
Ġdesper ately
Ġmagn etic
Ġdump ed
Ġfiction al
Ġparcel s
Ġreject ed
Ġdecla re
b ert
h el
m ummy
n ical
p us
w ide
Ġth irsty
Ġw why
Ġl am
Ġc ork
Ġf ulf
Ġn ib
ck ers
ear d
Ġma ple
ess ive
mb a
Ġbu z
Ġcl utch
Ġun lucky
Ġph ases
Ġcar ing
ĠG ary
ĠD I
Ġtra gic
Ġhi ps
Ġliter ary
unt il
bu ms
Ġgym na
Ġcry stal
Ġur gent
Ġant icip
bet ter
Ġsignific antly
ĠHeath row
Ġko sher
Ġscrewdri ver
T E
i wa
j Ã
n jan
p rus
u per
x ual
Ġa x
Ġa le
Ġa lar
Ġi cy
Ġy y
Ġb ree
nd a
no s
Ġg ag
Ġwa ves
Ġso lic
Ġso ber
ut ive
id h
Ġn not
Ġn iece
Ġfor ces
Ġan gel
Ġsa fer
Ġlo yal
Ġal bums
rea med
mp er
art a
el in
ĠS ol
ĠC eltic
Ġbu ggy
ĠA ge
ĠB ron
ĠB ridge
Ġover s
ĠE ggs
ĠF ut
ĠP ress
Ġun real
ĠD ow
ĠCh rome
ĠN ess
Ġac comp
Ġapp ears
Ġwal nut
Ġbuy ers
gg ies
Ġdis k
Ġdis gu
Ġwait ress
Ġres ort
do ke
Ġgr ounds
Ġexc lamation
Ġinv itation
Ġwind s
Ġhold s
Ġemail ing
Ġcook ery
Ġent ered
Ġbeh alf
Ġsca m
Ġwar med
Ġra ising
Ġresearch er
Ġdoctor ate
ĠLe vel
Ġban ner
Ġsex ist
Ġdoub les
ĠBar ry
Ġsupport ive
ĠSouth ampton
Ġfle et
Ġburn er
Ġdan cer
Ġscratch ing
Ġscratch ed
ĠJohn son
ĠDo es
Ġmir acle
Ġpitch ed
Ġtransl ated
Ġdecor ations
Ġspir its
Ġeld est
Ġimagin ed
ĠBa ileys
Ġann ual
Ġrepla cing
Ġweigh ed
ĠOlymp ic
hu ah
ov ies
war f
ĠDra gon
Ġengage ment
Ġhon our
Ġbully ing
ĠWin nie
Ġdiagno sed
Ġconsequ ences
ĠBang kok
ĠFact or
Ġliber al
ĠWethers poons
Ġundergradu ate
Ġsolic itor
e qu
u na
y l
Ġo x
Ġm ute
Ġl end
Ġf olks
st one
Ġli que
Ġwe eds
Ġha v
Ġr ah
Ġdo o
Ġsh red
Ġco les
Ġfor mer
Ġan gels
Ġse g
Ġare na
Ġfro gs
Ġbu ry
ĠE ddie
Ġby pass
Ġun ex
de le
ĠD er
ist ers
ĠW illy
we ed
dd er
Ġbook mark
Ġbla nd
Ġcool er
Ġcard igan
Ġdec l
Ġwind ing
Ġterm in
Ġbott led
Ġdepend ent
Ġsqu ish
unt ing
Ġrain y
Ġbur ea
Ġsla g
Ġbull ied
Ġsalad s
Ġcred its
allen ge
Ġver se
Ġgru b
Ġchrist ening
Ġapplic ations
Ġimagin ing
Ġprepar ing
Ġwre ck
whe ther
Ġfib re
ĠClar k
Ġcircu it
Ġscro ll
ĠSto ck
ĠFro zen
Ġaccep ting
mbl r
Ġcoles law
d i
Ġa stro
ea ge
nd ing
Ġg est
on to
Ġse w
qu ee
Ġma mm
ĠS us
ĠA lex
ĠM ot
ĠB ah
ie ve
ick er
ĠD omin
ĠW at
ĠCh ip
ĠN ev
Ġlear ner
Ġdes igning
Ġshall ow
Ġwar ran
Ġpract icing
ĠIs lamic
ĠLe on
ĠLe ice
Ġfra ud
Ġteen y
Ġimpro ving
Ġrh etor
Ġsurv ival
ĠDo lly
Ġcro iss
Ġcomb ined
Ġsno o
Ġvolunte ering
Ġdestro ying
Ġtranscri be
Ġregist ration
Ġboun cing
Ġhook s
ĠCy prus
ĠBat tle
Ġutter ly
i que
p lay
z ie
ĠI an
Ġd ive
an i
et am
Ġdi pl
ĠA g
ĠA li
ĠB ack
Ġmight n
us ky
Ġpu ddle
Ġgra ppa
ph ra
ten egro
ud y
Ġhealth ier
Ġwra pping
Ġperm it
Ġblock ing
Ġdisc ourse
Ġginger bread
Ġigno ring
Ġcro quet
Ġchee ks
Ġstrict ly
a urs
l Ã©
r als
£ o
¯ ve
Ã ¢
Ã §
Ã £o
Ã ¯ve
ea ther
re k
Ġg erm
Ġf aded
Ġf ringe
ke ns
en ers
Ġwa ffle
Ġr os
Ġsh attered
ic ial
Ġco g
Ġco ffin
ro omed
Ġst ates
Ġrea ss
Ġsa la
ra ith
Ġright ly
Ġal ert
ff ield
pp e
un ich
Ġta sks
Ġfro ggy
Ġsp ies
ul ed
ĠM ir
ĠT ory
Ġpa pri
ĠP ay
ĠW raith
Ġtea sing
ĠH ello
Ġgra bbing
Ġsc oring
Ġdis rupt
Ġmar ker
Ġdef ence
Ġhand ful
Ġcont rad
ĠK in
ĠK urdish
Ġrec liner
Ġty ped
iz a
Ġbreak down
Ġexp ort
Ġexper ts
Ġflat mates
Ġflo ating
Ġpost age
Ġna Ã¯ve
ilt on
ex cept
Ġret weet
Ġmix er
em ic
Ġtend ed
Ġresp ite
bour g
Ġcontrol s
Ġadv ise
Ġport ions
Ġconcer ns
Ġclim bed
Ġimm ature
Ġwoo lly
Ġhunt er
su per
Ġstamp s
Ġadvent ures
Ġrequire ments
cra cy
Ġhorri fied
Ġterra ced
Ġmotiv ated
Ġfet a
Ġmethod s
Ġhammer ed
Ġreb ate
Ġthera pist
Ġgrant ed
Ġbabysit ting
Ġgee k
Ġreserv oir
Ġemphas is
Ġbact eria
ĠTai wan
Ġanch ovies
Ġvul ner
Ġsophistic ated
Ġarthrit is
Ġsarca stic
c ore
Ġi con
er ally
Ġc erv
Ġf atter
Ġp ads
ut iful
ar ound
Ġn n
Ġma sala
ab or
Ġsp ill
ĠS il
ĠC om
Ġbo ar
ĠA dele
ĠT urn
ĠB rid
Ġover head
ĠG ordon
we ird
ĠN ando
Ġkeep er
Ġla mps
Ġres ent
Ġsw ine
Ġwater ing
Ġsk im
Ġnu mb
Ġcut ter
ĠU nder
Ġexp lo
Ġexc ite
Ġmiss es
Ġcoll abor
Ġve t
Ġpar ade
ative ly
Ġsqu eak
Ġpost gra
Ġrent al
Ġcommun ist
ĠFran cis
ĠTu mblr
Ġsol ved
Ġcond u
Ġlay out
ĠMor gan
au x
mes an
ĠBu ll
Ġprotect ive
ĠEx pl
Ġcontro lling
Ġmarry ing
Ġnovel ty
Ġappeal ing
Ġexpert ise
Ġfrequ ency
Ġinstall ed
Ġcraft s
ĠLanca shire
ĠCount ry
Ġstain less
ĠBor is
Ġgreed y
Ġkay aking
Ġdys lex
Ġunnecess ary
ĠJak arta
ĠPik achu
Ġdiab etic
ĠIndones ia
E ng
G od
i kes
r in
s chool
at y
nd ed
re tt
Ġl ing
no m
Ġto ll
Ġr ant
Ġdo s
ink y
ca ster
rea se
mp us
ol o
ĠC ivil
ĠC zech
ĠM unich
Ġpre cious
Ġsi p
ĠE nd
ĠW ii
pect ed
Ġdes cend
Ġinv is
Ġbread cru
Ġmed itation
Ġslow ing
Ġrem ark
Ġpet ite
Ġstri pped
Ġimm une
ĠMon t
Ġplu ms
su pp
ĠShe ffield
Ġcapt ure
Ġcalcul ate
mind ed
try ing
Ġlem ons
Ġcrump ets
Ġintellect ual
Ġceil idh
ĠDur ham
Ġcurren cy
ĠLeice ster
b less
w oo
no ne
it ual
Ġha n
ir ting
Ġre set
Ġqu otes
ur ry
Ġti kka
ĠC I
ĠM ickey
ĠG ro
ĠW ords
Ġcou ch
Ġjo ints
Ġpl umb
ĠK ill
bo th
Ġbread s
Ġdescri pt
Ġpin ch
Ġala l
Ġsour ces
Ġmel on
Ġdaffod ils
D o
a ca
b ane
e ys
l oo
o qu
r ations
v ation
z et
Ġt ents
Ġh ind
Ġd ense
Ġl ark
Ġg lu
Ġg ears
ke l
st ation
Ġr ay
Ġdo ts
et t
Ġn ets
Ġsome th
Ġne gle
ra ine
Ġch alk
Ġout standing
Ġsu ited
Ġma noe
Ġmu gs
ur ous
il ation
mp son
Ġfro ze
ĠS ee
Ġdi arr
ich iwa
ous es
Ġfa c
Ġint ended
ĠM aybe
if er
Ġcl icking
ĠF A
ĠP A
the m
Ġob sc
ag us
ĠR iver
ĠR AF
Ġfew er
Ġhand writing
Ġwait er
Ġsw ir
Ġfree lan
Ġimp lic
up uy
Ġclass ed
Ġrest ru
Ġstand by
ach el
Ġsug ary
Ġpost al
Ġreg ards
Ġfavour s
Ġsun bath
Ġreckon ed
Ġsub tle
min ster
Ġfire s
Ġtur ret
Ġspr ings
Ġfootball ers
Ġinvol ves
Ġcy nical
Ġcla pping
Ġsubject ive
ho ea
Ġdan ces
Ġconcer ts
Ġdeb ts
au ge
Ġbon net
Ġavo iding
ama ma
Ġrespect s
Ġque uing
bor ne
Ġcre oles
Ġpred omin
ĠIT V
Ġann ounce
Ġrespond ed
Ġimmig rant
Ġheav ier
Ġsequ ence
Ġdolph in
Ġatte mp
Ġheal ing
Ġadm ire
ĠTho mpson
Ġdinos aurs
Ġstitch es
Ġpref ers
antom ime
ĠRyan air
Ġmetaph or
Ġweap ons
Ġador able
hope fully
ĠRom ans
ĠPG CE
Ġcomprom ise
Ġpapri ka
Ġmanoe uv
B e
c lass
w ife
Ġt to
Ġb ible
Ġg az
Ġin put
Ġr ode
Ġst ap
ch ef
Ġba il
Ġmo zz
Ġal oe
ĠS ur
ĠS Ã£o
Ġdi al
ĠC ry
ĠT K
ĠB art
Ġcar ers
ĠL ag
Ġpu ssy
Ġhi king
Ġbr on
Ġmar quee
Ġres cu
Ġliter acy
Ġext rem
Ġstre t
Ġfore igner
Ġleg is
Ġfloor ing
Ġboo st
min ute
Ġrubb ed
Ġchat s
Ġpresent ing
ĠMar vel
Ġagree ing
Ġsha kes
ĠZ e
Ġcru cial
Ġgovern ments
ĠAn gel
Ġclaim ing
ĠGo ggle
Ġenvironment al
Ġdecor ation
Ġbeard s
ser iously
Ġsuff ering
Ġgro cer
Ġjelly fish
Ġbound aries
Ġvirt ual
Ġpean uts
ĠDor set
Ġsamp les
Ġtiss ues
Ġzomb ie
Ġber ries
ĠChi huah
Ġaerop lanes
Ġsod ium
ĠDy lan
Ġreli able
Ġassign ments
Ġhedgeh og
ĠLad y
Ġmacar oni
Ġfranch ise
Ġorang es
ĠAtlant ic
Ġcrocod ile
Ġhott est
Ġwarran ty
M r
T hey
d r
f o
j u
t r
Ġl ag
Ġf oo
Ġf ian
Ġno stal
es c
Ġin land
Ġin ev
Ġdo c
Ġwhat sit
Ġst arling
Ġmu lled
Ġex ac
el ing
ĠM D
ĠT er
ĠB B
ĠF if
ĠP S
ĠP ink
ĠW ild
lo c
Ġdri bbling
Ġsec rets
ĠK ron
do or
get s
Ġbar on
Ġton ic
Ġsuper v
Ġret ain
Ġafford able
Ġge ese
Ġmort g
Ġaccess ible
su ch
Ġauthor ities
Ġrom ance
Ġgy psy
Ġquar antine
Ġpatch es
Ġsubs id
Ġscru b
Ġut ility
ĠSimps on
Ġpest le
Ġinsul ting
Ġela stic
Ġobserv ation
ĠBarc lays
ĠOsc ar
Ġarrog ant
Ġpist ach
ĠMarg aret
ĠWag amama
c ill
p ipe
Ġ ze
Ġa ux
Ġm unch
Ġm erry
Ġp antomime
or se
ir s
ol ves
ĠM ade
ĠB ird
ĠB ee
Ġman ners
ĠE T
Ġcar er
ĠW alking
ĠL ind
Ġac orn
Ġmanag eable
Ġtrans ition
Ġkitch ens
Ġpack ages
Ġest uary
Ġlibr aries
Ġhide ous
ĠPeter borough
Ġchew ed
ĠRob ert
ĠRoman ia
aby tes
ĠGre ggs
ĠHol iday
Ġprecise ly
Ġthy me
Ġchains aw
Ġpedest rian
Ġsibling s
V A
c us
f ty
i use
j ay
m od
v id
y re
z iness
Ġw ifi
Ġo ats
ea ux
Ġh how
at able
Ġd warf
Ġm ous
Ġg auge
Ġf iddle
Ġp oured
Ġso cket
Ġbe c
Ġbe tting
Ġr ated
Ġk its
Ġsh ook
ic orn
Ġhe el
ent ic
Ġsa mos
od or
Ġba bes
ra it
Ġme g
ill ion
Ġal iens
na ment
na ise
pp ings
Ġma s
Ġma mmy
Ġqu ad
Ġgood s
ad vant
Ġback ing
ĠC ro
ĠC ow
Ġdown s
Ġv ans
Ġover take
Ġcl owns
Ġmay or
Ġgu ided
ĠP il
ĠP ooh
Ġbet s
Ġun is
ĠW il
ĠL aw
ild a
Ġtra m
Ġtra sh
Ġtra inee
li ers
ĠJ ob
Ġdis advant
Ġtru cks
ĠU g
ĠV er
Ġbra cket
Ġart icho
Ġmain stream
Ġfla sk
Ġdeal t
Ġpan icked
Ġextra vag
Ġemp er
Ġrain s
Ġpract ised
oun ces
Ġbow el
Ġcla imed
Ġclever er
Ġstri kes
Ġdescri bing
Ġsupport s
ris bane
Ġoccasion al
Ġbenef icial
ĠMo ss
Ġport ray
Ġroast ing
Ġscen ery
Ġhy ster
ass y
Ġbrid ges
Ġindivid ually
idd les
Ġqual ify
Ġpea ches
Ġauth entic
Ġcree p
Ġmir rors
Ġpron ounced
ĠSy rian
Ġwander ed
ĠLo st
Ġstir ring
Ġunif orms
ĠiPh ones
Ġcontinu ed
ĠEm ily
Ġbubb ly
say ing
ĠFin nish
Ġselect ed
Ġexpress ions
Ġcam omile
Ġrestrict ions
Ġtread mill
Ġbalan ced
ĠIns urance
Ġproced ure
Ġrehears als
poss ibly
Ġsyllab us
Ġvulner able
aux hall
Ġdiarr hoea
A s
o i
s ince
Ġth underst
Ġo th
Ġh ooked
Ġl or
Ġr itual
Ġsh ining
Ġj aw
ch icken
Ġsome what
ir a
Ġba ker
Ġlo lly
qu ar
ther ap
Ġta gged
Ġus er
ĠC le
ĠC our
wh ose
ĠB reak
ĠB risbane
ĠP ho
Ġun employed
Ġpl ough
ĠN ig
Ġsc reens
ĠR on
ĠR ail
Ġpast ies
Ġhigh way
Ġbar ra
Ġexc uses
Ġcol umn
Ġbi ased
Ġins ured
Ġvis ible
Ġwar ned
four teen
Ġfill s
ĠCo mp
Ġwood land
Ġchat ted
Ġsau na
Ġprice y
ĠSc ots
Ġeyes ight
Ġcatch es
ĠAustral ians
Ġdiscuss ions
Ġtravel s
Ġclos es
Ġgri p
ĠAn ge
Ġtrous er
ĠBu ild
Ġhost els
Ġbeha ving
Ġant id
Ġchoo ses
ĠDub lin
ĠGP s
Ġchees es
Ġterror ists
Ġrely ing
Ġleaders hip
Ġinsist ed
Ġwre cked
Ġstereoty pe
Ġevol ved
ĠTig er
ĠDam on
Ġcompreh ensive
Ġcontemp or
Ġinherit ance
ĠIntern ational
Ġster il
Ġgrena de
Ġsoa ked
Ġburea uc
ĠExpl orer
ĠGoggle box
b in
d el
f en
r r
Ġm it
Ġf ries
st uff
Ġli z
Ġso aking
Ġr amp
Ġwith dra
op y
Ġme h
Ġch er
ca me
ca lled
Ġqu ack
Ġca red
Ġsp or
ĠS age
ĠS oph
ĠS lim
ĠC umb
wh a
ĠA th
ĠA ny
Ġde lay
Ġpo lar
ĠE ll
ĠG ates
ĠL ut
Ġac ou
mo le
Ġres erved
ĠK ar
Ġsur real
Ġmoment um
Ġmil eage
Ġcost ing
Ġart iculate
iet ies
mon th
Ġaff airs
Ġmilk sh
ĠMar io
bu ilt
gr ounds
gr oup
Ġload ing
ession al
Ġinf lation
pro f
Ġcry st
Ġmad ness
Ġge ograph
Ġpersonal ities
Ġinvest ing
see ing
Ġpsych o
ĠJack ie
Ġdownload ing
ĠMon tenegro
Ġflex ibility
Ġsmooth ie
Ġwhi pped
Ġpest o
Ġpix ie
Ġwhist le
ĠIb iza
nolog ical
Ġtraum atic
Ġgim me
Ġphenomen al
ĠFam ily
ĠKron en
H D
p ants
Ġa a
oo by
ct ive
ri ve
ca p
Ġsu p
ur f
ĠS ir
ĠS ab
ĠC oo
sh i
ĠM I
ĠB ern
ĠG rant
Ġpl on
ĠH ay
dd led
ĠR ice
Ġdis gra
ens it
rid ges
Ġfan cies
Ġmed al
br inging
po or
Ġcreat ivity
Ġfra ction
fla kes
Ġmosquit o
Ġdemo cracy
ĠJon athan
Ġaux ili
b rough
c iously
d ale
o tto
w i
w oman
z ers
in se
in ity
Ġb inding
Ġg no
Ġg on
Ġg ates
Ġg lam
Ġno sy
Ġgo i
or i
Ġr ational
Ġr opes
Ġdo ck
Ġk ings
Ġk ale
th rop
Ġsh ips
ic ies
Ġj us
Ġj ew
et ies
ir th
op per
Ġre se
ri or
ri ans
Ġba c
Ġany ways
im mer
Ġsu nd
Ġma ins
Ġqu ir
mm ies
Ġpro xy
il ight
ad o
ab i
el ines
Ġpla gue
ĠC ap
ĠC av
ose xual
Ġint ro
Ġint ensive
Ġdown side
be th
ĠT ower
ore c
Ġcon es
ĠP ep
ĠD ol
ĠD ales
ath ers
Ġbad ges
Ġgra ce
fe ed
ĠR ings
Ġbla de
Ġbla zer
ict ed
Ġear nt
ub ile
og ram
Ġhand bra
Ġsl ur
ĠK FC
Ġsw ept
ron ic
Ġfair ies
ac etam
Ġcomm and
Ġfact ories
Ġcor ners
go ver
Ġtri als
Ġter r
Ġpol icies
Ġstr anger
Ġtext book
Ġpri m
ĠSt one
ĠSt ory
Ġpost s
Ġmod er
ĠCo ld
Ġdist ant
eat re
ai ro
Ġpriv at
Ġprefer ence
Ġlar gest
Ġvers a
ĠTw enty
Ġyellow s
Ġchair man
Ġdirect ors
ĠSh op
Ġstri ps
Ġdesign s
Ġest imate
Ġoper ations
Ġrecogn ize
Ġdeep ly
Ġsuggest s
Ġmag ical
Ġloo s
ĠItal ians
Ġcast les
Ġidi om
Ġow t
Ġrespons ibilities
Ġiron ically
eng ers
Ġrail ways
Ġhar bour
ĠBu zet
Ġrece iving
Ġfold ers
Ġdem ol
Ġtun es
Ġreport ed
Ġfli pped
Ġped al
Ġbroad cast
Ġpy ram
Ġlif ting
Ġpeel er
Ġrap ed
Ġmeasure ments
ole on
Ġlin er
ĠLa mb
Ġrema ins
Ġfunction al
Ġquant ity
Ġblend ed
Ġadop ted
Ġhighlight s
ĠPaul o
Ġsurround ed
Ġlent ils
Ġdemonst rate
Ġslee ve
ras ound
ĠGa laxy
Ġmono poly
Ġexcl uded
Ġreveal ed
Ġinterpret ation
Ġcycl ists
ĠMax x
ĠEl vis
ĠCC G
Ġmut ual
Ġcandid ates
ĠTru mp
Ġterrit ory
stan bul
Ġmuff ins
Ġbrides maid
Ġdedic ated
Ġsax ophone
Ġparall el
ĠLeg acy
Ġdipl om
Ã¢ t
Ġlor ries
acetam ol
H e
c r
r int
Ġs ed
Ġb ats
Ġdo dge
Ġsh eds
Ġn ig
Ġshe er
ch et
ir teen
Ġall ergy
ri ages
ill i
Ġany th
Ġtw itch
Ġpro mo
Ġback side
Ġprob ab
ot al
ĠA v
Ġde bit
om en
Ġah h
Ġgu ides
ĠF orm
ĠP orec
Ġcomp osition
ĠD j
Ġpart ying
Ġsupp liers
ead s
ĠH y
Ġbl unt
Ġsc ope
Ġtru mp
Ġbea ts
ĠK ate
Ġser um
Ġseven s
Ġfil ing
Ġcra shing
Ġsma ck
Ġpass engers
Ġrest ing
ĠV auxhall
Ġrep et
Ġrel uct
Ġinst itution
Ġtri m
Ġind icate
ĠSp ring
Ġtill s
Ġed ited
Ġage nda
Ġsqu a
Ġconf use
Ġton nes
Ġmen us
Ġra pe
Ġblo b
Ġcross es
Ġvar ies
Ġcla p
Ġstri py
Ġep ic
Ġbru ise
Ġow es
Ġtrad es
Ġbrand s
Ġscra ping
Ġclock s
ĠLego land
Ġfrea ks
Ġanaly sing
Ġmood y
ĠHow ard
Ġcontribut ion
Ġhorri bly
ĠHa mmer
ĠDen nis
Ġspect rum
Ġminor ity
Ġcompla ints
Ġbreed ing
Ġtat ty
Ġmoist ur
Ġprescri ption
Ġov arian
Ġoctop us
ĠRh odes
Ġretard ed
Ġfidd ling
Ġnomin ated
Ġbolog nese
Ġtheoret ically
Ġcompens ation
Ġpatron ising
Ġinspir ation
Ġturt le
Ġhobb ies
Ġrefre shing
Ġbreadcru mbs
ĠCry stal
b ie
g ains
Ġt ul
Ġthe they
Ġb icar
re p
Ġl ager
Ġf ff
Ġp ly
es is
Ġbe f
Ġr ave
Ġr inse
Ġsh arks
Ġnot ic
ra ce
Ġmo or
ca le
Ġca ffe
ĠS ad
ĠS mo
ĠA udi
Ġmay o
ĠG ry
Ġwon ky
ĠH ill
Ġgra in
Ġper se
ĠR od
ĠR eg
Ġla va
Ġrun ners
Ġmat s
Ġcard io
Ġegg y
pr int
ĠCo ast
Ġpresent er
Ġdet er
Ġinf la
Ġfight s
Ġsla ng
Ġye yeah
Ġbru shed
Ġprom ote
Ġaffect ing
Ġrev ise
ĠPer cy
Ġpunch ing
ĠCor pus
ĠTra vel
Ġeval uate
ĠGP S
Ġexha ust
ĠOn ly
boy s
Ġdiamond s
ĠJama ica
ĠNap les
Ġinse ct
Ġhyp oc
exc use
Ġpropos al
ĠBah rain
Ġcryst als
b re
b ins
e ither
n atural
y n
Ġt ing
Ġa mber
Ġg aw
it ness
an ic
Ġr ar
is k
ugh ter
Ġjust ice
ro lled
al ia
ra h
ra nd
ol is
ers hip
Ġsp ook
ma ll
ĠC B
ĠA x
ĠM ocking
ĠE LT
ist ent
ĠW alk
ĠN ar
ĠR ick
Ġfif tieth
ap or
bo at
tw elve
Ġret urning
Ġpush chair
Ġcamp er
wa sh
Ġkiss ed
Ġbase ball
ama zing
Ġreturn ed
Ġeng lish
ĠMad onna
Ġsett ling
Ġbran ches
Ġcontinu ous
AT s
ĠJul iet
Ġfundament al
ĠPalest ine
Ġpostc ode
Christ mas
imag ine
Ġbuz zing
Ġpredomin antly
f ix
g one
g ien
h ou
v als
y ad
z o
Ġ ounces
Ġa venue
Ġw ipes
in ary
in ations
in ho
at omy
Ġf ate
ke st
st ate
Ġwa ffles
Ġwh ites
Ġgo ver
Ġon wards
is ations
Ġco ord
et ooth
ar oo
ir able
al onia
ck ham
Ġme les
Ġmo cks
Ġthem es
pp ines
Ġpro ved
Ġti gers
Ġtime d
Ġfa gs
ot ch
ĠA ber
ĠT alk
Ġpa ella
Ġcl ips
ĠF o
Ġun pack
Ġcomp art
ĠD own
ĠW itch
ath e
ĠCh a
ĠH ere
ĠH ealth
Ġro bbed
ĠJ ose
Ġten ant
ps ies
Ġgra ft
ĠR ange
Ġmove ments
Ġdef ending
ha ms
ub bies
ren ce
Ġbro om
Ġmor on
Ġsw ings
ib al
oc ation
Ġgr ind
Ġty re
Ġstra ps
Ġter abyte
bo b
ud ge
Ġbox ing
Ġgarden er
Ġflat ten
Ġdel icate
Ġsal on
Ġprodu ces
Ġblo ss
olog ically
ome t
Ġpen nies
ĠCo le
Ġret reat
Ġret iring
urt on
Ġhosp ices
ĠIs lands
Ġaut istic
let ubbies
Ġequ ity
Ġcla ri
Ġdru mmer
Ġce ment
cl osed
Ġcreat ures
ĠRuss ians
Ġsens es
Ġdisapp ears
Ġcompet ing
Ġarch ive
Ġarch ery
Ġpolit ician
Ġbru ises
Ġempty ing
Ġguit ars
Ġforeign ers
ĠCar rie
Ġsno b
Ġsno ring
Ġearning s
Ġchrist mas
Ġtwe ets
ule le
eam ish
Ġpow ers
Ġtub es
ĠShe eran
Ġprogramm ing
Ġadvent urous
ok ov
ĠUS A
ĠBro ther
Ġreception ist
Ġvac c
Ġcapt ured
ĠLa kes
Ġtweet ing
Ġinj uries
ĠAb out
ĠSch ool
ili ppines
Ġacqu is
boy friend
Ġtact ical
Ġmanufact ur
bac ca
Ġsusp ended
Ġstall s
ĠAng lo
whe el
itt les
Ġtramp oline
ĠNut ella
hol m
Ġrul er
Ġinse cts
Ġdism iss
Ġoverwhel ming
bled on
Ġnarr ative
Ġuk ulele
Ġblackcur rant
aca mole
upuy t
iuse ppe
ĠPho en
ubile e
b limey
e my
h ips
j esus
l ift
m id
p ace
t alking
v ate
Ġb rill
Ġb att
Ġd well
Ġc umin
Ġg h
Ġf ont
st ones
Ġli gh
Ġha w
Ġst ained
Ġne uro
Ġre na
Ġch uffed
Ġout er
Ġsu ss
Ġpro spect
Ġca ss
Ġher d
il m
ĠS S
ĠS and
sh h
Ġfe m
ĠM S
Ġea stern
ĠT ex
Ġde e
Ġpa wn
Ġpo ker
ĠP ers
Ġcomp ound
lo cked
ĠCh er
ĠCh ew
ĠH D
Ġac up
Ġten sion
Ġche ques
ĠR achel
ĠO man
Ġsl iced
Ġres idence
ling s
oc us
Ġgen e
Ġgen etically
ĠU k
Ġrep rodu
Ġbuild s
cu ps
go tta
Ġgener ate
Ġcons uming
Ġcolour ful
Ġterm inal
Ġmain land
Ġreg ime
Ġra ving
ĠCo ca
Ġwood y
Ġpush es
ĠAnd rew
Ġsha ving
Ġvill a
Ġfant asy
Ġtemp ting
Ġdevelop ers
Ġreco ver
Ġreco very
Ġvers ions
mar ket
Ġfra g
Ġloud ly
ĠPo st
ĠSw ans
Ġimpro v
ĠcafÃ© s
Ġbang ed
Ġaud ition
Ġfir ms
Ġbump y
Ġtor to
Ġarse hole
Ġhom oph
ĠOf sted
Ġpoison ed
Ġroundabout s
Ġflood ing
Ġmechan ical
ĠKing dom
Ġwitch es
Ġinvestig ate
ĠRome o
Ġconfir med
Ġhairdress ers
Ġexpand ing
ĠHunt er
Ġacknow led
ĠBas que
Ġthy roid
Ġfundament ally
Ġcamps ite
ninet een
ĠLinked in
ĠPand ora
Ġmicrowa ves
Ġsurve ys
Ġburs ary
Ġlique ur
ĠTurn er
ĠFrancis co
Ġmortg ages
Ġdisgra ce
c uts
s w
s pr
t ea
at ta
Ġd ang
Ġm r
Ġg erb
Ġk on
Ġsh sh
Ġcan cers
Ġch icks
ĠS lo
wh ite
ul ating
so m
ie ber
ĠF at
ĠF ra
ĠD ie
ĠL A
ĠH u
ĠH oo
ĠN ever
Ġsma shing
ap ed
Ġru ining
Ġvar ied
ĠDe ben
Ġsla gging
ĠQ I
ĠNo el
Ġoppos ition
Ġgl ow
ĠGu ll
che ck
Ġdecor ated
Ġdust y
Ġmer ch
comp lete
ĠSte ven
Ġstink s
ĠLloy ds
Ġoy sters
Ġpartners hip
ĠCount down
ĠAS OS
Ġabsor b
Ġchav vy
ĠHam let
ĠLou is
Ġpurs ue
Ġtoen ails
ĠDom ino
Ġgymna stics
Ġinvis ible
Ġauxili ary
ĠDeben hams
W ell
b ear
u ana
ĠI d
st ay
en a
Ġno th
Ġu no
Ġn urt
ro ph
ĠC ock
Ġbo g
ĠM iddles
ĠT ro
Ġwork shops
ĠE cu
Ġbl ows
ĠR og
Ġunderstand able
Ġsme lling
Ġtur meric
ĠSc ooby
Ġboyfriend s
Ġhy dro
che ese
put ting
Ġleaf let
ĠChurch ill
ĠMoroc can
ĠNap oleon
ĠEcu ador
G M
T s
d one
f ar
f urt
g am
g iar
j ama
l ear
u el
v ated
w ra
Ġt arts
ou ns
Ġs cept
in ch
Ġh ating
Ġm im
Ġm ish
no ff
Ġg i
gh er
Ġp p
Ġp Ã¢t
Ġwa ved
Ġso ggy
an us
Ġr ally
is ers
ly ing
ere lla
Ġst ron
Ġrea ctions
ck erel
Ġre venue
Ġch ow
Ġmo ors
ca d
Ġsu fficient
pp les
Ġma nd
Ġqu icke
ss es
ad os
Ġsp ac
ĠS A
Ġfa v
ĠA my
ĠA dam
ĠT al
if ies
ĠB y
ie ces
Ġpa ll
ĠF iesta
ĠG M
ĠD C
ĠD N
ĠD em
ĠW al
Ġsupp lier
Ġtea bag
ang aroo
ĠCh ery
Ġtra ce
co b
co mb
iss ance
as a
as on
gg ered
ict itious
Ġbus ier
Ġweird est
Ġem o
ĠY oda
ĠK ings
Ġsw apping
get te
Ġgen etics
Ġdear er
Ġdes erved
ĠV alley
Ġrep ublic
ĠSu ff
Ġadd ressed
Ġallow ing
Ġacc um
ĠSp rite
Ġsent iment
Ġstr ung
Ġpar acetamol
Ġbrilliant ly
Ġcur ve
Ġfla kes
ĠBrit s
Ġsuper ior
Ġsun bed
ars i
Ġcheap ly
Ġatt raction
uc c
Ġwo k
ĠInd ians
Ġpriv ately
Ġtrip od
Ġtemp t
Ġconsider ation
Ġtele phones
Ġcal med
Ġprocess es
ero es
Ġsoci eties
ĠMo on
Ġfle e
Ġste er
Ġgig gle
Ġchap ters
ĠJack son
Ġobs ession
ĠIp od
Ġcomment ed
Ġchem ist
Ġgradu ation
Ġchest nut
Ġdiss imilar
Ġconcent rated
Ġsaf ari
Ġcell ar
ĠMich elin
Ġamb ass
Ġcarav ans
Ġrap id
Ġjournal ists
Ġbreast s
Ġgro ove
Ġflood s
Ġweak ness
ari os
Ġterror ism
Ġaddict ive
ij uana
Ġbond s
Ġted ious
Ġbicy cles
Ġsurround ing
Ġorch ard
ump h
Ġresist ance
ĠAng lia
Ġinspect ion
Ġhun gover
Ġfortun ate
ĠPet ers
Ġfemin ist
Ġcheer ful
ĠMill ennium
Ġdistinct ive
Ġthrill ed
Ġathlet ics
Ġresol ution
Ġtoler ate
Ġcarriage way
Ġbre wer
Ġagricult ure
esth etic
Ġdiscrimin ation
ĠWim bledon
Ġsculpt ure
ĠHung ary
ĠGall ery
lab ility
Ġintoler ant
Ġstrang ers
Ġfundra ising
best os
Ġros Ã©
Ġemper or
Ġquicke st
F riday
a mb
g ate
g eant
p la
s ister
Ġ 5
ea ts
at ient
Ġd I
Ġf ert
Ġno d
it ting
es y
Ġwas ps
Ġk arma
Ġfor cing
nt on
Ġcos met
Ġch ino
qu est
Ġmea ty
Ġma la
Ġpe ck
Ġca pp
Ġpla giar
ĠC ors
ĠC ats
Ġint ent
ĠM u
ĠT ab
Ġover time
te ch
Ġhu mp
Ġen emy
Ġgu acamole
ĠG host
ne w
ci ety
Ġpl uck
ĠH eart
ĠN in
ĠR i
ĠChrist ians
Ġres id
Ġnu de
du h
Ġpick y
ĠSt rat
Ġstupid ly
Ġsca res
Ġsho vel
let ter
com es
Ġpos ing
Ġcult ured
lit erally
pro du
Ġcry ptic
Ġcoun cill
Ġcompet itions
Ġlu sh
Ġbatter ed
Ġste pped
Ġtrad ing
ĠPh ilippines
Ġlab els
Ġlab elled
Ġchallen ges
Ġque ues
Ġga mbling
Ġyog urts
Ġgradu ates
Ġinit iative
Ġchef s
Ġdocument aries
Ġtrea sur
ĠMac beth
Ġhom osexual
Ġtransfer red
Ġmus sels
Ġsumm ary
ĠJo ey
Ġcomplex ity
Ġdistract ing
Ġmeas ured
Ġunc ertain
Ġeconom ically
Ġmotorb ikes
ĠMag ic
Ġslee ves
Ġram med
Ġreceipt s
ĠDel hi
ĠPlay station
ĠMount ain
Ġhedgeh ogs
ĠMel bourne
Ġtransact ion
Ġprivile ge
ĠCast le
ĠTele graph
Ġtet anus
Ġsacrif ice
Ġdyna mic
Ġunex pected
Ġgest ure
Ġcontempor ary
ĠTex as
W e
g ro
j ig
v ig
Ġi de
Ġs eas
Ġh oh
Ġm art
ll ers
no pe
la l
Ġdo cks
Ġk angaroo
Ġsh erry
ver e
Ġsa ge
Ġsa int
Ġout right
ff led
sh aped
ĠB aby
Ġpo tty
ĠF er
Ġun con
ĠD un
Ġsc ars
Ġdri zzle
Ġcra mp
mail s
fu ll
Ġtin ned
Ġfore head
ĠThursday s
Ġrad ius
Ġlarge ly
Ġris otto
ĠMa ps
Ġsplit ting
ĠDon caster
Ġscen arios
Ġexpl oded
ĠPol o
Ġcelebr ating
Ġtim ber
Ġwha what
Ġclassroom s
Ġpit ta
ĠPe ppa
Ġsymbol s
Ġacqu ired
ĠJe ff
Ġflop py
ĠHot mail
Ġdest ination
stra ight
Ġmulticol our
Ġreind eer
ĠDI Y
ĠCivil ization
Ġfian cÃ©
D S
h ard
i ated
p ill
Ġs ss
ĠI stanbul
ll ect
Ġf ictitious
st age
ut ty
ed uc
le ting
Ġe cho
od gy
Ġab ortion
ri o
mm ers
ĠS erb
ĠC as
ĠC uba
ĠM ore
ĠM ango
Ġea ster
Ġar ty
Ġv iv
Ġover p
ĠP u
Ġend less
ĠN est
he m
Ġpu ree
ia c
ount ain
Ġdep uty
any one
Ġsea weed
Ġvar ieties
Ġprefer ably
Ġtut ors
Ġmatch ing
ĠWor ce
Ġterri fic
Ġpsych e
Ġaccess ories
Ġprofession als
Ġremo val
Ġprotect ing
Ġcer amic
rel ated
Ġpir ates
Ġelectron ics
Ġtact ics
Ġslo th
ĠFrank furt
ele ven
phra se
ĠJose ph
0 1
2 5
T P
a ut
c ertain
g m
g ia
h onest
r un
w on
z an
z ar
Ġt um
ou g
ou fla
Ġy yes
ea u
Ġh itch
Ġh atch
Ġb ind
Ġb red
Ġm ering
Ġf ier
Ġp and
Ġp rea
Ġp ong
Ġwa ry
Ġwh izz
Ġso ckets
Ġha bits
or al
or ial
ut ical
Ġin formed
th on
se ed
Ġco oper
Ġst alking
ink er
al ised
od ay
Ġas p
Ġch ock
Ġch ords
Ġch ased
Ġlo ver
our inho
Ġout come
Ġout back
Ġqu ery
Ġca bles
Ġta pes
Ġher ring
ab ol
mp h
el ine
ven ge
mb o
Ġdi pped
ĠC ome
Ġint end
ot le
ish er
ĠM oo
ĠM asters
Ġde odor
ĠB M
ĠB s
ĠB erry
ĠB ieber
Ġpa ws
Ġcl unk
ĠE very
ond a
Ġen em
Ġen rich
Ġle x
ĠF it
Ġke n
Ġun lock
Ġun known
Ġph eas
Ġcar ve
ĠG ear
ĠG ray
ĠD eal
ĠD ave
Ġlea p
lo ma
lo gy
ĠL ong
Ġwr ink
ci um
ĠCh ester
ĠCh allenge
all ed
Ġbad gers
Ġmin im
Ġte e
Ġel ite
co ver
Ġnew er
Ġbl at
ord eaux
Ġla und
Ġdri p
Ġrun way
Ġem er
og an
ĠEng ine
Ġfin als
Ġres ign
Ġrec ession
Ġimp lement
up id
Ġdec ay
Ġgen re
ens ing
Ġstra in
Ġdes ks
Ġlight weight
ĠTh eatre
iv ea
iv als
Ġbelie ving
Ġrep lies
Ġsing ers
Ġsign post
Ġhold ers
als amic
Ġpol ished
Ġhea ter
Ġpop corn
ud ing
ud ic
Ġinc ub
Ġquestion ed
Ġflat mate
Ġreg ulations
Ġblue berry
Ġclo ves
Ġfill ings
Ġbank rupt
Ġspecial ised
Ġforget s
Ġpract ices
Ġfire work
Ġwall et
Ġforward ed
some where
Ġwo mb
bb les
six teen
ĠSc ar
Ġfast est
Ġkno ts
Ġflow ing
ĠTuesday s
Ġphotograph ic
Ġletter box
Ġtemp late
az zy
iling ual
Ġdisg usted
reme nd
Ġvisit or
Ġremind er
ring ton
sure ly
Ġadv ised
Ġris ks
ime tre
Ġgirlfriend s
Ġthick ness
Ġbathroom s
Ġri ots
Ġcustom s
Ġcorrect ed
Ġsuccess fully
au der
Ġwindows ill
Ġglo ve
Ġobs erving
Ġfoc using
Ġsearch es
Ġserv ants
ĠCamb od
Ġprison ers
Ġsno r
Ġtransl ating
Ġprop osed
Ġskill ed
Ġfunn ier
su it
Ġpump kins
Ġcre ole
Ġpoison ous
Ġrefer ring
Ġachie ved
Ġweak er
Ġaltern ate
ĠTe letubbies
Ġrema in
Ġgy psies
Ġreh ear
Ġgentle men
Ġinvestig ating
Ġstream ing
Ġsatis fied
Ġcalcul ator
Ġbungal ows
oul ouse
ĠVietnam ese
Ġdram atically
Ġank les
Ġpale tte
Ġcritic ism
ĠDi aries
stru cture
ĠFar m
ĠWin ter
Ġoy ster
Ġsof ter
Ġhal ves
Ġowners hip
Ġsubmit ted
Ġeditor ial
Ġbelief s
Ġcandid ate
Ġadmitted ly
ĠCra ig
Ġpup ils
Ġadvis er
Ġchor us
find ers
ĠHist ory
Ġperce ive
Ġinfra structure
Ġthigh s
Ġtroub les
tom orrow
Ġoptim istic
Ġspont aneous
Ġhym ns
Ġpid gins
Ġhind sight
Ġswir ly
Ġlegis lation
quar ters
Ġacou stic
Ġquir ky
Ġhandbra ke
ĠForm ula
upuyt ren
ĠpÃ¢t Ã©
ĠChery l
zar ote
Ġenem ies
Ġpheas ants
Ġlaund ry
d ist
d amn
e ge
t ook
v ial
Ġt remend
Ġw uss
Ġi m
Ġs ieve
Ġl udic
Ġto ad
Ġha ck
es li
Ġdo od
le vel
Ġst atic
Ġan cest
Ġse m
Ġwor ms
Ġmu esli
Ġwho m
ma sh
ma ster
Ġwhere by
Ġfa iling
ĠA unt
ĠA ston
Ġkind ly
ard o
ĠM aur
ĠT ud
ĠT ake
Ġde h
ĠB ed
Ġpo ked
Ġover fl
ĠE du
ĠP eak
ĠP ier
ĠW ould
ĠCh uck
ĠH and
ĠH omer
li p
ĠR um
Ġbuy er
Ġla ce
Ġbla med
Ġdef eat
Ġsk ull
Ġgr at
Ġdes ire
Ġdes irable
Ġhang s
Ġpick le
Ġlearn ers
Ġins ur
Ġpost ure
Ġsuper h
Ġsun set
Ġsun flower
ĠIt unes
Ġna ff
Ġshut ting
Ġref urb
Ġinf l
ĠTw ilight
ĠBar low
Ġappro ve
ĠMa ss
Ġtrust ed
Ġgig gling
Ġsli pp
ĠSo ciety
Ġstock ings
Ġscra ped
Ġhoo vered
ĠKor eans
Ġrespect ed
Ġbomb ing
Ġupd ating
Ġtick le
Ġpy jama
Ġcucu mbers
ĠQu orn
Ġcontribut ed
Ġpray ing
Ġmechan ics
Ġapolog ising
Ġdisab ility
writ ten
Ġjud ged
Ġpencil s
Ġdomin o
Ġredund ancy
ĠInt er
Ġtempor arily
Ġcomfort ably
Ġreferen cing
Ġcam oufla
ĠConserv atives
ĠRa ven
Ġinsul in
Ġcircu its
Ġtransp lant
Ġela bor
Ġaqu a
Ġinterpre ter
Ġmuck y
ĠPP I
Ġloll ip
Ġlat te
Ġsustain able
Ġpunct uation
ĠArgent ina
Ġdeca des
ĠCarl isle
Ġpsychiat rist
depend s
ĠMethod ist
ĠSus sex
Ġdyslex ic
ĠAth ens
Ġmilksh ake
Ġligh th
Ġfem ales
Ġmala ria
O L
b ea
Ġo t
Ġg uttering
Ġp s
Ġli k
Ġwa i
Ġwh when
id o
is c
Ġj igsaw
Ġcan als
Ġab usive
Ġpe ers
Ġca fe
Ġsp ar
ĠS ean
ĠC ards
ĠA po
ĠB P
ĠB re
Ġman ages
ĠP op
ĠP VA
ĠG la
ĠW ow
ĠL ine
ĠH amp
Ġmin er
Ġpu zzle
Ġdis se
Ġhor ser
ĠV el
Ġsea gu
pens ion
Ġflo at
Ġbother s
Ġfore hand
Ġcult urally
Ġprocess ing
Ġcock ro
ĠNorth umberland
ĠBut lins
Ġstor ing
Ġden im
ĠLan zarote
Ġradi ation
Ġunbeliev ably
ĠGreen wich
hu ndred
Ġconscious ness
Ġwhack ing
Ġfart ing
keep ing
Ġdiale cts
Ġpheno me
ninet y
ĠBudd hist
Ġhaunt ed
Ġelim inated
ĠHeb rew
ĠStock holm
Eng lish
ĠSoph ie
ĠLut on
ĠKronen bourg
ĠSab bath
Ġspook y
ĠGull iver
H ow
c liff
n um
Ġa wards
Ġs some
ĠI E
Ġb alsamic
Ġg ad
it ate
la ng
se ts
Ġco la
Ġn un
Ġma ckerel
Ġca d
Ġca she
ĠT in
ĠF u
ĠF air
Ġpl en
ĠH S
Ġcour gettes
Ġfl icking
gg les
ĠK a
ens ion
Ġlight ly
ĠTh or
Ġcoll oqu
ĠSp ar
ĠSp orts
ach i
Ġsweet ie
Ġdist in
Ġbru v
Ġste pping
Ġwhis key
Ġobs essive
Ġcrow s
Ġtarget ed
keep er
Ġflap jack
Ġincident ally
Ġrefere nd
Ġappet ite
ĠRog er
ĠNest lÃ©
5 1
C T
R I
b ite
b rid
c chi
f Ã©
h ma
h ot
n ia
n ets
o ke
o thy
t elling
Ġth ro
Ġw olves
in ian
Ġh es
Ġh ic
Ġb orders
at i
at ra
at ics
nd ers
Ġl inger
Ġg her
on cÃ©
Ġf aint
Ġto kens
Ġp ine
Ġha cking
Ġin box
an uary
Ġbe dding
Ġr ails
Ġr att
Ġdo se
Ġhe li
ro s
Ġst im
Ġst ig
Ġst ake
out side
ink ill
Ġcan vas
Ġor al
od dy
op ed
op ard
Ġab sol
Ġre no
Ġba pt
Ġba ggy
Ġup bringing
Ġmo nolo
ca ine
Ġout let
Ġout put
Ġout going
Ġal s
ff ord
ind erella
Ġpe g
Ġca ves
Ġta bs
ur u
ur ised
ad ing
ad ish
ine m
ma ker
ĠS ony
ĠC s
Ġfa ced
Ġbo re
os ure
ĠM ourinho
end o
Ġde cade
Ġpre st
Ġpre fect
Ġhu gging
ĠF estival
ĠP s
ĠP rest
ĠG ael
ĠW W
ĠW ally
ci pl
Ġfun nel
ĠH N
ĠH ook
he ld
Ġapp lies
dd les
Ġche mo
Ġgra zie
Ġsc out
Ġsc uba
ĠR ey
ĠR oom
ĠR eading
pen ed
Ġreal ises
Ġhand les
Ġfin es
Ġsl edge
Ġaw w
Ġcont ained
Ġbea m
Ġwater y
Ġrest ore
Ġrep aired
Ġmusic als
Ġcold s
Ġda wn
cept ions
Ġbi king
Ġquestion na
Ġsqu ished
ef initely
Ġdeal er
Ġfit ter
io let
Ġsell er
Ġra cial
Ġprogra ms
Ġkn uck
Ġbegin ner
Ġspr int
Ġsci ences
eight s
eight een
Ġfell as
Ġcy ber
Ġsand als
Ġsil hou
Ġconnect ing
Ġnet ting
Ġmob ility
Ġpret ent
Ġski pped
Ġbru shing
Ġri pe
Ġdan cers
Ġang les
Ġpath s
ĠSo cial
Ġtour ism
Ġhy gien
Ġinstru ments
ĠWar wick
Ġigno rance
Ġrock y
ata lan
Ġneck lace
idd ly
Ġrespect able
Ġmeaning less
Ġfir ing
Ġinvent ion
Ġbomb ed
Ġsteak s
Ġenc ount
Ġhost ess
Ġant is
sit ting
chie f
Ġphilosoph ical
Ġrat io
Ġtranscri pt
Ġstor ms
Ġcrowd ed
hold ers
Ġpor ch
Ġgall on
ston bury
Ġdip loma
Ġshad es
Ġsquee zed
Ġmeas ures
Ġbeep ing
Ġrequest s
Ġcalcul ated
emp loy
ĠFor ce
Ġenter pr
Ġquant ities
Ġlawy ers
Ġprem ise
Ġcomed ians
Ġkilome tre
Ġhood ie
ĠBoy s
Ġoccup ied
Ġintegr ate
Ġspan ner
Ġsniff ing
ĠCC TV
Ġpodcast s
Ġbol t
Ġstrateg ic
Ġstrateg ies
Ġattach ment
Ġmathem atic
ĠMaster chef
ĠHob bit
Ġparad ise
Ġturb ines
ĠMand arin
Ġnumer ous
Ġintrigu ed
ĠMi lan
Ġerad icate
ĠDer by
Ġexcite ment
Ġsamos a
ĠCow ell
ĠSwans ea
Ġstron gest
cad illy
Ġtreasur er
ĠCambod ia
ĠGael ic
S aturday
a ks
d rop
m ay
m one
p ick
p res
Ġt ide
Ġb ilingual
Ġso lo
Ġha ul
Ġbe gan
Ġbe gging
me ts
Ġk ung
Ġsh ing
le ft
Ġn atter
Ġdon ation
Ġst un
Ġall eg
Ġas bestos
Ġup right
Ġup wards
Ġlo b
Ġmo sa
Ġpro ving
Ġex e
Ġex otic
ĠC ong
ĠC andy
os ity
ĠM is
ĠT oulouse
ĠB urton
ĠB ordeaux
Ġar bit
ĠP I
Ġlea ks
lo th
ĠL ast
Ġapp arent
ĠJ ac
co at
Ġbook sh
as ion
icke ts
Ġgr in
Ġplan k
Ġmet abol
ĠV IP
Ġinst al
Ġcor rel
Ġbar bar
Ġmiss us
Ġcol one
ĠSp ace
Ġcons um
Ġsy no
Ġcur d
Ġvis ually
Ġsca ll
res pect
Ġcr Ã¨me
ĠAnd erson
Ġresearch ed
Ġstation ery
Ġsta sh
Ġpower ed
Ġfresh ly
Ġdirect ed
ĠSh rek
ĠIn c
Ġsuggest ions
ighbour s
Ġsoci ology
Ġsafe ly
Ġaunt y
Ġhy brid
Ġindust ries
ĠOr well
Ġcho king
Ġbump er
Ġdread ing
ĠIsrael i
Ġstab bing
Ġnap kin
Ġrespond ing
ĠMal ta
ĠPen ny
ĠHeath cliff
Ġstereoty pical
Ġast hma
Ġconsequ ence
Ġnugg ets
Ġhaz el
Ġtransact ions
Ġkebab s
Ġsting y
Ġelectro cut
Ġstal ker
Ġcann ibal
Ġappli ances
Ġcerv ical
Ġstarling s
Ġpromo ting
Ġsqua shed
Ġcaffe ine
ĠGla stonbury
b elt
h oles
p ha
no ck
Ġp ff
Ġp ul
Ġli mes
Ġwh why
Ġwh acked
Ġha h
Ġha em
Ġdo ss
Ġk icks
ink s
Ġre ver
Ġsu e
Ġtw ig
Ġbit ing
ĠB al
ĠB our
ĠB ac
om es
ĠF le
ĠG l
ĠG ar
us k
ĠJ un
ĠR ow
Ġhi er
ĠO tt
Ġwater ed
Ġsk ates
Ġtext books
ĠMonday s
Ġdead lines
Ġsimilar ly
em ia
ĠSc rew
cuss ion
Ġstat ues
Ġairport s
Ġyo you
Ġinvent ory
ĠWe et
ĠCar ry
Ġqueen s
ĠPer th
Ġgrill ed
Ġexcl usive
sevent een
Ġexagger ating
Ġdetect ive
ĠPic cadilly
ĠGold en
ĠPix ie
hel p
ĠDow nton
Ġwithdra w
ĠMiddles brough
honest ly
Ġhorser adish
J esus
b lock
f al
l ive
Ġw was
Ġf lock
is ons
Ġsh er
ro c
ch el
Ġal umin
Ġsp ade
ĠS n
Ġprob s
ĠA tt
ant astic
ĠF arsi
ĠP res
ĠG ib
ĠG iuseppe
ĠL inc
ĠJ ager
Ġlive ly
for ms
Ġalong side
pr ints
Ġimport ance
Ġspr inkle
Ġequ ality
Ġcond ens
Ġhall uc
Ġwoo hoo
eab ility
Ġheaven s
Ġbubb ling
Ġcran berry
Ġspl at
Ġdelight ful
ĠStan sted
lea ve
ĠStrat ford
Ġdistin ction
Ġreferend um
c ook
d ia
g ri
g eable
l ical
n ier
p in
s ized
t one
u itive
v ie
w onder
w alk
z one
Ġi is
Ġthe med
in stein
at ou
Ġd ut
Ġd ouch
Ġd icks
Ġm oose
Ġm ickey
re b
ll o
Ġl ur
Ġc one
no ld
Ġg eared
Ġf rit
gh ai
Ġp ouch
Ġno b
or c
or ters
me lon
Ġwas p
Ġk in
se nd
Ġco aster
ar ians
Ġn ar
Ġn uns
Ġst unk
ch u
ct ing
ow ie
od ing
ri l
ri ent
Ġch arts
ce utical
Ġlo a
ther lands
Ġma kers
ry lic
Ġpe gs
Ġta pping
ol n
ol it
Ġsp as
Ġdi pping
ĠC airo
Ġint rin
Ġbo ils
ĠM ap
ĠM ec
ĠT est
Ġar mp
Ġv anish
ĠE vil
ĠF la
ĠP y
Ġcar ving
ĠG er
ĠD L
ĠW ool
ĠW itness
ne ither
ĠL ille
Ġjo g
are lla
Ġob ese
Ġplay group
Ġgod s
ĠH I
ĠH op
ĠH eights
li ament
Ġgra vey
Ġper fection
ĠR ug
Ġhear s
Ġeight s
Ġla ss
Ġla cking
as is
Ġdis order
Ġhi ke
Ġreal ising
ha ji
og y
og ue
Ġfin ances
ĠY ak
ph ysic
Ġres idents
ĠK az
Ġser ves
Ġsw oo
Ġstud ios
Ġchar ades
Ġset up
ap land
Ġtr usting
ac us
Ġfact ual
ens ity
Ġpass age
Ġdes erves
Ġrep lic
Ġpres umed
Ġbar rist
wer p
Ġlad ders
Ġshort age
Ġfla mes
Ġair craft
Ġmod est
Ġslight est
Ġclean s
Ġwood work
bu y
Ġthird s
Ġtast ing
Ġtend ency
Ġpur se
par agus
Ġkno cks
Ġpolice men
Ġplant ing
Ġval ves
Ġtemp le
pro per
Ġce me
ĠSh an
Ġbless ed
Ġsoci able
Ġrelax ation
Ġdream ing
ĠAl ps
see ms
zz ling
Ġstore y
Ġdeb ating
Ġpension ers
ĠPh antom
Ġham sters
Ġver a
Ġpublish ers
Ġur g
Ġtro pical
Ġcomment ary
ĠiP ad
Ġrecommend ation
Ġemploy ee
Ġcompar able
Ġaim s
ĠArab ia
Ġamb itious
Ġingred ient
Ġdiction aries
ĠOx fam
Ġtranscri bed
ĠMP s
Ġimagin ary
ĠBa ker
Ġthreat ened
Ġboun cer
ĠIceland ic
Ġmattress es
ĠTe mp
Ġconsult ation
Ġconstru cted
ĠEgypt ian
Ġpier ced
Ġconserv ation
ĠHor ace
Ġrequest ed
Ġeyeb row
Ġapprent ice
Ġdistur bed
Ġcertific ates
Ġexplore d
Ġsurvey or
Ġdemonst ration
Ġpepp ery
Ġtack le
Ġinspect or
Ġrestrict ed
Ġfemin ine
pad visor
Ġshag ging
ĠHard y
Ġassign ment
Ġadminist ration
Ġdelight ed
ĠPath finders
Ġcoordin ator
oca ly
Ġsympath etic
Ġsan ct
Ġconsist ent
Ġrepeated ly
Ġpharma cy
Ġpharma ceutical
cet ta
Ġtoen ail
Ġhoriz ont
ĠVien na
ĠBlu etooth
Ġcompon ent
Ġdimens ions
Ġobst acle
Ġconj unction
Ġprosec uted
Ġcens us
Ġbree ze
ĠFut ure
Ġdescript ive
Ġrescu ed
Ġmous se
Ġextravag ant
ĠCour t
Ġscept ical
ĠDN A
Ġambass ador
ĠPeters burg
Ġmering ue
P al
U m
f le
g or
t oday
y ummy
ĠI m
at ible
Ġm ow
Ġso ya
Ġha ha
Ġr ag
Ġdo nor
Ġe igh
ro ads
Ġst ables
Ġst alk
Ġst acked
Ġnot icing
Ġre ct
Ġre venge
Ġba ses
Ġch ro
Ġch ubby
Ġpro s
Ġsee k
ma kes
ĠS at
ĠS ex
ĠC alm
Ġint ric
ĠB ab
Ġpa s
Ġpa inkill
Ġv and
Ġwat ers
ĠP R
Ġun att
ĠD ream
ĠL apland
Ġpart ially
Ġtea pot
Ġpl atter
Ġac rylic
Ġgra mps
Ġdri bble
Ġhi ppies
Ġleft over
Ġweird os
Ġaw fully
Ġrep airs
Ġtri mmed
Ġacc used
Ġpar ody
Ġsy nt
Ġton es
Ġsuper fic
ĠTV s
Ġsal ted
cri pt
Ġdead ly
Ġfloor boards
ĠCo x
Ġspr ink
Ġoc ean
ĠZ o
Ġeduc ate
Ġdru mming
Ġsta le
Ġpink y
Ġprin ters
Ġseason al
Ġprov ider
Ġmist y
Ġbright er
Ġri ot
Ġstore d
Ġgl orious
Ġpin ched
Ġcomb o
Ġpurpose ly
Ġtor n
Ġintrodu cing
Ġtid al
Ġtid ied
Ġcommunic ations
Ġdisp lays
Ġdent al
ĠMon et
Ġtub s
ĠNe ighbours
ĠNe therlands
Ġassist ance
Ġgrea sy
think ing
Ġbelong ing
Ġupgra ded
Ġadapt ed
Ġinsp iring
Ġoblig ation
Ġdy nam
Ġpersu aded
ĠKe lly
Ġincor por
Ġsympath y
Ġnin ja
Ġproofread ing
Ġexplos ion
Ġlee ks
ĠClark son
Ġmozz arella
ĠLag os
Ġbron ze
Ġarticho kes
ĠSlim ming
Ġacup un
Ġelabor ate
C an
f ra
p ur
p age
v ian
Ġ vel
ou ple
ea ning
Ġb haji
Ġc res
Ġp oot
th al
Ġco h
Ġst reams
al most
Ġsa c
Ġre un
ri fied
Ġba ggage
mm on
Ġmean while
Ġca ct
mb ur
Ġsp erm
Ġdi ps
ĠC itiz
ĠA lf
ĠM oney
ĠT our
ĠT ib
Ġpre y
ĠE asy
ĠE instein
ĠF r
ĠP ors
Ġcar very
ĠG ove
us ually
ĠL es
Ġsupp lied
Ġmin imal
read ing
Ġear liest
Ġhel mets
Ġwhe when
Ġinter ior
ste m
Ġblack berry
eas y
oun cing
ĠInd epend
Ġcru shed
Ġcal or
Ġemb race
Ġfresh er
Ġelectric s
ĠBar rett
Ġcro ps
Ġpea cock
Ġjam med
Ġsno g
ĠEurop eans
Ġchew y
Ġrequire ment
Ġexhib itions
Ġdisappoint ment
Ġradi ators
Ġreh ab
ĠAnt werp
Ġspit ting
ĠKat y
Ġcorrupt ion
ĠPal mer
ĠMat ilda
ĠJer sey
Ġwag ons
Ġtul ips
Ġnurt ure
ĠScrew fix
A meric
e or
m il
re ne
Ġg room
st orm
ent er
ri g
ra ge
Ġch ord
Ġmu ddled
rea te
ol ver
Ġde leting
ie ved
Ġen closed
Ġle opard
ort ed
Ġcomp lement
ĠD oug
ne ck
we e
Ġtra ctor
ĠH P
Ġpu ppies
ĠJ ean
Ġam er
lar ge
vers ion
ub s
ĠY ellow
Ġair lines
Ġpan cetta
Ġpost card
Ġmill imetres
cri key
ex per
bu ll
Ġmatch ed
Ġge ology
Ġimm ense
your s
Ġblan c
fl owers
Ġpepper oni
ĠSy l
ĠPr ide
tra ck
ĠRight move
Ġpredict ive
Ġmosquit oes
bell s
ĠKe ep
Ġsav age
Ġplumb ing
ĠNar uto
ĠChew bacca
complete ly
F A
a is
b irth
c ation
c ratic
f ed
g reen
h art
l is
n est
p u
y ard
Ã ¼
Ġ 7
in ness
ĠI st
ĠI MA
Ġc urs
Ġc unning
Ġg it
Ġg uts
Ġf ears
Ġli like
Ġha ired
es ity
or ph
la is
la my
ut ches
Ġr age
Ġdo able
Ġdo lls
th ony
Ġsh or
Ġj azzy
et land
Ġnot ices
ch ocolate
Ġcan teen
ir ates
al o
Ġab und
Ġout sk
im o
ter bury
pp ets
Ġqu eries
Ġpro ven
ur dy
Ġsp uds
ĠS D
ĠS in
ĠS cience
ast a
ĠC inderella
Ġfa x
Ġoff end
ong rass
Ġday light
Ġag rees
ĠM ike
ĠT ier
ĠB road
ĠB ik
Ġar gh
Ġv ault
Ġcl ums
Ġhu mming
Ġmay maybe
Ġen force
Ġho llow
Ġke e
Ġun icorn
Ġcar ved
ĠG ru
ĠG oose
ĠG irls
ĠD oo
ĠW uth
ĠL en
Ġjo kers
ĠCh ile
ĠH art
ĠH ead
ĠH ull
ĠN at
Ġte ens
Ġel it
fe el
am i
Ġones ie
ress ants
Ġperson a
Ġdri es
Ġdis cipl
Ġbr unch
Ġroo ft
Ġdef er
Ġpr one
Ġpr iced
Ġhand stand
ner y
Ġsl ug
Ġbro ch
Ġchild ish
Ġrec on
Ġrec reat
Ġbed roomed
Ġinter fer
Ġgr ater
Ġfree zes
Ġchar tered
Ġhop ed
Ġlist ens
uck land
Ġcat ering
Ġdec rease
she ets
Ġju ices
iz o
Ġliter al
Ġmil ky
ĠV ampire
Ġdra ining
Ġbar riers
Ġpot ent
Ġsign als
Ġpain ter
Ġdrive way
Ġposs essed
Ġclose ly
Ġins ides
Ġair line
Ġannoying ly
Ġra ven
Ġextra s
Ġblo gs
Ġmill ig
Ġz est
Ġmed als
Ġdist ances
Ġev apor
Ġshut s
Ġpresent ations
Ġwish ed
em es
Ġafterno ons
Ġiss ued
Ġfeed s
Ġvill ain
Ġval ued
Ġhuman ities
Ġcharacter istics
cl oud
Ġground ed
Ġson net
Ġarri ves
friend ly
Ġstri pper
Ġremind ing
ĠHar ib
Ġswitch es
Ġrecogn ition
sters hire
Ġpool s
ĠMo z
Ġbru shes
Ġmis con
Ġcoast guard
Ġstore ys
Ġsli ps
Ġgl owing
Ġstress ing
Ġinstru ction
Ġprom ising
Ġhar vest
Ġnightma res
Ġbump s
Ġtap as
Ġfold s
Ġcig ar
ened ict
Ġpitch es
Ġtrea cle
Ġencoura ges
Ġspir al
bon ate
Ġpeel ed
Ġbend s
Ġrap ing
Ġbudget s
ĠCon st
ĠSm art
ĠBru ce
ari ably
iam i
ĠJo bs
Ġprior ities
Ġpara ly
Ġconserv ative
ĠDan cing
Ġregard ing
ĠPre judice
Ġcas se
ov un
ĠPri me
ĠEm inem
Ġrum ours
Ġvib rate
Ġtact ic
Ġacadem ies
ĠMil k
Ġsequ el
Ġwitness es
Ġreveal ing
Ġhandbag s
Ġrear rang
ĠDy ke
Ġstruct ural
Ġwid ow
Ġlegit imate
Ġabsor bed
uman ji
ĠFact ory
Ġsubscri ption
Ġwed ges
Ġcrem ated
ĠSav ile
Ġagricult ural
Ġrod s
Ġloll ies
Ġsus pension
ĠFore man
Ġsucceed ed
Ġrede cor
ĠNa vy
ĠTor onto
yr inth
Ġcitizen ship
ĠBan she
Ġrevers ed
ĠPax os
Ġblu ep
Ġalar ms
Ġglu ed
Ġobsc ure
Ġrestru cture
ĠChihuah ua
ĠPil ates
Ġbarra cks
Ġgno cchi
Ġjew els
Ġreluct ant
Ġbloss om
Ġacquis ition
ĠSuff olk
ucc ino
pill ar
Ġdeodor ant
Ġblat antly
Ġphenome non
Ġhic cups
Ġpretent ious
Ġelectrocut ed
Ġdut ies
lamy dia
Ġoutsk irts
ĠWuth ering
M onday
b ucks
h il
r ats
t ri
Ġi mit
Ġs es
Ġh ing
Ġf ist
Ġto x
Ġp iled
Ġha gg
Ġha cked
Ġha lal
Ġin in
Ġsh an
Ġn ic
Ġst urdy
Ġan throp
Ġas set
Ġtw it
Ġsee ming
Ġsp ine
ĠS P
ĠS ik
ĠS omer
Ġdi agram
Ġbu ddy
ĠA I
ĠA ss
Ġcon ver
ĠB A
ĠB ody
Ġv ic
Ġv ital
Ġover looking
ĠE E
Ġle ver
ĠF ri
ĠF rom
ĠF ocus
per fect
ĠP ick
ĠG aga
ĠW olver
Ġhouse mates
ĠH an
ĠN ord
ĠJ oy
Ġbl iss
Ġschool ing
ĠR icky
Ġfuck s
Ġfl irt
Ġmar ijuana
Ġleft overs
Ġear ns
Ġsl ugs
Ġad ap
Ġcra mmed
Ġimp lied
Ġimp atient
Ġsmall ish
Ġtri pped
Ġind efinitely
Ġda unting
Ġgener ator
Ġpar ach
Ġwash es
Ġfla pping
Ġrub by
Ġblo ated
Ġemp ath
Ġleg acy
Ġanswer phone
Ġsm u
Ġaccount ing
Ġwish ing
Ġcy l
Ġref resh
sc rew
Ġflu shes
Ġdevelop er
Ġreco vering
ĠTw ister
Ġmad am
Ġsla m
Ġsla bs
Ġdirect ing
ĠSh etland
Ġcommon ly
ĠHar ris
Ġspeed s
Ġpat ri
Ġbull ets
Ġrich er
Ġsurv iving
Ġsearch ed
ĠGu inness
Ġboss es
Ġpea ch
Ġsn ug
Ġserv ant
Ġsink ing
ĠWest minster
Ġtrea s
Ġni pple
Ġrat tle
Ġmel ting
Ġharm less
ĠJo el
Ġcas ually
Ġrepresent ative
ĠDar win
ĠMart ian
Ġindo or
Ġcliff s
Ġcritic ising
Ġdigest ive
ĠWall iams
ĠIran ian
Ġpal ate
Ġuna ble
Ġbing e
Ġchlor ine
Ġlem ongrass
fin ished
ĠTed dy
Ġwhisper ing
ĠHaw ai
Ġbrow ser
ĠLinked In
Ġfung us
Ġprincip les
Ġrechar ge
Ġintimid ating
ĠUzbek istan
Ġgal van
ĠHT C
ĠNig eria
Ġcher ries
Ġludic rous
Ġcolone l
Ġconsum er
ĠShan ghai
Ġsuperfic ial
Ġacupun cture
A P
I S
b ad
d oo
g iving
j oy
k ill
l eading
p it
Ġh unch
Ġd am
Ġd ah
re c
no my
on ing
Ġto fu
ke mon
Ġwh ales
an te
Ġdo ggy
Ġco caine
Ġas paragus
Ġba m
Ġch ores
Ġmo ss
ca ll
art ney
Ġsp oof
ĠS T
ĠS el
ĠC P
ĠC all
ĠA uckland
ĠM iami
Ġcon qu
ĠB ath
Ġv ivid
ĠE D
ĠE ight
Ġen able
Ġle gging
ĠF a
Ġph obia
ĠH ad
ĠH uh
Ġbl ink
Ġwhe e
Ġeas ing
Ġinter im
rit ical
Ġext ro
Ġrep oss
Ġinv ariably
Ġpop py
Ġpop pad
Ġve ggies
Ġbi o
Ġprodu cers
Ġsm ug
Ġtech no
Ġev ac
Ġill usion
ĠFran ken
po ints
Ġfant ast
Ġbutter nut
Ġsla nt
ĠPo kemon
ĠCan nes
Ġbun nies
Ġobject ives
Ġbri e
wor ld
car ry
ĠBen id
Ġphilosoph er
Ġcrowd s
ĠGra ham
cra zy
Ġhistor ically
Ġprincess es
ĠDisney land
Ġpee k
Ġsemin ars
ĠTri padvisor
Ġexec utive
Ġchav s
ĠLou ise
ĠJa cob
ĠKy lo
ĠMcC artney
Ġsevere ly
Ġslop py
Ġtel esc
Ġslaugh ter
ĠScandinav ia
Ġcarbohyd rate
Ġsew age
Ġze bra
Ġbicar bonate
ĠFo ster
Ġalumin ium
M S
S ax
b ot
b ru
d ear
h igh
i pp
p ark
u age
w eren
Ġo k
ĠI ron
ĠI zz
th a
Ġsh ab
se en
Ġe go
Ġhe mp
Ġst ero
nt ing
ra ma
qu is
Ġout look
ff ect
na ils
tt les
Ġti le
ĠS ound
ĠB og
Ġman ly
ĠP ret
us ch
Ġob esity
row ing
Ġnew ly
ran s
ĠR os
ta ken
ian a
ĠO oh
Ġhand ing
ular ly
ĠSu gar
Ġfish erman
Ġnews letter
ĠAl ban
Ġgl ory
ĠPort land
Ġaer obic
dad dy
Ġleaf lets
Ġdough nuts
Ġja la
ĠFl ick
ĠPet e
ĠSuper d
ĠSuper man
CA S
Ġsatisfact ory
Ġtermin ology
ĠUg anda
Ġcolloqu ial
ĠLinc oln
E A
N or
R A
T ack
b i
d ouble
e ur
f ere
f old
g iers
h ana
h agen
l iness
n ifer
o ked
u j
u an
v ard
y ne
z njan
³ n
Ġ vert
Ġth ie
Ġth ief
Ġa ching
Ġs ill
er a
ea ted
Ġb ales
Ġb erry
Ġb idd
Ġb ids
at ian
Ġd did
Ġd orm
Ġl od
Ġc ulp
Ġto ken
Ġp ou
st ud
en ne
Ġno ses
it os
it ably
it as
it udes
or ig
an cies
Ġr im
Ġsh ifting
ic ill
Ġe ll
Ġhe ctic
ld a
ld ing
Ġco ffe
now ned
ar m
ly mouth
Ġn ouns
Ġse wn
Ġall e
Ġsa p
Ġsa ddle
Ġab used
Ġne ur
Ġre bel
Ġme nd
Ġch il
Ġch ore
Ġch ak
ill es
ill itis
ca pes
Ġout line
Ġal tered
Ġmea ts
im illion
na mes
Ġma ison
ry s
Ġca jÃ
ur st
il ian
Ġex a
Ġex ting
Ġus ers
ab ix
Ġact ed
ĠS ic
ĠS au
Ġdi f
ĠC liff
ich Ã©
Ġfa ils
sh asa
ul ates
Ġint ending
ĠA V
ĠM itch
ĠM ys
ĠM RI
ĠT ang
Ġcon vey
ĠB uck
Ġwork place
Ġar med
Ġpa la
Ġv ocal
Ġover weight
Ġcl it
Ġcl ichÃ©
Ġfu ming
ĠF all
ĠP lymouth
Ġun load
Ġun employ
de en
ĠG az
ĠG hana
ĠD irect
ĠW ight
Ġlea nt
ĠL ive
ĠL as
Ġsix es
ang a
ĠCh icken
Ġtra ctors
ĠH onda
Ġac ute
ĠJ up
ĠJ agger
Ġsch emes
Ġbl ouse
Ġbl uff
Ġfine ly
fe eding
Ġsc ans
Ġsc reams
ĠR ose
Ġam used
Ġfl icks
Ġplace ments
Ġdef ensive
Ġsl id
ren s
Ġser geant
Ġshit load
Ġsw ans
do key
Ġrec ru
Ġfil ters
Ġcra shes
Ġhot sp
Ġopen ly
Ġinter fere
Ġsk ank
Ġsk ins
Ġgr inder
Ġfree ly
Ġchar ter
ese ed
ap se
ons ider
Ġproblem atic
Ġfound ations
iz zing
ĠU CAS
Ġreason ing
Ġplan ner
Ġrecord ers
atur ated
Ġpres ence
Ġpres erv
Ġbar king
Ġbar man
Ġbar gains
Ġfo e
Ġpick les
icult ural
Ġcoll apse
ĠSp art
Ġstr ay
ber y
ric ts
Ġspo tting
Ġcons umption
Ġart work
Ġvis ibility
Ġcr utches
olog ists
Ġna ppies
Ġbank er
Ġsub sequ
Ġgar ages
ĠCo co
ex p
ob by
Ġsimilar ities
Ġnews ag
Ġprof its
Ġsnow ed
Ġequ ate
Ġtu esday
ĠEuro star
Ġcla w
Ġshower ed
Ġspec ify
Ġreco vered
ĠDe ep
Ġsocial ist
Ġfight er
Ġsla mmed
Ġconst it
Ġprocess or
ero le
Ġdescri bes
Ġble ed
Ġtoast y
Ġappro val
Ġmotor ways
Ġmob iles
Ġaunt ies
Ġlog istics
Ġport rait
Ġmis ery
Ġmis car
ĠPar mesan
Ġmort ified
Ġaccident ly
Ġcaf es
Ġiron y
Ġiron ed
Ġtour nament
ĠCan ary
Ġavo ided
Ġtight en
Ġwild er
Ġlower ed
Ġrail ing
Ġver bal
Ġcelebr ations
Ġappoint ed
Ġentertain ed
Ġcommunic ating
Ġaccommod ate
Ġdent ists
Ġnut ter
Ġplu gs
Ġnest ing
Ġprop ose
Ġped dling
ĠCor fu
ĠWill iams
Ġeng aging
Ġprog ression
Ġtransfer able
Ġsuff ered
Ġelement ary
tes ers
Ġtutor ials
ĠQu est
Ġcorn flakes
Ġmurder er
Ġmurder ers
Ġtank s
Ġexten sions
Ġmax im
Ġweigh s
Ġgy na
Ġfunction ing
writ er
Ġunc les
Ġexha usting
Ġbond ed
Ġash t
ĠMag gie
Ġspark ling
Ġsurf ing
Ġjet ty
Ġscru m
rup ting
Ġresist ant
reg ard
Ġtons ils
Ġtons illitis
Ġly n
ĠJen nifer
ĠCla us
Ġdickhead s
Ġlesb ians
Ġgee ky
Ġyach ts
Ġupse ts
ĠBea uty
Ġlou ng
Ġgla zed
ĠOs borne
Ġstruct ures
Ġadminist rator
Ġbol ts
oca mpus
Ġshi pped
Ġshi pping
Ġpup il
ĠColl ege
ĠBarb ie
Ġexcess ive
ĠKit ty
Ġpunt ing
Ġethnic ity
ĠBarc lay
Ġproced ures
Ġalt itude
Ġtheoret ical
ĠPic chu
Ġescal ator
Ġrew rite
Ġgrandda ughter
ĠFood s
ĠGri mm
je eling
Ġoutsour cing
Ġcarol s
ĠGran ada
Ġrevol ting
Ġinconven ience
Ġinconven ient
ĠCE O
ĠBet ty
open hagen
ĠNaz is
Che f
dep th
Ġgerm s
Ġicon ic
Ġmanoeuv re
Ġdisadvant age
Ġglam orous
Ġtrump et
ĠMocking bird
Ġcoord ination
ĠAber deen
okov ic
Ġcass erole
Ġpall iative
Ġmathematic ian
Ġarbit rary
atou ille
ĠTest ament
Ġceme tery
Ġclums y
icill in
ĠMys pace
B ut
l ol
s weet
t ar
t ese
y esterday
Ġt icked
in ent
Ġd ir
Ġd up
Ġit ch
Ġg er
Ġf ract
Ġto pped
Ġp onies
Ġwa hoo
it ted
Ġgo rill
Ġbe ige
Ġj ig
Ġshe lls
Ġre el
Ġre wind
Ġany time
Ġma ll
Ġta d
Ġta i
Ġta ped
Ġtime line
Ġfa ul
ĠA y
ĠB each
ĠB enedict
Ġpo key
Ġman if
ĠF ield
ĠF loy
Ġcomp atible
ĠG ot
ĠD ire
ĠD ee
ĠD over
ĠD upuytren
ĠW ifi
Ġfun ky
ĠCh ocolate
ĠH ear
ĠH as
ĠN iss
Ġmin ib
Ġten ancy
Ġgra cious
Ġunder pants
Ġcour gette
Ġdri lls
Ġdef ic
Ġchild care
Ġsw ore
ac re
ĠU V
Ġhonest y
Ġind ex
ĠSp am
Ġpain ts
Ġclo ver
Ġna an
Ġgar l
Ġslow s
Ġdist ingu
Ġsimilar ity
ĠMar auder
Ġtur f
Ġsmo ky
Ġfeed er
Ġref lex
ĠEuro s
Ġcontract ure
Ġnatural ism
Ġexam ine
Ġalcohol ics
eg al
Ġcond uct
Ġpat ent
Ġlu mpy
ĠMa ld
ĠMa jor
Ġdan ced
Ġfund ed
Ġconte st
Ġpsych opath
Ġseat belt
Ġstock s
Ġstock ing
Ġvo ll
ĠCan terbury
Ġprom oted
Ġaffect ion
Ġpin ned
Ġbon fire
Ġredu cing
Ġglo ss
Ġfest ivals
Ġtro t
ĠiP ads
Ġcourt esy
Ġhed ges
Ġrob ots
rict ly
Ġped als
Ġstamp ed
Ġult rasound
Ġvolunte ered
ĠStar bucks
Ġsuff ra
ĠGra ce
Ġexten s
Ġthreat en
Ġner d
each er
Ġdiscount s
Ġhistor ic
Ġec li
Ġvir al
ĠDar jeeling
Ġcrimin als
Ġrum our
ĠMal tese
Ġsubst ance
Ġpriest s
Ġthumb s
ĠCroat ian
Ġwid th
Ġchlor ide
Ġalmond s
build ing
Ġconsist ency
Ġnegoti ating
Ġindic ator
ĠPand emic
ĠWay ne
Ġguid ance
Ġcanoe ing
Ġscholar ship
ĠWat son
ĠBrid get
Ġoverhead s
Ġcondu ctor
Ġstret ched
Ġpistach ios
Ġantid ep
Ġinfla mm
ĠUk raine
Ġcapp uccino
ĠCors a
bea utiful
Ġmonolo gue
Ġmosa ic
ĠWeet abix
A re
S u
a ffe
b ars
b reed
c ro
f ight
f unny
h h
m uch
r ide
s qu
t ic
u ced
v ious
er oles
ĠI M
ĠI P
nd le
Ġc ay
Ġf eral
Ġp ant
st yle
Ġdo tted
Ġal pha
Ġmea d
Ġback grounds
ĠC umber
Ġfa cet
ĠM ind
Ġcon form
Ġpo ach
Ġcl ogs
Ġhu gs
Ġen er
ĠF an
ĠD ory
ĠD anish
ĠL is
ĠL ock
ĠJ P
Ġgir affe
Ġhead aches
Ġcomm a
ract ive
Ġpres erved
Ġind ul
Ġdin er
Ġcur l
Ġcr iss
ĠWh it
Ġbur ping
Ġconsider ably
ak a
ĠPo int
Ġop ium
Ġbru ised
good ness
Ġlab or
Ġver ge
Ġcarp ark
Ġur ine
Ġcree ps
Ġga mmon
Ġhed ging
ĠMon ty
ĠBra nd
ĠCon nect
Ġll ook
Ġgro o
Ġnetwork s
Ġvac ation
Ġquant itative
ĠPl uto
Ġpaedoph iles
Ġmonitor ing
ĠPhil ip
ĠBarb ados
Ġchor izo
Ġstagger ing
Ġii it
Ġoverc row
ĠArt iculate
Ġnutrit ion
ĠMot ovun
ĠBattle star
ju ice
Ġcres cent
ĠDoug las
ĠBenid orm
B rit
I L
a ly
b orn
j ob
l ooked
n ically
s ea
v ity
Ġb but
st ock
Ġli cking
le st
ar f
ro ll
Ġst odgy
Ġan alogue
Ġba shed
Ġpro min
ep al
so on
Ġar rows
Ġun well
ĠN epal
am ine
ph ne
stand ard
med iate
ĠU r
ee k
Ġfo et
cy cle
cept able
ric king
Ġent ering
gest ion
ĠCa esar
ĠRo lls
Ġmist er
light ly
Ġconcent ration
ĠDa phne
Ġmeas les
ĠPl ato
ĠHome land
Ġthrill er
Ġdism ant
Ġhypoth etically
ĠAny way
Ġsentiment al
R B
S he
T A
T here
c if
d an
d ust
e xt
g i
h ea
i ation
i pped
k ira
n iv
r one
s mouth
t ain
Ġt rill
Ġw icker
Ġi l
ou m
Ġs she
in ery
ea te
Ġh ints
at ile
Ġm esh
Ġit iner
Ġl athe
Ġc ries
no graph
ing ey
Ġg ist
Ġto mb
st upid
en y
Ġli a
Ġso aps
Ġwe ir
Ġha rass
Ġgo ggles
Ġin verted
Ġr ips
Ġr uth
id ge
th est
th eless
is se
Ġsh ore
le ster
Ġj ay
Ġe even
Ġco d
Ġco ping
Ġco her
et le
Ġn ieces
Ġrea cted
ch t
ow ment
al ed
al ine
ear ted
Ġre nowned
ri ved
Ġch ina
Ġmo ths
Ġal ge
ff iti
Ġqu oted
ind eed
ge y
Ġpro st
Ġpro ph
Ġca ut
il ts
il ia
Ġex chang
ab led
Ġwho les
ig ible
oh em
el son
Ġsp ite
Ġsp ilt
Ġsp aced
ĠS ev
ate urs
ĠC ele
Ġoff load
ĠA tten
ĠA von
Ġag ony
ard y
ard ash
ĠT an
ĠT iff
Ġthought ful
Ġcon son
Ġde no
Ġde ce
Ġde leg
ĠB olog
ĠB owie
Ġpo ached
Ġv iny
Ġman ky
ĠE gg
ond s
Ġen h
Ġen rolled
ĠF alk
est on
Ġun ions
Ġun stable
Ġun equ
ĠG ats
ĠG erv
ĠD ep
ĠD ara
ist on
ĠW omen
Ġcou rier
Ġsupp o
ci as
Ġtea se
ath ons
Ġfun ctions
Ġtra uma
ag et
Ġend owment
Ġwon t
ĠN atural
ĠN oddy
Ġpu d
Ġro cking
Ġgra m
Ġgra ffiti
Ġsc reamed
ĠR uper
Ġfuck er
Ġbook let
Ġdis pro
lar ation
Ġbr it
ĠO d
ĠO y
ĠO pen
Ġweird er
Ġreal m
Ġhand maid
ĠY ard
Ġbro th
ip ing
Ġfar thing
Ġad am
ĠK i
ĠK l
ĠK yle
ĠK ris
ĠK ardash
Ġhead light
Ġhead lines
do ck
ĠChristmas es
Ġinter rupting
Ġsk ies
Ġgr ants
up ro
uck oo
ac les
Ġcomm uting
itch en
Ġrid den
Ġdear y
ĠTh ink
Ġrel ieved
Ġmid week
Ġdra mas
Ġdra gs
Ġdra ins
ze ma
Ġfo ster
Ġpot tery
ins ula
ric ed
Ġhea p
Ġcons cience
Ġap ric
Ġbusiness men
ial ity
ĠSt ation
ĠSt rictly
pr ay
Ġenjoy ment
Ġfla n
Ġconf ront
Ġra ke
Ġpull ey
Ġopp on
Ġwarm th
ome ter
Ġsub way
Ġrain bows
Ġforget ful
Ġsm ud
Ġsm iled
Ġdark ness
ob i
Ġfire man
Ġcu red
Ġshut tle
Ġcross words
Ġboard ed
Ġelect ions
Ã© e
bb ly
Ġlady bird
Ġview ed
ĠSc outs
Ġball ot
Ġref using
Ġself ies
Ġcla sh
Ġcle ft
Ġnecess ity
ged y
ged ly
Ġreco llect
ĠDe pp
Ġmouth s
Ġargu ed
Ġrad ar
Ġcal ib
Ġemb ed
oph er
rass ic
ĠSh ine
ĠSh ore
ĠCa ine
ak h
ak i
Ġfra med
Ġcond om
ĠPo lly
Ġconnect s
Ġcirc ulation
Ġfut on
Ġarch es
Ġsuit cases
Ġri pping
Ġbrand ing
sk in
Ġvo ters
Ġcorrect ing
Ġwel coming
Ġchap el
Ġcouncil s
au f
Ġroof s
Ġaddress es
Ġaud itions
Ġcho lester
Ġmeaning ful
Ġprofession ally
Ġremo vals
Ġdrag ons
Ġdisco very
Ġavai lability
Ġga mble
ĠBe ckham
Ġfold ed
ĠPort smouth
Ġsno re
Ġdisp atched
Ġaer ob
Ġpositive ly
Ġtables poon
Ġtow ers
Ġtransl ator
ĠMon key
Ġdiss ol
Ġapplic able
ĠEs me
Ġproof s
Ġirrit ates
ĠBer k
Ġstab ility
Ġgather ed
Ġbuff er
Ġassess ments
Ġweigh ing
ĠVen us
Ġfrequ ent
Ġjud ges
Ġrib bon
Ġhip ster
Ġec zema
Ġja mas
Ġupgra des
Ġoccur ring
ĠCy pri
ĠMal tesers
Ġreleas ing
Ġcritic ise
Ġfool ish
Ġexpand ed
ĠCent re
Ġnephe ws
ĠJul ian
Ġlaunch ed
Ġestablish ment
Ġuna c
Ġburg led
Ġfea ther
Ġundergra d
Ġintegr ated
Ġcommission ing
ĠLin ux
Ġpeop les
Ġrig id
Ġsom esome
Ġcunt s
Ġadopt ion
Ġathlet es
Ġsweep ing
ĠCat alonia
Ġtherm al
Ġpedest rians
Ġsav vy
Ġfaff ing
Ġsimpl er
Ġdict ate
Ġstea med
ota pe
Ġbolog naise
Ġjab s
ĠDick inson
Ġrefere e
Ġmasc ara
Ġswell ing
Ġhoriz on
Ġturb ine
ĠCamp bell
Ġske let
Ġcompon ents
Ġphysio therap
Ġbou quet
ĠScandinav ian
Ġdisgu ise
ĠPay Pal
ĠSur rey
Ġgrocer ies
ĠJob see
ĠRhodes ia
ĠGry lls
Ġgover nor
Ġhaw k
Ġbrewer y
Ġfier ce
Ġpand as
ĠBM W
Ġdeh yd
Ġhes it
Ġstig ma
ĠHN D
Ġquestionna ire
Ġhygien e
ĠPy thon
ĠHI V
Ġgravey ard
Ġbarrist er
Ġsanct uary
Ġunatt ractive
hart oum
Ġbroch ure
Ġhing es
Ġalle gedly
Ġmaison ette
Ġexting u
ĠMitch ell
ĠJup iter
Ġasht ray
ĠBarclay card
Ġalge bra
ohem ian
ĠAtten borough
ĠTiff any
ĠGats by
ĠRuper t
Ġcholester ol
& =
D id
H ave
N ew
g un
p op
y lon
Ġo ily
ĠI phones
Ġb eads
Ġd ere
Ġd udes
Ġc c
Ġg ulp
Ġf riday
Ġf oul
Ġwa ng
Ġha have
Ġgo sp
Ġr io
Ġr ising
ic ide
Ġe bb
Ġn ylon
Ġwhat ev
Ġfor ums
Ġnot ification
Ġmy st
Ġup hill
qu al
Ġal k
Ġca la
ad d
ig ious
ma in
ma ss
ĠS ays
ĠC ool
ĠC lass
ĠC urry
Ġfa j
Ġbu ms
Ġbo m
Ġkind ness
ĠT inker
Ġcon verse
ĠB ud
ĠB uff
Ġv ap
te gr
ĠE c
Ġen sure
ĠF ort
xt ures
Ġcar ne
Ġcar riages
ĠD uck
ĠL at
ĠL ink
Ġsupp orters
Ġold en
Ġtra ms
Ġhouse work
Ġmin cer
Ġac re
Ġpu g
Ġro gan
ĠJ ubilee
ĠR ev
ĠR iley
Ġbla ming
Ġdis in
Ġturn ip
Ġhard back
Ġshit loads
Ġhead master
Ġsw inging
Ġsk irting
Ġstra pped
ĠV ers
Ġrel ating
ĠSu mmer
ced es
Ġap ocaly
Ġage ing
Ġintern ally
Ġins ure
Ġins ulated
Ġsqu eamish
Ġfla shes
Ġra vi
Ġsub ur
Ġsm ugg
ĠCo ffee
Ġboo ster
Ġdist raction
Ġinform al
Ġsta ple
Ġtele gra
Ġvers es
ĠQ ur
Ġchop sticks
Ġdesign ers
Ġest im
Ġscreen ing
Ġexerc ising
Ġshout s
box es
Ġcred ibility
fortun ately
Ġtechn ician
Ġpsych ologist
Ġsli pping
Ġgl itch
Ġhall way
Ġaccess ory
Ġimm ort
ĠAn thony
Ġtro mb
Ġindepend ently
Ġrob ins
Ġnat ivity
Ġpump ing
comp et
Ġeval u
Ġappear ing
ĠJo e
Ġdragon fly
ĠHor rible
Ġgang ster
Ġunc ons
Ġsched ules
Ġallerg ies
Ġinteract ive
ĠPakistan i
Ġslim y
Ġscru ffy
Ġlent il
Ġwrest le
ĠDi ary
ĠJe ep
Ġsyll ables
Ġfemin ism
Ġintegr ity
Ġinterrupt ed
Ġscro lling
hor rible
underst ood
Ġlat itude
Ġfung i
ĠPD F
near ly
ĠLi by
Ġcater pillar
ĠHind ley
Ġinsec ure
Ġgrav ity
ĠSom al
Ġremark able
ĠLind t
ĠBreak fast
Ġsteril ise
Ġrepet itive
Ġnotic eable
Ġrena issance
Ġchino is
ĠNin ja
Ġcouncill or
Ġbooksh elf
Ġmetabol ism
Ġhier archy
ĠFranken stein
Ġmanif est
Ġcay enne
A l
E r
b ought
d ated
l ide
m ix
v ol
Ġt ant
Ġt two
Ġs something
Ġb ould
Ġg uru
Ġto pping
Ġdo lly
th irteen
Ġbut chers
Ġlo ser
Ġqu art
Ġca ster
Ġsp la
ĠS OS
ĠC A
ĠA ut
ĠT own
Ġde stru
Ġpa ving
Ġv ase
ĠF I
ĠP isa
Ġho lly
de c
ĠG mail
ĠW ere
ĠJ ar
ĠJ oh
ĠJ umanji
Ġmon sters
ĠY ik
ĠK iev
ĠK auf
ĠK hartoum
Ġsk ips
Ġsk ittles
Ġpass ive
Ġplan ets
ĠTh ank
ĠV HS
Ġblack berries
oy le
Ġanno t
ming way
Ġpan c
Ġcr ates
Ġopt icians
cl ean
Ġcock erel
ĠJu rassic
Ġimm ac
Ġsn u
ĠBe fore
Ġlength s
Ġrecy cled
Ġcontribut ing
Ġlingu istic
Ġprior it
Ġreflect ing
Ġacadem ia
hist or
ĠHot el
Ġaqu arium
ĠWethers poon
ĠGoth ic
ĠHaw k
ĠSnow don
Ġcroiss ant
Ġinev itably
ĠCumb ria
Ġhypoc ritical
Ġclari fy
spr ing
Ġslipp ery
Ġjala pe
ĠCumber b
Ġener get
c ult
f antastic
h op
h im
j et
k ids
l ined
p ow
y um
z el
Ġi ced
Ġo at
Ġd don
or ient
ic on
ar o
Ġch ai
Ġta k
il er
ous and
ot ally
ĠM achu
ĠB lo
Ġover taking
ĠP ap
Ġho ard
ĠL iam
ĠL ima
Ġam en
Ġres igned
ĠV ic
iv an
Ġrel ates
Ġsea ting
res ents
Ġass umption
Ġcr ay
bu llet
Ġrem it
Ġben eath
ĠQ atar
fa ces
comm on
Ġnote book
ĠHe mingway
Ġnail ed
rop olis
Ġeconom ists
Ġstereoty pes
Ġbib les
ĠGr oup
ĠSome thing
ĠPi aget
Ġnib ble
ĠSir i
Ġplen um
ĠSuperd rug
C ola
D s
K EA
U P
b id
c lable
e ers
g ens
m ean
m unk
n sic
n ip
o tted
r ational
t ro
t un
t own
u f
u ca
u ity
u rist
u zz
v ato
w ah
Å Ĥ
Ġ ounce
Ġa ural
Ġa imed
Ġw I
Ġs iesta
Ġy ah
in os
in ians
in cl
ea ten
ĠI KEA
Ġb art
Ġb ise
Ġb ip
Ġm ere
Ġm ick
Ġm ales
Ġm owing
Ġit ching
Ġyou s
Ġc uckoo
Ġf ences
Ġf ountain
gh ini
st ell
st ead
st range
Ġli mp
Ġwa vy
Ġwe eding
or ge
or ide
or ghini
ut an
ay yad
Ġdo le
Ġk ite
ic ts
ic ature
Ġu u
ust on
ust roph
Ġst rea
Ġst ated
Ġcan non
al ing
Ġse iz
Ġor thod
Ġsa sh
op ot
Ġre per
Ġre cept
ri el
Ġba chel
ra ble
Ġch ained
ther ner
ill ing
im bab
Ġsu ction
Ġsu cking
Ġsu lph
Ġsu ede
ter ns
mm ie
and el
Ġpro vision
Ġca ges
il ised
Ġex ca
art re
ig ans
ven ia
ven gers
mb e
ĠS um
ĠS oc
ĠS up
ĠS ATs
ast ly
Ġpla us
Ġstu mp
Ġdi versity
ĠC lo
ĠC rush
ĠC atalan
ĠC openhagen
Ġfa Ã§
Ġint ake
Ġprob ation
ĠA z
os la
ĠM ason
mber g
ĠT es
Ġde ers
ĠB ran
ĠB usted
ĠB estival
Ġv oc
Ġcl out
Ġcl oned
ĠE yes
ĠE ye
ble t
Ġreme mb
Ġen vis
ĠF izz
ĠP ound
ĠP interest
Ġun wra
Ġcar icature
Ġcomp os
Ġcomp act
ĠG ret
ĠD og
ĠD usky
Ġcom ics
us se
us ions
Ġaf t
ne um
ĠL ucky
Ġjo sh
ame ter
Ġtra cking
ag reb
Ġgod father
ft s
Ġpu mps
Ġpu ddles
ĠJ et
ĠJ ag
Ġel igible
Ġbl ing
Ġgra vel
um en
ĠR eb
ĠR even
Ġfriend ships
ful s
Ġbook case
Ġdri ps
Ġdis pens
Ġdis respect
Ġmar row
Ġear ring
Ġdef ined
Ġhand made
ĠY ar
ĠY ug
Ġmor ally
Ġcont ents
ĠK u
ĠK ey
ign ant
Ġcra ving
eren ces
oc ated
Ġfree hold
Ġchar itable
ap y
Ġcomm as
Ġsur re
for ting
any e
Ġmet eor
ĠV illa
iv a
iv ate
Ġrep ay
Ġrep resents
Ġblack mail
Ġmid get
how ever
Ġpres chool
Ġsea front
Ġpot tering
Ġtri ang
Ġtri mmer
Ġtri bal
Ġind irect
Ġstraight ened
Ġparent ing
Ġred one
Ġhea ts
Ġpri zes
Ġwhite board
Ġbi ography
Ġbi ological
Ġap es
Ġpar amed
Ġbox er
ĠSt ars
ye es
Ġwash er
Ġexpect ancy
Ġshort cut
Ġfla shed
Ġsug ars
Ġeleven s
Ġdeal ers
Ġconf usion
Ġreg re
Ġreg ions
Ġblue y
Ġcr ate
Ġra id
Ġpress es
ips y
Ġmod ified
Ġna ive
Ġtouch es
rench ed
Ġbank ers
ident ly
Ġsm arter
Ġsm iles
Ġbur p
Ġbur den
Ġwea kest
ob ile
Ġorgan isations
br ity
Ġcamp ed
Ġbegin ners
Ġsick ness
ĠTu pper
Ġfur thest
Ġopt ed
Ġpur Ã©e
Ġsha ft
irt le
Ġanim ation
Ġref ined
ĠZ oo
Ġban ners
Ġbow led
tten ham
Ġflu ct
Ġcla ustroph
Ġproject or
Ġoil s
Ġstar ve
Ġcal iph
az in
Ġemb assy
ale m
Ġben ches
Ġcreat ion
Ġarm chair
Ġconst ip
Ġhat red
Ġshare holders
mar i
ĠHar vey
Ġswitch ing
Ġstaff room
Ġsens ibly
Ġwra pper
ĠAr cher
ĠAr chers
Ġow ls
Ġlog ically
Ġport al
Ġmis understood
ĠPar cs
Ġwhis ked
Ġvo iced
ĠSky e
Ġscra mble
ass ing
ass ium
Ġfinger prints
Ġchallen ged
Ġobs erved
Ġneck laces
Ġpregn ancy
ĠBu zz
ĠHo ly
ĠHo ad
Ġbitch y
Ġsn ugg
Ġtar iff
Ġcree ping
Ġga la
ĠEx cel
Ġhost ing
Ġchem ically
Ġcart on
Ġdisp atcher
Ġcha let
Ġcha otic
Ġtransl ations
Ġtit les
ĠAir port
Ġchrist ened
ĠUm ayyad
Ġapproach es
Ġscan ner
Ġstro p
Ġamb ition
Ġmer cy
Ġrap eseed
Ġbarbe cu
law s
Ġprofit able
Ġtemperature s
Ġfasc inated
Ġchamp ions
Ġrat ings
ga no
Ġmoan ed
Ġtail or
Ġmagn ific
Ġbreast feeding
Ġcondition er
Ġtutor ing
Ġcereal s
ĠBel gian
Ġss ay
Ġss ort
Ġgrill ing
ĠLa ure
Ġswea ts
Ġsymb olic
Ġadvant ages
Ġvoca b
Ġwit ty
Ġconvin cing
anas onic
ĠPre tty
Ġrepresent ed
Ġec st
Ġinher ently
net ta
Ġasse ts
ĠCy rus
Ġentit lement
ĠQue ens
Ġhomes chool
Ġnought s
Ġsail ors
ĠDra ma
Ġdeliber ate
Ġhoover ing
ĠCent er
Ġslee ved
Ġcran e
reg ate
Ġscript s
Ġvari able
Ġtack ling
Ġrank s
Ġhun ger
Ġfitting s
Ġshuff ling
LT A
Ġhal ve
Ġcompliment ary
Ġrear range
Ġmosquit os
Ġshag ged
Ġenvelop es
Ġevol ve
Ġevol ving
Ġexagger ation
ĠPart on
Ġfond ue
Ġdrown ed
Ġstruct ured
Ġauber gines
Ġrais in
resh old
Ġconvent ion
Ġbalan cing
Ġsubscri be
Ġcli pped
Ġphotocop y
Ġbre eds
Ġaspir in
Ġaspir ations
Ġwed nesday
Ġcrem ator
Ġfer ries
Ġscrap book
Ġgoo ey
sty rene
Ġretro spect
ĠHist ories
Ġcompens ate
Ġrehears al
ĠMaster Chef
ĠFore st
ĠCir cle
ĠVien netta
Ġcudd les
ĠLE Ts
ĠGard ens
Ġstagger ed
Ġguid elines
Ġslaugh tered
ĠBrad ford
ĠEver est
ĠEver ton
ĠChamp ion
Th ursday
ĠIS IS
Ġexception ally
Ġcarbohyd rates
Ġsatisfact ion
Ġemplo yees
Ġunreal istic
ĠLevel s
Ġsquish y
Ġcroiss ants
Ġretweet ed
ĠUnder ground
Ġnegle cted
Ġimplic ations
Ġsunbath ing
Ġnostal gic
Ġbureauc racy
Ġdemol ished
Ġpyram ids
ĠDj okovic
ĠEdu cation
Ġlollip op
Ġsilhou ette
ĠPI N
Ġinstal ments
olit an
Ġhorizont al
mil k
ĠIMA X
Ġrooft op
Ġparaly sed
ĠBanshe e
Ġbluep rint
ĠSik h
ĠNord ic
Ġchak ra
ĠcajÃ ³n
Ġunemploy ment
Ġwilder ness
ĠHear ts
Ġovercrow ded
ĠGerv ais
ĠOd ys
Ġadam ant
ĠKris pies
upro fen
Ġembed ded
akh stan
Ġaerob ics
Ġphysiotherap ist
Ġrio ting
ĠYug osla
ĠTupper ware
M I
W ed
W here
g l
m oney
t at
y ll
Ġth ump
Ġa ca
Ġa mend
Ġthe ft
Ġh inge
at io
Ġd ab
Ġd Ã©
Ġg ifted
Ġf ricking
Ġp ate
Ġp neum
Ġbe gg
Ġbe ware
Ġsh ru
Ġsh ack
Ġco il
Ġco bbled
ar act
Ġn aming
Ġst inging
Ġnot ifications
ch airs
Ġsa iled
ri osity
Ġch ronic
Ġch lamydia
Ġup front
qu arter
Ġmo les
Ġmo cking
Ġsu ed
Ġma mma
Ġpro t
Ġca key
Ġta mp
Ġnow t
rea son
Ġsp ying
Ġstu bble
Ġfa ults
ĠA T
ĠA vengers
Ġde ci
ĠB ert
Ġman iac
Ġsi gh
Ġfu rious
ĠF ear
ĠF ront
ĠP im
ĠP ur
Ġun re
Ġun paid
Ġcomp let
ĠG oo
ĠD ate
ĠW oo
ĠL isa
Ġob li
Ġtra shed
ĠH ag
ĠH uman
ĠN ivea
Ġsc ree
Ġsc otch
Ġunder cover
Ġla ziness
Ġfl irty
Ġbla des
ĠO c
ĠO de
Ġhard ware
Ġhard core
Ġshit ting
ign s
Ġcoo lest
Ġcat aract
Ġdec laration
med y
ĠTh en
ĠV ol
Ġdra gging
Ġbar ber
go es
Ġpot ion
Ġpot assium
Ġinv al
Ġconf lic
Ġpost p
Ġblue bells
Ġra pper
Ġdel ic
Ġclean ers
Ġimport ed
ĠZ imbab
Ġflu oride
Ġphotograph ers
Ġtele visions
Ġcal cium
Ġorange y
Ġtrave ller
Ġsol utions
Ġbin ned
Ġstri king
Ġdig it
ĠHar vard
Ġhus ky
Ġappro x
ĠMor ning
Ġbull do
Ġlemon y
Ġfort ieth
Ġgig antic
Ġpath way
Ġredu ction
ĠAn na
Ġcro chet
Ġver bs
Ġsection ed
Ġreturn s
ĠBo mb
fl our
Ġtor rent
Ġfork lift
Ġdiet ary
Ġhandle bars
Ġstro kes
ĠBen ef
Ġmer it
ĠCam den
Ġassist ants
ĠTra in
Ġbrief ing
ĠQu a
ĠBro ok
Ġexperien cing
Ġnood le
bl ue
Ġja mmy
Ġconven ience
Ġdomin ated
Ġshr oud
Ġselect ive
Ġhammer ing
Ġgoose berry
Ġmanufact ured
Ġreca p
Ġinsist ent
Ġgain ing
Ġrepea ting
Ġenthusi as
ĠKat ie
ĠNut ri
ĠWater stones
Ġprick ly
Ġunpl ug
Ġadvis ers
Ġterrit orial
Ġnegoti ated
ĠAct ually
ĠOsc ars
Ġexplicit ly
Ġimpress ions
Ġprivile ged
Ġprincip al
Ġincreasing ly
Ġoverwhel med
Ġparticip ate
Ġtho those
brea ks
ĠCr unch
ĠBol ton
ĠChip otle
Ġrhetor ic
ĠZe lda
ĠAx is
Ġgh astly
ĠSlo venia
Ġancest ry
ĠMaur it
Ġcashe w
ĠHS BC
Ġstun ned
ĠIm ogen
Ġpainkill ers
ĠZo ella
Ġtox ic
Ġhagg is
ĠAI DS
Ġminib us
Ġgarl icky
ĠMald ives
Ġvoll ey
Ġecli pse
Su nday
Brit ish
Ġdere lict
Ġgosp el
ĠFI FA
W ill
W hy
m eat
n ity
p ie
Ġa as
er ial
Ġh iring
nd y
Ġd it
Ġm inging
Ġit it
ve lling
Ġp ater
Ġso por
la va
an n
Ġr really
out e
Ġsp am
ĠS l
ĠC ri
ĠC li
ĠM iley
ĠT ob
Ġcon kers
Ġde co
Ġwill ow
Ġcl ocked
ĠP ea
ĠP ot
est ru
ĠD D
ĠD ogs
ĠL iving
ĠL ocation
Ġown ing
Ġmar ig
ĠK irk
ual ity
Ġworld wide
Ġexp ire
Ġtri fle
Ġart icul
ĠSt rong
Ġfla wed
Ġfore nsic
Ġspecial s
Ġz ig
Ġloc ations
Ġfire place
Ġpoor er
Ġcu riosity
Ã© s
ĠCa lais
Ġski pping
Ġinvest ments
Ġposh er
Ġpsych ic
ĠCar ol
ĠMac ed
Ġbizarre ly
ĠPr ison
Ġmult imillion
ĠNe il
Ġgrea se
ĠPro f
Ġdomin oes
Ġcontain ers
Ġwhi pping
Ġvari ations
ĠCla ud
Ġinno v
ĠHel p
Ġprescri pt
ĠHer ne
resp ons
ĠWater loo
turn ed
Ġven ison
ĠNi gel
ĠCook ie
ĠBey oncÃ©
dr ink
Ġspor ty
ĠSad dam
Ġflatten ed
ĠTib et
ĠPors che
ĠFlick r
ĠLincoln shire
ĠPoint less
Ġenerget ic
Ġsopor ific
4 5
B ear
B ri
F ly
J ack
M ar
W h
c in
d ig
m ong
m iss
o ven
p ain
p lan
r unning
y land
Ġ x
in n
in ers
at ivity
re zi
Ġha lo
la shes
id al
Ġn ines
ch ant
ra ham
Ġch ch
ĠA la
ĠT ax
red ict
Ġbet ray
ĠW i
Ġcom me
ĠH is
ĠN U
Ġround ed
Ġpay day
Ġmar inated
ĠK er
ĠK anye
Ġsw ag
Ġwater melon
med ia
for ced
room s
Ġsuper st
Ġmod elling
ĠWh ole
Ġatt itudes
Ġbath ing
board ing
po ken
pro ble
Ġble urgh
Ġmag ist
ĠPar ma
uff le
Ġexist ential
Ġscratch es
Ġcivil ian
Ġrat atouille
Ġshad ows
Ġbelong ed
ĠGa mb
Ġtear ing
ĠTig a
fam ily
cis ion
Ġhipp ocampus
ĠPal in
ĠGro znjan
Ġplon k
ĠPep si
Ġterr arium
Ġviv arium
ĠSn ickers
ĠIzz ard
Ġpromin ent
pow der
Wed nesday
' .
1 4
B N
B erry
M G
N P
a ires
a cas
b age
b ridge
c loth
d owns
e es
g led
i as
i ors
i ator
i ums
i had
p uff
r ative
s mall
u rious
u rial
v ating
w rite
y o
z ag
Ã ¤
Ġth reshold
Ġw iz
Ġs id
Ġy on
Ġy ork
er er
er ver
Ġo on
Ġo oo
Ġo ath
ea ked
ĠI ma
ĠI BS
Ġh ound
Ġh ens
at as
Ġd or
Ġd usk
Ġd renched
re ction
re mes
re gano
Ġl ender
Ġc iv
Ġg ust
on ge
Ġf ain
Ġf arts
ve ts
ve ments
ke lling
Ġp ease
Ġli ra
Ġli cked
Ġli mping
Ġwa vel
Ġwe ts
Ġwe ster
it ask
Ġha zy
or ish
or ange
Ġon l
Ġr igs
ed i
id ad
id erm
Ġk not
is ies
is co
Ġsh ine
Ġsh andy
ic ting
le ston
Ġj er
Ġco des
et tes
ly n
Ġn ations
Ġst ately
Ġst aged
Ġnot ion
ent a
oo ms
Ġan ts
ck o
ck les
od ak
ear y
Ġre la
Ġre son
ri ents
Ġba gels
ra ined
Ġch urn
ce lain
Ġlo cking
Ġlo ls
qu ila
Ġmo ans
Ġout breaks
na ments
Ġsu ms
Ġma lar
un ken
Ġtw itter
Ġmu gged
Ġca no
Ġta iled
ur ities
il ver
Ġti psy
Ġex orc
ab atta
ell es
ol ics
Ġsp out
Ġsp un
Ġsp ins
Ġsp lin
ĠS ens
ĠS af
ĠS kin
ast ed
Ġstu bb
Ġfa me
Ġneed n
sh ush
Ġint est
Ġbu rial
Ġyear ly
ĠA GM
Ġag encies
ĠM G
ĠM ig
be c
ore y
if ier
Ġcon ce
Ġpa vements
Ġv ain
Ġover do
Ġpre ced
te z
Ġcl utter
ĠE ars
ment al
ond ers
ant ino
Ġen zy
Ġle gged
ĠF al
ĠF un
ĠF ac
ure mberg
per ger
pe ze
ĠP azin
ĠP anasonic
you ng
Ġun natural
Ġun locked
Ġph all
int endo
Ġlast ing
ĠG as
ĠD iam
ĠD oyle
ĠW H
ĠW icked
ĠW atch
ĠW oman
ĠW ogan
lo qu
lo tte
us alem
ĠL ush
Ġpart ition
Ġsupp lies
Ġtea time
Ġtra peze
Ġend orse
Ġwan ker
ĠH erm
ĠH ills
ĠH ampton
ĠN ations
ĠN uremberg
ĠN intendo
Ġro ar
Ġro aming
li hood
co ach
Ġgra bs
am an
Ġsc or
ta x
ress es
Ġfl ute
Ġbook ings
iss a
Ġdr unken
gg ots
Ġmar athons
Ġdef ro
Ġem issions
Ġhand written
ert ime
Ġplea sing
Ġsl iding
mo b
Ġbea k
Ġshit test
Ġkid neys
Ġrec ur
Ġwater front
ling ton
Ġinter mediate
ib an
ten s
Ġless er
Ġbel ts
ac c
Ġcat alog
Ġsur faces
ger bo
Ġrest art
ĠTh er
ĠTh anks
Ġext ortion
Ġext remes
Ġsea m
cu la
cu ry
Ġpick up
Ġexp ressed
Ġexp ires
Ġexp iry
Ġsing ular
Ġinv o
Ġinv ade
ti er
Ġstraight en
Ġacc use
ĠSp onge
Ġpartic les
Ġsound track
Ġve nding
Ġpar liament
ĠSt ick
ĠSt ream
Ġexpect ation
Ġintern s
sel ine
io la
Ġpost man
Ġcomput ing
Ġwar rior
Ġass ass
Ġsuper vis
Ġcr ouch
Ġcr inge
Ġclo ve
Ġra z
ral tar
Ġmill imetre
Ġatt ribut
Ġboo th
Ġfat s
Ġev icted
ism atic
Ġcu ppa
Ġcross roads
Ġodd ly
Ġeye ball
Ġeye lashes
ĠTu be
ret ion
old ing
Ġdu ke
Ġsmo ker
ĠAust in
Ġkno bs
Ġcatch ment
ĠZ agreb
Ġav atar
Ġflu shed
Ġphotograph ed
Ġcontact ing
Ġinf inity
ĠDe vil
Ġsna ils
Ġsna zzy
Ġmarket place
Ġsla b
Ġsla very
Ġsla pped
Ġvideo ed
cl ose
iff el
Ġcontract or
Ġarm our
Ġcri mes
ĠSh ia
ĠCa vern
Ġest ates
ĠAs perger
Ġran ch
Ġexam ining
Ġexam iner
Ġcond iments
ĠPo le
Ġtoast ie
Ġhusband s
Ġembarrass ment
Ġappro ved
Ġfut ures
ĠAl bert
Ġincl ination
Ġdisc s
Ġport able
Ġmort ality
Ġdeath s
Ġstandard isation
Ġflavour ing
Ġtour ing
Ġstat istic
Ġcomplic ations
zen e
Ġmush y
Ġver ify
Ġpublish er
Ġguitar ist
Ġpurpose fully
Ġspell s
Ġbomb ard
Ġsou ven
Ġfold ing
Ġdem ographic
Ġcommit ting
Ġbri g
Ġtun ed
Ġpra gm
Ġautom ated
Ġalarm ing
Ġgiant s
ĠMus ical
Ġmurd ers
ĠMon ster
Ġinflu ential
Ġtheat res
Ġtrea ty
ĠMac Donald
ĠEs capes
Ġsixt ieth
Ġmer ged
Ġmer ging
Ġcivil isation
ĠCon nery
Ġmult itask
alf rezi
ĠIsrael is
Ġrhy ming
ĠLo vato
Ġsumm ar
Ġden y
Ġbran ched
Ġstreng ths
Ġfirm ly
ox ide
Ġcheque book
etro it
ĠCath olics
Ġdisab ilities
Ġpleas ures
Ġwardro bes
Ġcub icle
Ġrepresent ation
Ġinvestig ative
Ġrubber y
Ġsnap chat
Ġquant um
Ġtroll eys
Ġcabb ages
should n
Ġsight ed
Ġhighlight ed
Ġmos que
char ge
Ġeffic iency
edd ars
Ġcompla ins
Ġdemonst rating
Ġrene wed
Ġhon ours
Ġdigest ion
Ġcran es
pot ato
Ġgossip ing
cas m
Ġtang ent
Ġpoly styrene
Ġcoinc ident
ĠDel ight
Ġcruel ty
Ġstack s
Ġstack ing
Ġzoo med
ĠSqu ad
Ġprescri bed
omer es
ĠHunt ers
Ġrefuge e
Ġsin ister
Ġwaterfall s
Ġrul ed
Ġisol ation
ĠMur phy
ĠBur ger
Ġblur red
Ġcoordin ate
Ġcoordin ated
Ġhousehold s
Ġextraordin arily
Ġcitiz ens
Ġmultip layer
ĠKy oto
Ġsyn th
Ġsyn ch
Ġundergradu ates
ĠPalest inians
Ġmetaph ors
Ġweap on
Ã± os
Ġbrides maids
Ġtraum at
ĠCir cus
Ġorient ated
ĠRock y
Ġperce ived
Ġregiment ed
Ġmast urb
ĠGard en
Ġinfra red
col our
Ġinh ab
brea king
ĠCr Ã¨me
Ġeyel ids
Ġeyel iner
Ġintrigu ing
Ġdub bed
bee bies
ĠRS P
Ġblackbird s
Ġnib bles
ĠBron ze
Ġovers eas
Ġaccomp an
Ġdecl ined
ĠDomin os
Ġdisrupt ive
Ġimplic ation
Ġsunbath e
Ġattemp ted
Ġprim arily
Ġdiplom atic
Ġmoistur iser
ĠSmo ky
ĠPers ian
Ġgerb il
Ġspac ious
ĠTal iban
Ġflee ce
Ġplagiar ism
ĠTab asco
Ġresid ue
ĠMoo re
Ġsnor kelling
Ġoverfl ow
Ġsuperh eroes
Ġlighth ouse
ĠApo llo
fford shire
Ġintrin sically
ĠMec ca
ĠDL R
ĠBroad way
Ġrearrang ing
Ġparach ute
Ġbidd ing
Ġcoffe es
Ġsubsequ ently
Ġgorill a
ĠFloy d
ĠDire ction
Ġruth less
Ġproph et
Ġviny l
ĠOy ster
ĠKardash ian
Ġrecollect ion
ĠJobsee ker
Ġtromb one
uzz i
ĠfaÃ§ ade
ĠGret el
ĠReb el
ĠQueens land
Ġcremator ium
uffle puff
Ġyon ks
Ġwavel ength
Ġwets uit
ĠSaf ari
J ust
W as
c li
e lect
g rown
m is
s me
v able
Ġ q
Ġt rench
Ġa ches
Ġthe there
er ie
Ġo st
Ġb usting
nd e
Ġd yed
Ġg ale
Ġf ing
Ġp unk
Ġwh it
Ġwh ining
an im
Ġr ive
Ġr ises
Ġe i
ro b
Ġfor ming
Ġcan e
Ġsa bot
Ġcos m
Ġre use
Ġre build
Ġch it
Ġal es
Ġqu aint
Ġpe bbles
Ġca esar
Ġex cel
ĠC S
ot ify
Ġbo ld
Ġlot ion
ĠA gain
Ġcon co
Ġpa par
Ġpo mp
Ġv oy
Ġpre judice
ĠE S
ĠE ven
ĠE iffel
Ġfu zzy
ĠF ris
ĠP rote
Ġke t
ĠD art
ĠD alm
ĠD etroit
Ġpl ur
ath s
ĠH ope
ĠN eal
Ġro ckets
co ffee
Ġnew est
Ġper ceptions
ĠR ee
Ġwal t
Ġid le
Ġbed side
Ġgr ating
Ġfair ground
Ġdes ensit
any body
ĠV oice
Ġpres erve
Ġbar c
ĠSp lit
ĠSp otify
Ġart is
Ġcur ved
ĠChin at
Ġpress ured
Ġfill et
Ġbottom less
Ġjump suit
when ever
Ġpen insula
Ġkn ights
br ing
Ġprogram med
Ġequ ation
Ġswim mer
Ġcap ers
Ġgran ite
ĠAl giers
Ġcoast al
Ġstock y
Ġnational ities
has n
Ġcomb at
Ġcarp enter
Ġreply ing
Ġprotect s
Ġsn uck
Ġsn uff
ĠBe ing
Ġpra ise
Ġhunt ed
Ġcha uff
Ġaccommod ating
Ġhorrendous ly
norm ally
Ġpump ed
Ġmer maid
Ġbend y
ĠBl ind
Ġcre pt
ĠCon way
Ġtarget ing
Ġtranscri bers
Ġgall eries
ĠPark inson
Ġpray ers
ox id
ĠPe ople
ĠSch war
ĠHor se
Ġpod s
ĠMag num
ĠDor itos
Ġlon er
Ġsight seeing
Ġcampaign s
Ġacadem ically
ĠRe iki
ĠWall ace
Ġder og
Ġhero in
Ġtang o
Ġdeterm ine
Ġtracks uit
Ġspl its
ĠBor at
ĠMalays ian
Ġathlet ic
Ġrif les
Ġconvent ions
Ġhaz ard
Ġbrace lets
Ġbot an
Ġci abatta
Ġhose pipe
Ġfen cing
Ġemplo ying
Ġfulf il
ĠRon son
ĠLamb orghini
ĠWalk ers
Ġreprodu ce
Ġuncertain ty
Ġoverp riced
ĠTud or
Ġseagu lls
Ġflapjack s
Ġcorrel ation
ĠKaz akhstan
Ġdynam ite
Americ an
Ġses ame
Ġseeming ly
Ġsuffra gettes
Ġextens ive
ĠBuff y
Ġapocaly pse
ĠPim ms
ĠMaced onia
Ġpapar azz
C P
E uro
I f
a a
c ond
d ate
f ill
k n
l ot
p al
r ise
s lightly
t ill
y ellow
Ġt icks
Ġw with
Ġs see
Ġthe rea
Ġd unk
Ġc lan
Ġf for
Ġso lit
it ors
Ġon c
Ġsh ield
Ġe w
Ġn ibb
ch ea
Ġat ro
Ġch icky
Ġup hol
ter ror
Ġtw en
ess ors
ig il
ĠC ould
Ġoff sh
Ġbu ggered
ĠB us
Ġv amp
Ġcl u
Ġle let
ĠP ad
ĠP ie
ĠP lace
ĠG olf
ĠD ean
ĠW es
Ġtea l
ĠN icky
fe w
Ġbla sp
Ġbla dder
ĠO rient
Ġmar bles
Ġres erves
ĠK w
ĠK end
ĠK odak
ĠV a
ric ity
tw ent
Ġpan eer
gu ess
Ġreg ener
Ġtouch y
ĠMar co
Ġtur bul
Ġprof iles
Ġcollect or
Ġbrain storm
Ġtrave llers
ĠSh immer
ĠHar row
Ġpaint ball
Ġstat istically
Ġexpl oding
Ġappreci ation
Ġchuck le
Ġremo ving
Ġbitch ing
ĠEx per
Ġsno res
Ġdama ging
Ġturkey s
ĠSha kira
ĠBlack berry
Ġcre pes
Ġcapital ism
Ġpor celain
ĠPe king
Ġdump ing
ĠEm ile
Ġreflect s
Ġki ppers
ĠPl ease
ĠSmith s
Ġwig gle
ĠMer cedes
ĠSta ffordshire
Ġknob head
Ġdemo cratic
ĠJer usalem
Ġentreprene urial
Ġnavig ation
Ġtel omeres
Ġintimid ated
Ġoverh eat
Ġdiscon nect
ĠLeon ardo
Ġsnoo ker
Ġliz ards
prof essional
ĠTravel odge
Ġseas ick
ĠGib raltar
Ġcalor ie
Ġextro vert
ĠLis bon
Ġlabor atory
ĠKauf land
Ġimmac ulate
ĠStrong bow
ĠGamb ia
Ġuphol ster
Ġturbul ence
b one
e ye
e ffect
f an
g al
m ission
n umber
p laces
t otally
u ated
w alking
Ġy ey
in as
ea ve
ĠI Q
Ġit al
Ġg lim
Ġp es
st ant
ar ry
Ġrea ching
Ġan atomy
ca la
il it
tt i
rea s
Ġsp ur
ĠC beebies
so ld
ĠT am
ĠT iny
ĠB it
ĠB ri
ĠB rea
Ġv at
ĠE P
ĠF il
ĠF inding
pe c
Ġcomp ose
ist ed
ĠW are
ĠH eston
am on
ha mp
ha mmer
Ġsl ing
Ġcat ap
Ġnu d
du ate
ĠV lad
Ġsim mer
Ġbaby s
Ġclear s
Ġass ured
Ġsad iki
Ġev idently
pa k
az i
Ġsens ational
ĠMan ila
ama jig
ĠJack s
Ġpoo ing
comm un
Ġdriver less
Ġdisco vering
stro ke
Ġmulti media
ĠTun es
war ming
Ġtack y
Ġsar casm
Ġspoil er
watch ing
ĠBas il
list en
ĠTit anic
organ ised
ĠTar antino
ĠBern ard
ĠWorce stershire
lang uage
Ġenterpr ise
Ġstero ids
ĠSpart acus
breed ing
Ġfoet al
qual ified
reason able
6 2
C O
G oogle
I nt
N ovember
T u
b is
b uster
c ings
d les
g ran
g as
h ind
l ich
l ead
l ons
n ation
n ichiwa
o th
p ic
s al
s ite
u as
u ka
y et
z h
Ġt ink
Ġt iled
Ġth ursday
Ġa ster
Ġa esthetic
ou x
ou mi
Ġs ank
Ġs aturday
Ġs said
Ġy olk
Ġy apping
Ġthe ology
er og
in the
at elle
nd s
nd ane
Ġm ound
Ġm uttering
Ġyou se
ll or
Ġl ep
Ġc ia
Ġg n
Ġg ills
Ġto l
Ġp on
Ġp ulp
en na
en cing
Ġli la
Ġli tt
Ġli ds
Ġwh iter
Ġso vere
Ġno st
Ġwe we
it ated
Ġha mper
la f
Ġr all
Ġdo i
id ious
Ġk a
Ġsh ank
ic ure
ic ans
ic ole
ic ago
Ġj alfrezi
Ġu l
ust ral
Ġe ith
Ġe yed
Ġhe fty
Ġn icking
Ġdon ating
Ġdon ations
ro pe
Ġst ark
Ġst ings
Ġst oned
Ġfor ge
Ġnot ed
Ġnot ep
ch oo
ch ings
Ġcan v
Ġan ime
al in
Ġor ph
ck ery
Ġas yl
Ġre eds
ri ors
Ġme in
Ġup market
Ġlo bby
qu il
Ġmo th
Ġal ign
Ġal might
Ġsu nday
pp ost
Ġma nor
Ġgood ies
Ġtw igs
Ġpro ceed
Ġmu ndane
ss on
Ġta cos
ur eate
ur pak
ad ise
ine y
Ġus age
ĠS ri
ĠS co
ĠS mash
Ġpla st
Ġdi ameter
ĠC ab
ĠC rete
Ġfa ked
Ġfa cul
Ġfa voured
ul ator
ul isa
Ġint act
Ġint uitive
Ġdown wards
ĠA cade
os is
ĠM ummy
mber t
Ġcome back
be hind
if ax
ĠB F
ĠB ry
ĠB rent
ĠB ohemian
Ġpa vil
Ġv all
Ġv ulgar
Ġman ually
Ġcl icks
Ġsi ps
ru ple
ĠE mmer
ant on
ant ically
Ġen ables
ĠP T
ĠP alm
Ġhapp iest
Ġstart led
xt on
Ġun friend
Ġcar ca
ĠD all
ĠD ef
ĠD BS
ĠW ine
ĠW iz
ĠW ech
ĠW alm
Ġcom forting
erm en
Ġour self
ĠL ight
ĠL og
ci us
ĠCh ild
ĠCh eddars
ĠCh icago
Ġhouse warming
ĠH our
ĠH ig
ĠH atter
ĠH ima
ĠH omes
ĠH usse
ĠH ufflepuff
Ġbad dy
Ġac ron
Ġsch iz
Ġel bows
co cks
Ġbl ight
Ġbl eak
Ġfine st
Ġgra sp
Ġsc atter
Ġunder water
ĠR and
ĠR ab
ĠR iding
ĠR otter
ĠR eady
Ġhear ted
Ġthank ful
Ġfl icked
Ġfl irting
Ġbook shops
Ġsit com
Ġmon archy
as al
gg ly
Ġdis regard
ian ce
ian ces
Ġmar acas
Ġpr erog
Ġhand led
ĠChrist opher
ip ino
Ġmind ing
Ġhor ns
Ġhor mone
Ġsec ateurs
vent ion
Ġmat z
Ġrec reate
Ġcra ziness
Ġinter val
oc racy
Ġsk u
Ġsk ier
Ġfree style
Ġchar is
Ġimp et
Ġimp lies
ac cess
Ġcomm issions
Ġnu dge
Ġgrand child
Ġcut est
ĠU N
ĠU lt
any how
ĠV H
iv ia
Ġbelie ver
Ġext ending
Ġinst ig
Ġmid i
Ġbar maid
Ġru ss
Ġsing les
ĠSu icide
icken ham
Ġbra sh
Ġbra ces
Ġsign po
ier ra
ĠSp a
Ġcheck out
Ġpartic le
Ġwin ters
Ġwin ners
lls water
Ġcons ciously
Ġve in
Ġtax ing
pr ong
Ġment or
Ġdepend ed
Ġins ight
Ġsweet ness
Ġsweet eners
Ġfla gs
Ġfla ming
Ġfla ws
Ġcent red
Ġair field
Ġring tone
Ġbeh ead
Ġpan icky
gu ided
Ġvis as
unk irk
Ġass umes
Ġpress ures
Ġpaper backs
Ġsun flowers
Ġfly ers
cri be
Ġsub urb
Ġz ones
Ġpen icillin
uc cess
ĠCo tt
Ġdist ricts
Ġtech nological
app le
Ġorgan ized
ĠMar x
ĠMar ket
Ġcamp erv
Ġimportant ly
bu mps
Ġveget arians
ĠIs les
ats y
em en
Ġopt imum
ĠLe ia
Ġtreat ments
Ġcy cles
Ġflow s
Ġbow s
Ġbear ings
pri ately
Ġbrown s
Ġdraw s
Ġtele graph
Ġsna ppy
Ġsna ffle
Ġcal zone
ĠTw ickenham
Ġband age
Ġpet ty
Ġpet als
ker chief
ĠDay s
Ġcreat ively
Ġgold fish
oph ane
iff icult
Ġstri pe
Ġstri pping
ĠCa fÃ©
Ġbless ing
ĠAfric ans
Ġoper ator
Ġalcohol ism
Ġloud est
Ġsens ation
ĠAr row
Ġprov iders
ĠMor mon
Ġdream t
Ġbull ies
Ġnose ble
ĠMo ors
ched el
Ġsimple st
Ġtrust s
Ġtrust ees
Ġcast ing
ĠAl one
Ġinvest ors
Ġpsy chedel
Ġswear s
Ġdisc retion
box ing
ĠPar adise
Ġmount ed
Ġet ching
Ġbright en
Ġbright est
Ġgri ps
Ġgun powder
Ġgig abytes
shing ton
Ġpretend s
Ġnon stop
ĠMc Fly
Ġpension er
ĠMan ager
Ġhy d
ford s
Ġprom otions
Ġrh ino
Ġdiv ine
Ġdiv iding
Ġtight er
Ġtight rope
Ġwheel b
Ġwheel ie
Ġobs erve
Ġexpl or
ĠIp ads
Ġcro ckery
Ġrail card
Ġpoo s
Ġconc ise
ura ma
Ġir rational
Ġremo ver
Ġinvent ive
Ġfest ive
Ġcomment ing
Ġattract s
Ġopinion ated
ĠLab yrinth
Ġaver ages
Ġtim ings
Ġident ified
ĠGo gh
Ġcart ridges
ĠBut ton
Ġdisp ute
kin son
Ġtables poons
Ġbud s
Ġnurs eries
Ġsaf est
Ġpiano s
Ġblind s
Ġplu cked
Ġscan ning
Ġtick les
Ġped ag
Ġdust bin
wor ths
Ġamb ig
Ġbroad er
Ġconfident ial
Ġrot a
Ġrot ation
Ġmeasure ment
Ġmult icultural
Ġpred ators
Ġmagn ifying
Ġfright en
Ġbrief case
Ġcorn flour
Ġhabit at
Ġcontribut ions
Ġgut ting
Ġmechan ic
Ġharm ful
Ġharm ony
Ġappeal s
cient ious
Ġdissert ations
Ġconsult ancy
Ġpoll en
ĠPe pper
ĠCath edral
Ġterra in
ĠRoy ale
Ġcoup la
Ġfeat ured
ĠHor rid
ĠWa shington
Ġeconom ies
Ġpil ots
Ġpil gri
Ġinvestig ated
Ġinvestig ator
Ġreflect ive
Ġemerg encies
ĠTun nel
und ai
Ġseal s
ost at
Ġsail or
ĠRad cli
Ġprem ier
Ġreleas es
Ġdesert ed
Ġtimet ables
Ġpolite ly
Ġreb ell
Ġswallow ed
Ã¨ re
Ġroller co
Ġcran berries
third s
ĠJul ie
ĠFar ah
Ġtang ible
Ġcrust s
ĠPen guin
Ġuna ware
Ġath lete
Ġthr three
Ġcaps ule
Ġstitch ing
Ġstitch ed
Ġquit ting
Ġefficient ly
Ġpix el
ĠPower points
Ġdistinct ly
hist ory
Ġchampion ship
Ġsatell ites
Ġupload ing
ĠClar ks
Ġsquid gy
ener ife
Ġnation ally
Ġmemor ise
Ġphotocop ying
Ġsnee zing
Ġtherm ostat
Ġforgive n
ĠRun ner
Ġcounsell ors
Ġmyth ology
ĠGr inch
Ġallot ments
ĠBall are
Ġarrog ance
Ġquo ting
ĠBudd h
ĠLib eral
ĠHung arian
Ġinspir ational
ĠIntern et
Ġtrek king
ĠPD R
Ġhypoth esis
Ġvolcano es
Ġentreprene ur
Ġsole ly
ĠHal ifax
Ġ1 01
Ġobst acles
ĠGen eral
Ġmanip ulate
Ġlee way
Ġdistribut e
Ġspat ula
Ġgag ging
ĠAg as
Ã§ a
Ġcontrad iction
ĠCom fort
Ġexplo iting
Ġannounce ment
Ġextrem ism
Ġinev itable
Ġmeg abytes
ĠLaw rence
Ġhyster ical
Ġthunderst orm
ĠAnge les
Ġsund ae
Ġcompart ment
Ġcompart ments
omet ric
Ġmanufactur er
Ġmanufactur ers
Ġacknowled ged
Ġkon ichiwa
ĠHoo ver
gher ita
Ġemo ji
Ġintent ions
Ġprea ching
Ġwrink les
Ġtremend ous
Ġdood le
Ġcamoufla ged
ĠHamp i
Ġcockro ach
Ġheli um
Ġbapt ized
Ġshing les
Ġbarbar ic
Ġscall ops
ĠHop kins
Ġreplic ate
Ġreun ion
ĠCitiz ens
Ġraven s
Ġmillig rams
quis ite
rys an
ĠAV U
Ġhotsp ot
Ġinflamm ation
Ġcaut ious
ĠCele brity
Ġenh ance
Ġdispro portion
Ġbrit ish
Ġunac ceptable
Ġextingu isher
Ġcala mari
Ġdisin tegr
Ġuncons cious
ĠLiby a
Ġbip olar
opot am
Ġdisrespect ful
Ġparamed ics
Ġclaustroph obic
Ġmagnific ent
Ġecst asy
ĠYugosla via
ĠNutri bullet
Bri ain
Ġmalar key
Ġstubb orn
gerbo mbs
Ġraz or
zene gger
Ġpragm atic
ĠFil ipino
Ġcia o
Ġasyl um
Ġalmight y
Ġfacul ty
Ġpavil ion
Ġvall eys
ĠEmmer dale
ĠWech at
ĠWalm art
ĠHima lay
ĠHusse in
ĠRotter dam
Ġcamperv an
ĠRadcli ffe
D av
b ike
c ream
h it
h um
h ome
n no
s or
s ave
s ize
t eacher
v ine
v ies
Ġa ro
Ġa rist
Ġs aturated
Ġy ap
Ġthe or
Ġo one
ĠI CT
Ġh ides
Ġm ism
ing ery
Ġg ou
Ġf ou
Ġf rance
Ġp ose
Ġp eter
Ġwa h
it ty
Ġha mmers
an ny
Ġk erb
Ġer ect
Ġbut ch
et a
Ġn asal
Ġan ec
ck y
Ġre im
Ġup py
Ġlo vo
Ġout wards
Ġsu shi
Ġma h
ad ic
Ġti pping
ess ie
ma ge
ĠS la
Ġback lash
Ġdi ld
ĠC G
ĠA way
ĠM ona
Ġea gle
ĠT el
ĠT ate
ĠT enerife
Ġcon sec
ĠB in
ĠB urn
ĠB rat
Ġar ou
Ġpa ren
Ġpre tt
te xt
ĠE co
Ġen s
Ġen rol
ĠF e
ĠF oot
ĠF ij
ĠP HD
Ġun ra
Ġcar niv
ĠD S
ĠD rive
ĠD unkirk
ist le
ĠW ea
ĠW oody
Ġlea ping
ne cted
ĠL ipsy
Ġsupp lement
Ġmin istry
Ġapp ar
ĠJ ay
ĠJ as
ĠJ edi
Ġbl oom
Ġsc al
Ġpers istent
Ġdri lling
Ġmar ching
ĠY emen
Ġmor ph
Ġsaw dust
ĠK o
ĠK itchen
Ġchar ismatic
Ġtr out
Ġju icy
Ġstra nded
Ġplan ks
lock s
Ġpres erving
Ġinv asion
Ġda isies
Ġspo ils
Ġpop ulated
Ġcons ume
Ġbi lly
ĠSt ella
Ġsweet ies
Ġconvers ion
Ġfla b
Ġair p
unt ed
ĠWh ites
Ġaff lu
lan c
ĠCo medy
Ġev ils
Ġorgan ises
ĠSc out
Ġsha ken
Ġorig ins
Ġcatch y
ĠZ ero
Ġargu ably
Ġemb ro
Ġpet rified
Ġoper ated
Ġrac quet
Ġaunt s
ĠSw ift
Ġje ggings
Ġspoon ful
Ġinstru ctors
ĠIndian a
Ġscratch y
Ġcro tch
Ġhar ness
ĠBo ston
Ġreview ed
Ġborrow ing
ĠEx eter
ĠBe cker
Ġserv iet
ĠAma zing
Ġarse holes
Ġilleg ally
Ġcha mber
ĠUn cle
Ġnut rients
Ġanaly sed
Ġpun s
Ġspray ing
Ġhum ili
Ġhum orous
Ġscan ners
Ġfi end
Ġgear box
Ġwhoo sh
Ġkil ogram
Ġsett les
Ġund erest
Ġheight ened
Ġunivers al
Ġstreng then
Ġregist ry
Ġexperiment ing
Ġexperiment al
Ġann ouncing
Ġabs ent
Ġshel tered
ĠHoll ister
Ġdomin ant
war m
Ch in
Ġstair cases
Ġsubst itute
Ġsuic idal
ĠRobin son
Ġleisure ly
Ġhero ine
ĠJe lly
Ġpredict able
ĠJen ny
ĠCla ire
ĠComm ons
Ġreact ing
Ġcheer leading
ĠCol omb
ĠMur der
Ġaband on
Ġlamp sh
Ġcli ppers
ĠSpe c
Ġenqu iry
Ġunp redict
Ġmyth ical
Ġven ues
Ġalt ar
Ġstea ming
Ġceil ings
ĠMat the
Ġdedic ation
Ġhumid ity
Ġdow nt
start ed
Ġdub ious
ĠCE LTA
Ġinsec urities
Ġdil uted
ĠNaz i
Ġlam ppost
Ġyy you
ĠKin nock
supp ose
Ġstap les
Ġthunderst orms
ĠKar achi
Ġgeograph ically
ĠCap ital
Ġnig ger
ĠHy undai
ĠReg ent
ĠCha mber
Ġfrag ile
Ġtorto ises
Ġdisgrace ful
ĠCock ney
certain ly
Ġrever ie
Ġintric ate
Ġvand al
Ġadap ter
Ġtelesc ope
Ġfaul ty
ĠNiss an
Ġantidep ressants
Ġravi oli
Ġsubur bs
Ġpneum onia
ĠOde y
ĠZimbab we
ĠBomb ay
Ġzig zag
respons ible
Ġcaesar ean
ĠDalm atian
Ġchauff eur
Ġderog atory
Ġsolit ary
Ġvamp ires
Ġanec d
A ir
F i
L A
c ig
f are
g ir
j inx
s laugh
s ound
u ce
x ter
Ġth under
Ġs way
Ġy your
Ġb ots
Ġb arks
Ġm ink
Ġg ains
en joy
Ġwa hey
Ġso w
Ġha j
ed o
id end
Ġco gs
Ġnot ch
Ġch rysan
Ġout dated
Ġthing amajig
un cle
Ġpro secco
Ġca ca
ĠS ly
ĠS oul
sh a
Ġbo bble
ĠT ea
ĠT rue
if orm
Ġhu ff
ond e
ĠF ern
ĠP ear
Ġho ver
ĠD iana
Ġfirst s
ĠL os
ĠCh r
ag ious
Ġpu ss
Ġte quila
Ġro gue
ĠR et
Ġmon ks
Ġsl utty
Ġcont agious
ĠU s
iv ities
Ġbra gging
ĠSp ock
Ġpol o
Ġstory telling
Ġins ulation
Ġair y
Ġconf erences
Ġflo ss
Ġra pping
Ġz ooming
Ġslow y
ĠNor man
Ġjour n
ĠMa o
ĠSky fall
ford shire
Ġdiv idend
Ġimm un
Ġspread sheets
Ġtooth ache
ĠBo tt
Ġga laxy
Ġpun cture
Ġsky pe
Ġped icure
Ġrecy clable
ĠChar l
ĠChar lotte
lam ity
Ġprofit eroles
hold ing
cra cker
Ġhaird ry
Ġrepresent ing
ĠPeru vian
ĠDor rington
dri ving
Ġfru ity
Ġlegend s
Ġmono pol
Ġcontra band
ĠBrazil ian
Ġmoist ure
Ġcorpor ation
ĠCol in
Ġko no
Ġeve very
Ġmultip ly
Ġrivers ide
ĠDomin ican
Ġnostal gia
lear ning
ĠSA C
educ ated
Ġot ter
Ġgher kins
Ġcact us
ĠSnowdon ia
Ġprescript ions
Ġatro cious
Tu esday
Dav id
A n
A r
A pp
b ub
c our
m al
s aw
w is
w ives
x ious
Ġa after
Ġc ron
ve lled
st udy
or ity
la im
ut er
ay ed
le v
ld er
ar se
ar my
Ġoh h
Ġmm aybe
oo ting
ch in
Ġcan na
Ġdid id
ra ke
ra is
ff s
na il
ter rible
Ġmu h
Ġus h
ers h
ma ged
ĠC ur
wh oops
ĠT oy
ĠT ulisa
ĠF re
ort on
ĠD im
ist y
ĠL urpak
Ġsupp osing
ĠN orton
Ġgra cias
ĠR am
ĠO ver
ĠO MG
Ġhop ping
for ming
ĠV old
ors es
ug ar
Ġsub conscious
Ġloc ate
ĠLe mon
aw esome
ĠAr nold
ĠSw an
oura ge
wor ms
ĠTra pped
Ġchim iney
ĠBro o
Ġconsult ants
ĠEgypt ians
Ġfet ched
ĠPl ath
fla voured
Ġspaces hip
Ġshell ac
ĠValent ino
ĠSqu irtle
ĠEar l
want ed
Ġdar n
ĠBol ivia
Ġsala mi
ĠKin shasa
vig non
Ġcad ets
ĠSyl via
ĠNat west
histor ic
Chin ese
A h
C ap
F S
L C
M ay
Q A
R S
R AF
W est
b um
b idden
c law
d ance
f aced
g ies
g ary
h earted
i ology
m ere
m ous
m ange
m ons
o ces
o cial
p ion
p lant
t iest
v ak
w al
w el
Ġ ves
Ġ Ã¼
Ġth icken
Ġth aw
Ġth these
Ġa an
Ġa uster
Ġw en
Ġw which
Ġw imp
Ġi mba
Ġs ig
Ġs sh
Ġs inc
Ġy od
Ġy ums
er ty
in omy
ea bly
Ġb ist
Ġb ounds
Ġb ons
Ġd re
Ġd erm
Ġm our
Ġm ne
Ġm iff
Ġm erc
re fer
Ġc it
Ġc um
no rama
Ġg go
Ġg ays
Ġf ade
Ġto olk
ke na
ke ley
Ġthat ched
Ġp its
Ġp als
Ġp iling
en ary
Ġli ly
Ġwa lly
it utions
Ġha re
Ġha had
Ġlike lihood
Ġin ks
Ġin hib
Ġin exper
Ġin compet
an ity
Ġr ink
Ġr iff
Ġdo ve
id dy
Ġk ara
th ol
is ine
is able
is lava
Ġsh ou
Ġu g
Ġu ng
ust ers
Ġe loqu
ld s
et tle
ar n
ar ity
ro ds
Ġst ile
Ġst reak
ent ials
Ġrea pp
ir ical
ith on
nt an
Ġsa uc
Ġab bre
ear ten
Ġne cks
Ġre ed
Ġre vel
Ġre form
Ġre built
Ġba sing
Ġba iled
Ġme mo
Ġme llow
Ġup beat
ce y
ca da
Ġal ight
Ġal oud
Ġal pa
Ġal ike
im sy
Ġsu ntan
Ġma ze
Ġma ggots
ind or
mm it
Ġmean ings
Ġpro ps
Ġpro cra
Ġpro active
Ġca v
Ġca pe
Ġbit ty
Ġta ster
Ġta gs
Ġta bby
ur ation
Ġti pt
ell er
Ġact u
Ġact ua
ess age
el ph
ĠS ell
ĠS ide
ĠS ue
ĠS can
Ġdi ets
Ġdi oxide
Ġdi oces
ĠC O
ĠC i
ĠC it
ĠC urt
ĠC SE
ĠC umberland
ĠC RB
ĠC anton
Ġfa ux
Ġoff s
ul ent
ul ative
Ġbu ckets
ot in
ot ive
ot ine
Ġbo gey
so s
ĠA mer
ĠA uss
ĠA ero
ĠA ga
ĠM C
ĠM od
ĠM ice
ĠM ia
ĠM ix
ĠM ai
ĠM eant
Ġea u
ĠT ree
ĠB ale
ĠB alk
Ġar cade
Ġpa i
Ġpa used
Ġwee ver
Ġover land
Ġover come
Ġpre historic
ĠE at
ant ics
Ġen large
Ġen abled
Ġgu mmy
Ġle uka
ĠF airy
ĠF rost
ĠF ilm
ĠP oo
ĠP ages
ĠP ops
ĠP opp
Ġtal ents
Ġun int
Ġun common
Ġun reasonable
Ġcar at
ĠG ersh
ĠD iver
ĠD anger
ist a
ist o
ist ical
ĠW o
ĠW ain
ĠW olf
lo ved
Ġdifferent iate
ĠL ank
ĠL ights
Ġsame y
Ġjo ys
ci o
Ġpl ugh
ĠCh ase
ĠCh esh
Ġtra gedy
ag on
all ows
ird re
Ġread ers
ĠH ell
ĠN A
ĠN er
ĠN ab
ĠN eed
ĠN amed
Ġano th
li atelle
ĠJ udy
co al
Ġgra ves
fe iffer
Ġper f
am om
Ġunder age
Ġunder take
Ġunder dog
ĠR haps
ĠR oses
Ġdr ought
Ġdri lled
gg ae
Ġdis com
Ġdis cont
les que
Ġmar in
Ġdef ining
Ġdef enders
Ġdef eats
Ġword ing
ub les
Ġem ig
Ġhand book
Ġsl ed
Ġbro lly
Ġhel per
ip ers
ip ling
Ġhor ny
Ġhor osc
Ġsec ular
Ġfar med
Ġwhe ed
Ġcont o
Ġmat zo
Ġtalk ative
Ġloads a
ĠK L
ĠK inder
ĠK ensit
ĠK ensing
Ġsw am
Ġkid na
Ġkid dy
ron s
oc ate
Ġgr inding
Ġbrea ths
Ġhop es
Ġimp erson
Ġwalk er
Ġwalk ers
less ly
ac ies
Ġcat nip
Ġcomm od
Ġdec line
Ġhol ogram
Ġju gg
Ġju icer
Ġpass words
lete xt
du ed
Ġmet als
Ġinst ances
Ġdra ught
Ġhair cuts
Ġmass ages
Ġru h
Ġexp osure
Ġexc urs
Ġpot ter
ĠSu dan
Ġtri vial
Ġind i
led ore
Ġfoot print
Ġhea ps
Ġspo iled
Ġgener als
Ġposs ession
Ġcons umed
Ġtype writer
Ġbi op
Ġap o
Ġap ron
Ġinc idents
Ġpar l
ĠSt adium
Ġsy na
Ġtax able
Ġtax pay
Ġes c
Ġent ries
Ġcur v
Ġexpect s
Ġfish ermen
Ġgreen y
Ġnormal ity
rid iculous
Ġsweet er
Ġfla w
Ġfla ps
Ġfla ky
Ġfla bby
Ġtin iest
Ġworth y
Ġconf ined
Ġconf ession
Ġconf etti
gu ndy
Ġland mark
Ġmother board
Ġfan c
Ġwar n
Ġclo ak
Ġclo gged
Ġclo tted
lad elph
Ġlaugh ter
Ġsun k
mon ic
Ġtrans it
Ġtrans mit
Ġtouch screen
Ġemp ire
form ation
Ġcover age
Ġmilk man
Ġsad ness
Ġbur gundy
Ġboo ths
Ġloc ated
osp ital
Ġkn its
pa Ã±
Ġorgan iser
Ġcu isine
Ġcross over
Ġbird ie
Ġagree ments
Ġspr ays
ĠIs lington
Ġaut ism
Ġaut obi
em ort
Ġprof ic
Ġprof essors
ĠSc ouse
Ġsnow men
ĠLe yland
Ġsha wl
Ġorig ami
Ġequ ator
Ġanim ated
Ġorigin als
Ġban ning
Ġproject ion
Ġmach inery
Ġcru ising
Ġcru sher
Ġbeginning s
Ġcollect s
Ġinf ants
Ġsex ually
Ġconsider able
Ġinform ative
anger ed
Ġgeneral ising
Ġvers atile
Ġyellow y
Ġsla pping
Ġlect uring
Ġcreat or
oph ren
Ġawkward ly
aw ful
Ġdish earten
Ġentire ty
Ġdig ger
Ġess ence
bed roomed
ĠBar r
Ġbas kets
Ġscreen shot
ĠRo vers
Ġcond iment
Ġlay ered
Ġep iph
Ġlibr arian
ĠAr ctic
Ġsuc ce
Ġprov in
ien ced
Ġarch ives
ĠMa fia
ĠMa ori
Ġwi lly
Ġhur rah
Ġbored om
zz led
Ġste ms
Ġdeliver ies
Ġstress es
Ġdeb ates
ĠMc Int
ĠPh ill
Ġprom ises
Ġcock y
Ġcock ney
ĠWar rior
Ġfinger nails
ĠOr ville
Ġaddress ing
Ġyo ke
Ġcontext s
Ġque er
fl ops
Ġinvent ing
Ġana esthetic
umb ledore
Ġcutting s
Ġtim id
cott a
Ġfli ps
Ġrecommend ations
Ġscar ce
Ġilleg it
Ġpitch ing
Ġmini ature
Ġpositive s
Ġhunt ers
Ġpill ar
ĠSim s
Ġcontent ious
Ġnut ty
Ġpun net
Ġtruth ful
Ġframe work
ĠMac mill
ĠCor ona
Ġwide ly
Ġoverd ose
Ġoverd ue
Ġdust ed
las ka
Ġfab rics
Ġeth ic
Ġincrea ses
Ġlol zy
Ġsales man
Ġchip munk
Ġmer maids
Ġreali zing
Ġbend ing
Ġward en
ĠMin h
ĠVictor ians
off s
Ġchim mi
Ġgramm atically
atin um
ĠBer keley
lant ro
ĠBru mmie
ĠQu ant
Ġjewell ers
ĠLu cas
Ġboun cers
ĠRoman ian
Ġdepos its
under standing
Ġscoo ters
Ġfri e
Ġinject ed
Ġresour ce
Ġrema inder
Ġradi os
ĠMother care
Ġsmooth ies
Ġwarning s
Ġchoir s
Ġtrail ers
Ġbond ing
ĠHa mm
Ġash es
Ġcampa igning
Ġded icate
ĠCy lon
Ġtrend s
Ġteas poons
cal illi
Ġadapt ation
ĠDra cula
Ġarrang ing
Ġpic calilli
eez ers
Ġdisag reed
Ġprec ision
Ġdiag on
Ġdiag rams
Ġlegend ary
ĠAll en
Ġanonym ise
Ġsusp ic
ĠAnt i
Ġsneak ily
Ġrene got
Ġperfor med
Ġsequ ences
Ġtort ured
Ġphon etic
ĠWith in
Ġwitness ed
Ġpurch ased
Ġplat forms
Ġpal ms
alt ic
ĠTunis ian
aph im
Ġoccup ation
Ġoccup ational
cont ained
Ġfib res
ĠBea utiful
Ġvom ited
ĠNut cracker
Ġgla zing
rog ate
van ia
Ġdiagno sis
list ed
Ġast ron
ĠWhats App
step s
Ġwob ble
Ġtodd lers
Ġadminist rative
Ġaccur ately
Ġglit tery
Ġtoler ance
Ġtransp ired
Ġshepher ds
Ġmop ed
Ġmemor ial
Ġliber ty
ĠSpe cial
ĠLad en
Ġsard ine
Ġreward ing
Ġenqu iring
Ġinterpre ted
Ġformula ic
ĠFree man
Ġhou mous
Ġunp acked
Ġpuff s
ĠAd vice
Ġmathem atical
Ġmathem atics
Ġvent ure
Ġfidd led
Ġsimpl istic
Ġsimpl ified
Ġfootpath s
Ġdecla red
ĠIb uprofen
Ġbrace let
arch s
Ġhairs pray
Ġmasc ul
ĠWim py
Ġfranch ises
Ġmac ro
Ġnightclub s
Ġoutsour ce
ĠCommun ist
ĠCommun ism
Ġrou lette
Ġrou lade
Ġnavig ate
spe c
Ġdimens ion
ĠKid man
ĠArm y
Ġoverla ps
ĠIS BN
Ġmargin al
Ġillust rations
Ġpeep s
Ġinsult ed
ĠPax man
TE S
ĠFut urama
Ġdisgu ised
Ġbookmark s
Ġsnoo ze
Ġreass uring
Ġpostgra d
ĠWords worth
Ġfac ility
Ġfreelan cers
Ġstret ches
Ġdwarf s
ĠWil son
cap able
ĠCold play
Ġpyram id
Ġdeter ior
ĠCB T
ĠRick man
ĠPhoen ix
Ġbatt les
Ġtorto ise
ĠId ol
Ġsufficient ly
Ġrapid ly
Ġcosmet ics
Ġtum our
Ġasp ire
Ġemer ald
ĠEngine ers
Ġgad get
Ġsledge hammer
pres umably
ĠBour ne
ĠJun ior
ĠOtt oman
ĠWool worths
physic al
Ġurg ently
ĠIst ria
Ġshor test
Ġabund ance
ĠHarib os
ĠConst itution
Ġcyl inder
Ġthie ves
Ġneur on
Ġpala ver
ĠQuest ion
ĠGrimm s
ĠField ing
Ġitiner ary
Ġdeno min
Ġunequ iv
ĠKl opp
Ġflan nel
Ġplaus ible
Ġvoc ational
Ġsurre nder
ĠOdys sey
Ġintest ine
ĠMig uel
ĠFac etime
Ġrecur ring
ĠTher oux
Ġextortion ate
Ġinvo ices
Ġbrig ade
ĠSchwar zenegger
ĠWare house
hamp ton
enna i
Ġlila c
Ġacron ym
Ġschiz ophren
Ġprerog ative
Ġsku lls
Ġcharis ma
Ġimpet us
Ġrollerco aster
ĠBrat islava
gir lfriend
ĠÃ¼ ber
Ġauster ity
Ġimba lance
Ġbist ro
Ġbons ai
Ġmiff ed
kena zi
Ġsauc ers
Ġabbre vi
Ġprocra st
ĠCanton ese
ĠMeant ime
Ġleuka emia
ĠGersh win
ĠDiver gent
ĠChesh ire
ĠRhaps ody
ĠKensing ton
Ġepiph any
ĠMcInt yre
ĠMacmill an
B A
E G
E m
E aster
R oy
a o
c ats
f un
g irls
i ka
i ladelph
m ers
m ia
t ree
t ie
Ġth ith
Ġw onders
Ġs ous
Ġthe these
ĠI RA
Ġh h
Ġb is
Ġb ish
Ġd ensity
Ġl atter
Ġg aming
Ġg ingery
on er
Ġp any
Ġp imp
st uck
Ġso y
Ġso licit
Ġwe ep
Ġha ilst
Ġr ins
Ġdo e
id y
le e
Ġco ward
et e
Ġjust ifying
Ġn now
ch ip
ch urch
Ġcan t
Ġan alog
ear ly
Ġne ther
Ġba gel
Ġch is
ce lling
Ġal tering
ook s
un i
Ġmu mma
Ġpe bble
Ġca ck
Ġbit ches
Ġti pple
rea sure
Ġsp iced
Ġpla cent
ong s
wh eat
wh ereabouts
so cial
ĠA lic
ĠA stro
ĠA QA
ĠA laska
ĠM ess
ĠM az
ĠM TV
ĠT et
if ty
ĠB altic
Ġv ines
Ġover rated
Ġhu mble
ĠF ed
ĠF ish
ĠF iat
ĠP J
ĠP feiffer
Ġke ttles
ĠG ab
ĠD iv
ĠW on
Ġcall er
Ġcou lis
ĠL G
ĠL amp
ĠL az
ĠCh erry
ĠH ang
ĠN elson
he e
co ld
Ġsc u
Ġhome ly
ĠR id
Ġdis pers
Ġear phones
Ġdef eated
ha pp
Ġhor ned
ph ies
ĠK ay
ĠK ipling
Ġser very
Ġsw amp
Ġcra z
Ġcra fty
Ġfree bies
Ġsma cked
Ġimp ul
Ġimp lant
Ġimp aired
Ġcard amom
to ld
Ġpass ata
Ġsur plus
Ġcut ie
Ġcut ters
ĠU llswater
Ġunt rue
any where
ĠTh urs
ĠV ine
Ġcor rug
Ġinv ites
Ġtri logy
Ġspo tty
Ġspo iling
Ġcons cientious
Ġbi kers
Ġpar mesan
Ġquestion able
ĠSt and
ĠSt age
ĠSt ilton
Ġstick le
Ġcur se
Ġcur led
Ġair ing
Ġton ne
Ġass im
Ġpaper back
cri ption
Ġspecial ity
Ġsub dued
Ġz ed
Ġbur lesque
Ġtech nolog
Ġdu mmy
Ġsnow y
Ġeduc ating
ĠYou ng
Ġcollect ions
Ġinf lection
ĠDe c
Ġstep dad
ĠTw ix
Ġwinter y
Ġafford ed
Ġprin ces
aw k
ĠIn side
ĠHar per
load ed
ĠMo st
Ġcontin ues
ĠAl right
Ġhur ray
Ġbeef y
Ġreci pro
ĠBla cks
Ġbang ers
Ġcow boy
Ġrev amp
Ġdev ote
Ġtro phies
Ġpatter ned
otter y
Ġspeech es
Ġscar red
Ġscar ves
cc les
Ġrob otic
Ġcell ul
ĠDa wn
Ġirrit ate
Ġprog ressive
ĠMin ions
comp ared
ĠNe mo
Ġstring y
Ġsumm ers
ĠPro ject
Ġapolog ies
Ġnap kins
Ġabs urd
ĠRich mond
ĠJo an
Ġmaint ained
Ġmould s
Ġpoll uted
Ġterra cotta
Ġcontinu ously
Ġnick names
Ġpad dle
Ġvib rating
Ġtag liatelle
Ġinstall ing
Ġthread s
Ġprem ises
Ġcrunch ing
Ġdim in
Ġsympt om
Ġreb oot
Ġdonkey s
ĠAnt ar
Ġbes ides
Ġut ilities
Ġsyll able
Ġhal ved
Ġvom iting
part ic
Ġrepair ing
Ġtoler ant
ĠSam uel
ĠSnap seed
Ġreserv ations
Ġhaz ards
Ġmig rant
ĠAD HD
Ġconsist ently
hor se
exc ited
ĠFred die
Ġpostc ards
Ġration ale
ĠDu ke
ĠJess ica
ĠWood ling
Ġscandal ous
Ġweekday s
Ġhym n
ĠBey once
ĠNev ille
ĠSil ent
Ġpostgra duate
Ġsubsid ised
Ġpistach io
ĠCro ft
therap y
Ġgeograph ical
ĠCav tat
Ġimprov ise
Ġcosmet ic
Ġide ology
ĠfiancÃ© e
Ġchock ers
Ġsem antics
Ġantis ocial
Ġsynt ax
Ġvel vet
ĠEasy jet
ĠIndepend ent
Ġamer ican
Ġblanc mange
Ġconver ting
ĠWolver hampton
ĠHawai i
Ġgalvan ised
Ġfantast ically
Ġger iat
ĠMajor ca
Ġmyst ical
Ġalk aline
Ġconverse ly
ĠEc ot
ĠQur an
ĠCumberb atch
Ġapprox imately
Ġenthusias m
ĠDD T
ĠClaud ia
Ġinnov ative
Ġsabot age
Ġbarc ode
Ġartis an
ĠChinat own
Ġtherea b
ĠFij i
ĠSpec sa
Ġunpredict able
Ġsolicit ors
J ohn
J anuary
M ate
T o
c ouple
d ead
d eal
d arling
f lo
f ruit
g ard
k ies
l op
l ates
n at
p at
p ink
p ear
w re
Ġth orn
in idad
Ġd art
Ġg ast
st rong
Ġr igh
Ġj anuary
Ġe ee
Ġco b
Ġn ing
ro be
Ġan ten
ear th
Ġba ubles
Ġch atter
ill usion
ca sion
ca des
Ġqu iff
ge lla
un fortunately
Ġtw iddly
Ġpe people
Ġpla que
ĠC ody
ep her
Ġdown wind
ĠA bu
Ġag gra
ĠM ight
ĠT ell
Ġpre mi
Ġhu nd
ĠE AP
Ġle thal
ĠF resh
Ġbet a
int rodu
Ġtra ps
Ġtra mps
ĠH ey
ĠH eather
Ġid ol
Ġfl ea
Ġwhe y
vent ure
able t
Ġrec laim
ac ing
iz es
Ġsur ly
ĠU C
Ġmil king
lic ence
Ġface less
Ġexp end
ĠSt uff
rid es
Ġdog ma
Ġcr one
Ġpictures que
eth ical
Ġban quet
Ġsouth west
ĠSh red
ĠHar ley
icy cle
Ġfra ming
Ġcond oms
Ġloo sen
Ġgl oo
Ġbon k
Ġcho ke
Ġanti oxid
Ġsour ced
Ġhorses ho
ĠEx pect
ĠPort o
Ġscar let
Ġbeard ed
ĠTo ttenham
ĠEs cape
Ġarchite cts
Ġtwist ing
ĠRoman ians
Ġsquee zy
Ġmusc ular
ĠDor a
Ġanonym ised
ĠTr inidad
Ġneat ly
Ġoctop i
ĠKy lie
bro ther
Ġspi kes
ĠHal o
Ġci lantro
grand ma
ĠCI TES
Be cause
Ġsuperv ised
Ġmit tens
Ġdang ling
Ġabsol u
Ġtwig ged
Ġcondens ed
ĠPick ford
Ġmead ow
Ġcriss cross
Ġspla shing
ĠJoh an
Ġonc ologist
ĠKw ik
cig are
Ġjourn als
ĠCharl ton
ĠVold emort
F rench
M on
b ound
c um
d ough
f il
f lu
f unction
g lass
i ary
i ots
k ick
m ist
p ra
p ence
p ans
p ipes
r atch
t ight
t aste
u ar
y you
y ani
Ġw where
in ator
ĠI ss
Ġb BC
Ġm alt
Ġp rank
th ousand
ic ation
ent ed
ch ats
ch em
ct ar
ear m
ear ing
Ġne ctar
Ġre lev
qu a
Ġout comes
ry ing
ab ilities
ven ues
sh ave
ĠE h
ĠE ss
ĠF en
ĠD T
ag gy
ĠN icole
Ġper ched
eal ed
ĠK n
Ġrec ite
itch ed
rit ic
Ġbir yani
Ġbra vo
uc ket
bu sh
Ġpig lets
Ġadv ising
ĠMor se
Ġwi with
Ġclock work
ĠWe ym
Ġfi xtures
fif ties
bag s
Ġpir i
cons ciously
Ġhelicop ters
Ġder by
ĠJul ius
ĠDam ien
Ġwarrant ed
ĠNick i
tom ato
count ry
wha what
ĠGrant chester
tea ching
ĠRaven claw
Ġgad gets
fra me
mass ive
ĠNU S
twent ies
Ġcatap ult
ĠFre ud
Ġrelev ance
4 7
9 0
A M
A pril
B ran
D B
D os
L e
P S
R eam
S outh
S em
T rance
Y o
b oo
c Ã
c ir
c eable
e yed
f ro
h abi
i ro
l ten
l ating
l eans
l ifting
m and
o ise
p oles
s ad
t ur
t ance
u mmer
v iet
w orm
w itz
w yne
z as
Ã ®
Ġt rough
Ġth us
Ġth rush
Ġa is
Ġa pe
Ġa ston
Ġw ean
Ġw rens
Ġs ly
Ġy ak
er ina
Ġo sc
ĠI SA
Ġh one
Ġh ort
Ġb out
Ġb alm
nd isse
Ġd ign
Ġd iced
ll ets
Ġl I
Ġl ard
Ġc I
Ġc rest
no sed
no sis
no xious
Ġg ly
Ġg lance
Ġg utter
Ġg iddy
on ian
Ġf athers
ve ster
Ġthat ch
Ġp people
Ġli able
Ġli ability
Ġwh inging
it ime
it arian
Ġha p
Ġha mm
es ium
Ġlike ness
Ġgo s
la la
la ying
la sting
an men
Ġr ut
Ġr ants
ed rals
Ġdo key
id ences
Ġk ar
Ġk ip
th day
th row
Ġsh at
Ġsh ifted
le gged
le pool
Ġj erk
Ġu mp
Ġu up
Ġe ternal
Ġhe ct
Ġco v
Ġco ma
Ġco ot
Ġco ded
et ta
ar on
ro ids
ro ndisse
Ġst reamed
Ġst ilts
Ġnot or
Ġrea cts
Ġthink er
ch iev
Ġan ne
al ent
al ready
Ġse ized
Ġall ocated
Ġor g
Ġor n
Ġsa cks
Ġsa ga
Ġat om
od ies
op ian
op ey
Ġre op
Ġre ha
Ġre min
Ġre lay
ri x
ri ls
Ġba it
ion e
Ġme th
Ġch ives
qu ate
qu ality
qu ette
Ġmo at
Ġmo lten
ill ery
ca mbe
Ġal um
Ġal igned
ff ling
ff ham
im als
im port
im lich
Ġma pped
Ġqu ino
mm ad
Ġgood y
Ġtw izz
Ġpro c
Ġpro mpt
ive ness
Ġmu cking
Ġpe ed
Ġpe llets
Ġta me
Ġta pped
Ġlook out
ad vert
Ġex h
ell oni
ol ingu
ess ide
art ed
el uj
mb uds
mb uca
ĠS E
ĠS na
ĠS of
ĠS wa
ĠS oli
ĠS cient
ĠS TE
ate ur
Ġpla it
Ġpla ins
Ġback yard
Ġstu sh
Ġstu mble
Ġdi verse
Ġdi version
ĠC reat
ĠC iv
ĠC ana
ĠC rom
ĠC UP
Ġoff side
Ġoff enders
sh aw
ul u
Ġprob ability
Ġbo ating
ish ment
so le
ĠA st
ĠA mber
ĠA llow
ĠA venue
Ġag ing
os ph
os ote
ard is
ĠM os
ation wide
ĠT oo
ĠT ue
ĠT uring
ĠT ina
ĠT TP
ĠT reasure
if ter
Ġcon ned
Ġcon ker
Ġcon cussion
Ġde ed
ĠB ue
ĠB ean
ĠB room
ĠB essie
ĠB isto
Ġwork sheet
Ġar ses
Ġar ray
Ġpa p
Ġpa god
Ġpo tted
Ġv u
Ġv ind
Ġover board
Ġover ride
Ġpre ca
Ġpre jud
Ġmight y
Ġman ure
Ġcl uster
Ġhu sh
ide mic
ĠE u
ĠE st
ĠE ner
ĠE ras
ment ed
ant i
Ġen vy
Ġen amel
ĠF ool
ĠP la
ĠP urs
Ġho sted
Ġho vering
est e
Ġun inst
Ġph ased
int ed
ĠG B
ĠG lad
ĠG rease
ĠG orge
ĠD ine
ĠD ah
ĠD ew
ĠD ome
ĠD ale
ist ant
ĠW ard
ĠW eb
Ġlea gues
the mum
us al
ĠL y
ĠL ang
ĠL odge
ĠL yn
we g
Ġpl atinum
are st
Ġob noxious
Ġtra i
Ġtra its
ag ara
all a
Ġend ings
Ġread ings
Ġhouse keeping
sic al
Ġgod mother
Ġgod parents
ise x
ĠH aye
ĠH eroes
Ġbad ass
ĠN ad
ĠN ile
ĠN ect
ĠN ationwide
he um
Ġnight time
Ġapp la
Ġapp end
Ġro a
ĠJ C
ĠJ uda
ĠJ igsaw
Ġche ering
Ġbl ister
Ġbl ush
Ġbl ouses
Ġpay back
Ġgra ze
Ġgra ins
ĠR s
ĠR oo
ĠR ain
ĠR ub
ĠR io
ĠR ams
Ġla z
Ġla ces
Ġla iry
Ġbla g
Ġdis cer
ian anmen
Ġhi j
ĠO per
ĠO dd
ĠO bs
ĠO laf
Ġshow y
Ġmar ries
ha mmad
Ġhand cu
Ġhand set
Ġhand kerchief
ert ips
Ġfin ite
Ġsl it
ren uous
ph en
vent ry
Ġcont am
Ġcount ies
Ġad ject
Ġbea ker
Ġtalk er
icke l
ĠK ane
Ġshit tiest
Ġhead quarters
Ġshop per
Ġsw orn
Ġsw ipe
do ch
Ġrec ount
Ġwater park
Ġwrong ly
Ġcra b
Ġcra ve
Ġcra bs
Ġcra cks
Ġbed sit
ib u
ib lical
oc ular
oc ratic
Ġimp ly
ac ulous
Ġcomm ando
Ġsecond hand
Ġfact ored
ens is
Ġpict ured
Ġclass ified
Ġstra nds
Ġyoung ster
Ġgre ys
Ġama zes
ĠTh orn
ĠV ardy
ank y
Ġext ender
Ġrep uls
Ġcor rection
Ġbreak downs
Ġbar ren
Ġbar bers
Ġsea ter
Ġworld s
oy ant
Ġexp ressing
Ġcol ony
Ġtri but
Ġtri ath
Ġtri bes
led geable
Ġstraight eners
dle y
ĠSp iel
Ġsim s
Ġpain ters
Ġpol i
pens ive
Ġred id
Ġred ub
Ġda red
Ġtext ile
Ġpri mates
Ġpop ulations
Ġposs essive
ud os
Ġwhite ba
gra d
Ġve ts
Ġinc onsider
Ġed gy
Ġed itions
ĠSt ore
Ġtax man
Ġcur b
Ġsummer y
ef ined
ĠBrit t
Ġdeal ership
Ġring ers
Ġconf ess
Ġconf ig
Ġsca ff
ider y
Ġwar ms
Ġwar time
Ġass ure
Ġcr icke
Ġra ises
Ġextra pol
port s
ĠWh arf
arling ton
Ġreck less
Ġfill ets
Ġna no
Ġspecial ise
Ġatt ending
Ġz inc
uc ose
ĠCo la
Ġslow ed
Ġhous ed
Ġret ards
Ġret rie
atch ing
rew s
Ġpresent ers
Ġcross word
ĠMar gherita
Ġcommun ism
Ġspr ung
Ġeye balls
av in
une iform
let ch
Ġview ers
Ġdu el
Ġopt ic
aur us
ton ight
Ġref uses
Ġmot ions
ĠZ ara
ĠEuro vision
Ġsauce pans
Ġsmell ed
Ġsand ed
mit t
mit ic
Ġconne ctor
Ġtomato ey
Ġval ve
Ġcru de
Ġcollect ors
Ġcollect ively
Ġinf inite
Ġdevelop s
Ġstar ch
ane ously
Ġsna ps
Ġgeneral ist
Ġcal f
Ġsil icon
Ġprote sting
Ġawkward ness
Ġfamous ly
Ġge no
ĠSh epher
Ġbin ocular
wa ite
Ġcust ody
Ġpublic ly
Ġdig s
mar sh
Ġelectric ians
ĠHar rison
ĠHar rods
Ġseason ing
Ġran ked
ĠBar gain
Ġrecogn ising
Ġhurt ful
Ġcap abilities
iction ary
Ġaccept ance
ĠX P
Ġwra ppers
ĠAr ch
Ġcompet ent
Ġmotor cy
oint ed
Ġsoft en
Ġloo ph
ĠMo thers
icks ilver
Ġmis be
zz les
Ġcine mas
Ġbright ness
Ġcoast line
Ġspoon ing
Ġaccident al
Ġtrad itions
Ġgig abyte
Ġgig gles
Ġconcer ning
sk i
Ġrespons es
Ġvo id
Ġgl ucose
Ġflavour some
Ġinstru ct
ass o
ĠWar hol
Ġappre h
ĠOr leans
Ġroads ide
Ġspread able
Ġtooth bru
ĠAn n
ĠAn imal
ĠAn atomy
Ġmodern ised
Ġcow boys
Ġappreci ative
Ġrev ised
Ġrev ising
Ġfoc uses
Ġpoo p
ĠGu inea
Ġsmart phones
Ġboss y
Ġlink ing
Ġque ers
Ġdev al
ĠBo ard
ĠMiss guided
Ġobject ed
ids ummer
Ġtro phy
Ġcomment ate
Ġtar ma
Ġcelebr ated
Ġcrit ique
ĠHe imlich
Ġbul ky
Ġtun ing
ening rad
ĠPer kins
Ġident ification
Ġactiv ate
ĠGo blet
Ġmir aculous
Ġinit ials
Ġsno tty
Ġcart ridge
Ġmedic ines
Ġcha ps
Ġbud gie
ĠMus ic
Ġsink s
Ġgru mble
Ġchi pping
Ġchi ppy
Ġblind ed
ba o
ĠMac s
su fficient
Ġdread locks
ĠCor rie
Ġimprove ments
ĠEs paÃ±
wor thy
ĠGeor gian
ĠBlack Berry
ĠBir thday
Ġeng land
ĠCl oud
ĠBl oom
ĠBl ooms
Ġrot ating
Ġcre osote
Ġrap ists
Ġni pped
Ġni hil
Ġprog ressed
Ġnegative s
ĠMin ister
ĠEd ie
ĠSa ving
Ġtranscri ber
Ġstor med
Ġcrowd fu
Ġgramm atical
Ġtail oring
Ġund efined
Ġtutor ial
Ġgoal keeper
Ġmus lin
Ġassoci ations
Ġstir red
Ġlin en
Ġden ial
Ġden gue
Ġshap ing
Ġmechan isms
Ġtransport ed
Ġlingu ist
Ġnarrow er
iber ia
ĠSte w
ux e
Ġhaird ressing
Ġhorri fying
Ġpara normal
Ġscri bble
ĠSch mid
Ġpier cings
Ġgy ms
Ġgang s
Ġcub by
Ġmyster ious
Ġmotiv ate
Ġloose ly
ĠShakes pear
Ġouts ider
ĠFl ute
ĠFl ower
ĠInst itute
tra p
Ġsnap shot
Ġpad lock
Ġvib es
Ġvib rator
Ġinstall ation
Ġfart ed
Ġinteract ing
Ġshr unk
Ġshr inking
Ġmarking s
mond s
Ġgoose berries
uten ant
Ġsurround ings
Ġdistur b
Ġmild ly
Ġswallow ing
Ġexpand s
Ġreca lled
ĠDi Cap
Ġexplan ations
Ġedit ors
Ġreject s
Ġsar nie
Ġspons oring
Ġmono gam
Ġapprentices hips
Ġfaith ful
ĠFrank ie
Ġmaintain ing
Ġburg lary
Ġthr one
Ġpaste urised
Ġpix els
Ġbuzz ard
Ġexec ution
Ġprevent ed
Ġreput able
ores cent
ĠSta cey
wan na
Ġexagger ated
ĠKra mpus
Ġcorrid ors
ĠHer itage
Ġwhist ling
Ġrul ing
ĠMur doch
ĠBur berry
Ġcrown s
Ġstrateg ically
Ġreserv ation
Ġmig rants
Ġdetect ors
Ġoctop uses
Ġplaster ed
ĠAsh kenazi
ĠColl ins
Ġinterpre ting
Ġobserv ant
ĠFree view
sur pr
Ġhipp o
Ġsyn ced
chi ato
Ġspi ky
Ġprotest s
Ġmaid en
ĠNi agara
Ġtrunk s
Ġyawn ing
Ġsculpt ures
Ġunf it
Ġorient ation
Ġmac chiato
Ġacceler ate
Ġacceler ation
ĠAtlant a
ĠTit ica
Ġassault ed
Ġoutsour ced
Ġcrocod iles
Ġnumer acy
Ġcorrespond ence
Ġentreprene urs
Ġpropos als
Ġinh al
Ġsquat ters
Ġmicrowa ving
ĠHal fords
ĠArt ist
ĠBon ne
ĠSe oul
ĠHind u
Ġnutrit ious
Ġprosec ute
Ġcann elloni
Ġappli ance
Ġincorrect ly
Ġanticip ate
Ġanticip ating
jÃ ł
Ġax e
Ġalar med
ĠSol id
Ġmamm als
Ġsala ries
ĠPay pal
Ġcontrad ict
ĠSil ver
ĠBrid es
Ġceilidh s
ĠCI A
Ġfreelan cer
Ġsuperv ise
Ġportray ed
ĠAnge la
Ġliz ard
ĠCoo per
Ġdemol ish
ĠCCG s
Ġnig gers
Ġrepet ition
Ġperse vere
ĠTalk talk
ĠHere ford
Ġvacc ine
Ġdwell ing
Ġsuss ed
Ġhydro gen
Ġspac ing
Ġfav or
ĠTal ent
ĠDem i
ĠWal ker
Ġteabag s
Ġ5 0
ĠMu hammad
Ġcramp ed
ĠCas cada
ĠWorce ster
Ġenrich ment
Ġinfl atable
Ġratt ling
Ġexe mpt
Ġcannibal ism
Ġsher bet
Ġdouch eb
Ġarmp it
Ġarmp its
Ġperfection ist
ĠRug by
ĠRug rats
ĠTemp le
pur ple
ubs cribe
birth day
ĠSin atra
ĠBik eability
Ġenforce ment
ĠHart lepool
Ġelit ism
ĠMoz art
Ġmiscon stru
Ġcasse tte
Ġnic otine
Ġtreas ures
usch witz
Ġconstit u
Ġmiscar riage
Ġgyna ec
Ġloung ing
Ġdup lic
ĠUr ban
Ġcoher ent
Ġprost itute
Ġwholes ale
ĠSev ille
Ġconson ants
Ġdeleg ate
ĠBolog naise
ĠFalk lands
ĠKi wi
Ġheadlight s
Ġoppon ent
Ġcalib re
ĠCypri ot
Ġskelet on
Ġestim ated
Ġbould ering
Ġbart ender
Ġorthod ont
ĠSup reme
ĠClo oney
ĠTes cos
ĠBran son
ĠReven ue
Ġtriang les
Ġregre tting
Ġcaliph ate
Ġbarbecu es
Ġhomeschool ed
ĠChampion ship
ĠOc ean
Ġpostp oned
ĠCli pper
Ġmagist rates
Ġyork shire
Ġgust a
Ġsplin ter
Ġenzy mes
ĠDiam onds
Ġsupervis ors
Ġbombard ed
Ġtraumat ised
anim ous
ĠFris bee
Ġplur als
Ġpaparazz i
amon n
Ġgn ar
Ġnotep ad
ĠDall as
Ġsignpo sted
Ġpsychedel ic
Ġafflu ent
maged don
Ġderm at
Ġtoolk it
Ġincompet ent
Ġdioces e
ĠCi roc
ĠCurt is
ĠPopp ins
Ġplugh ole
Ġmarin ade
Ġapo stro
Ġparl our
Ġtaxpay er
Ġastron aut
Ġmascul ine
Roy ce
ĠWon ka
wyne th
Ġais les
Ġosc ill
Ġhamm ock
Ġquino a
eluj ah
mbuds man
ĠSwa ffham
ĠAllow ance
ĠEner gy
ĠPurs uit
ĠNect ar
ĠJuda ism
Ġwhiteba it
Ġinconsider ate
Ġbinocular s
Ġtoothbru shes
ĠSchmid t
ĠDiCap rio
C la
O kay
T unes
a cade
b ooked
b ank
c ular
c ater
e vent
e fficient
f ound
f ur
f ile
f inal
m ount
m eans
s m
s mo
s ac
v ar
w ild
Ġ lla
Ġa mm
Ġa ik
Ġw iser
er ation
Ġo m
Ġl ending
Ġg lan
st ress
Ġli vid
Ġwe eny
Ġha mbur
Ġgo lly
Ġin fu
Ġin cest
me mber
Ġdo do
Ġk er
Ġk or
th am
Ġj just
Ġj uts
ar ried
Ġst renuous
ch ess
ch arest
Ġcan celling
Ġor nament
Ġat las
ra w
Ġme ese
Ġme owing
Ġmo i
Ġal wa
im m
ge e
ge nder
Ġfro wn
Ġsp ades
ĠS ind
ĠS ierra
ĠC ream
ĠC atch
ree k
Ġoff line
sh ell
ĠA er
ĠA uschwitz
ĠM M
ĠM ust
ĠM am
ĠM ack
ĠM FI
ĠM idsummer
Ġea ger
ĠB il
ĠB order
ĠB ella
ĠB iblical
Ġpa k
Ġpo lling
Ġcl ergy
Ġcl ued
ĠE lect
Ġreme dies
Ġen light
Ġen forced
Ġle ek
ĠF ab
ĠF lo
ĠP ut
ĠP el
ĠP am
ĠP ont
ĠP atsy
Ġun un
ĠG ent
ĠG al
ĠG ad
ĠD obby
ĠD umbledore
ĠW D
ĠW ork
ĠL au
ĠL ottery
are s
ĠCh e
ĠCh ennai
Ġtra ces
Ġtra iling
Ġend angered
Ġmin ion
Ġmin eral
ĠR eme
Ġcour ty
Ġeight ieth
Ġdis orient
ĠO re
Ġhand ling
Ġsl ut
Ġcont ains
Ġad ul
ĠK now
ĠK ath
ĠK ap
Ġcra dle
Ġinter ven
Ġinter mitt
Ġimp rint
Ġwalk able
Ġdec on
itch es
Ġclass y
Ġrid i
Ġbar bie
Ġhang er
Ġmass acre
Ġru mp
Ġtri ggered
Ġdro op
Ġfoot steps
Ġpol io
Ġstr ic
Ġchocolate y
Ġbi as
ĠSt u
Ġtax iderm
Ġcook book
Ġflo ated
Ġeff ing
Ġmother fuck
Ġfan ny
Ġsal ts
ĠWed ding
Ġcomputer ised
ĠCo ventry
Ġbur sting
Ġboo f
Ġfat al
Ġbird y
Ġrem orse
Ġinvol vement
who a
Ġban jo
Ġvar if
Ġcla pped
Ġrad ish
Ġsna re
Ġfig ur
Ġprote ins
Ġdoub ling
Ġge cko
Ġconst ra
ĠCa pe
mar ked
Ġpat rol
Ġsto tty
sp ace
ĠSw ing
Ġpsych ologically
Ġhy phen
ĠPh iladelph
Ġrail ings
ec ided
Ġcompan ion
Ġver min
Ġir responsible
Ġobject ively
ĠBu charest
Ġtro d
Ġshoo ter
Ġcrit ically
Ġtape st
Ġviol ins
Ġvolunt arily
Ġprison er
Ġcloud ed
Ġdama ges
Ġchef let
Ġpill ars
Ġlic ensing
Ġflower y
Ġinflu ences
Ġpun ished
Ġcompar ative
ĠTo mmy
Ġapproach ing
Ġscan ned
Ġocc urs
ĠChar leston
Ġstretch y
ĠCon iston
ĠSa fe
Ġdesper ation
Ġfrust ration
ĠBru no
ĠQu icksilver
Ġgut ters
Ġprep osition
Ġmel ts
Ġlingu ists
under stand
Ġbound ary
Ġbeg ru
ĠTe letext
hi ya
Ġjar gon
Ġcath edrals
Ġpaed o
Ġvir gin
ĠDor othy
ĠPl um
Ġprem ature
Ġled ge
Ġstink y
Ġforth coming
ĠCal pol
Ġdiscard ed
ĠWhite hall
psy ch
Ġhood ies
Ġcomplim ents
Ġcrust y
ĠJen ithon
cont ract
Ġloss es
ĠTri p
yd ro
ĠCol chester
Ġclient ele
pol ice
ĠPlay St
Ġlux urious
Ġhyp nother
Ġmemor able
ĠSpe ed
Ġvict ory
Ġdict ator
Ġrenew al
za a
ĠArgent inian
aff es
spe ed
Ġrival ry
Ġstal ks
Ġoverc ook
Ġgrav itate
ĠCru ise
Ġfulf illed
Ġox id
Ġshred ded
Ġskim med
Ġling o
Ġgrocer y
ĠChihuah uas
Ġbureauc ratic
ĠDj ango
Ġnotic eably
Ġgaw k
Ġacknowled ging
pla ying
Ġmart yr
ĠFer r
ĠMore cambe
Ġtremend ously
Ġrefurb ished
Ġcamoufla ge
ĠVel ma
Ġprest ige
Ġprest igious
Ġnatter ing
Ġhalluc inating
ĠAlf red
Ġgroom ing
Ġimit ate
ĠSomer set
Ġsmu ggling
Ġpatri otic
Ġconqu ered
Ġtad poles
Ġfaj ita
ĠSomal is
Ġtamp ons
ĠFear ne
Ġobli vious
Ġinval id
Ġtorrent ial
Ġhalo gen
Ġfing ertips
Ġblasp he
Ġarist ocracy
Ġconsec utive
ĠFoot ball
ĠJas mine
Ġscal p
Ġairp lane
Ġserviet tes
Ġchrysan themum
Ġhairdry er
Ġkono ba
ĠAlic ante
ĠFed erer
Ġimpul se
Ġcorrug ated
Ġstickle back
partic ularly
ĠEcot ricity
Ġthereab outs
Ġaik ido
ĠPhiladelph ia
G erman
H a
I nd
J u
T esco
W hen
f ig
g ish
g ave
j our
m any
p os
p ean
u ph
v ised
w ings
Ġs ift
Ġy ell
in tern
Ġh have
Ġm ing
re ci
re cy
Ġc can
Ġc uneiform
Ġg an
Ġp iv
st ring
Ġon stage
th i
et to
ar ia
Ġwell being
ch ance
ra cing
Ġch ia
Ġmu shed
ell i
ig er
el p
ĠS no
Ġdi etic
ĠC u
ul ting
Ġint ens
Ġbo sh
ĠA dri
ĠT A
ĠT CP
ĠT iananmen
ĠB ent
Ġeven ly
ant as
ĠP ir
ĠP ul
de velop
ĠG avin
lo st
ĠL ara
Ġafter shave
ĠH alf
ĠH erb
Ġro lly
Ġro tted
ĠJ ules
ĠR u
ĠR olf
Ġfuck ers
ord ered
ĠO J
ph ot
Ġad ren
Ġhead but
Ġstud ious
oc casion
ĠV ill
Ġinv igil
ĠSp y
Ġspo kes
Ġgener ated
ĠSt ill
ĠSt ig
ĠSt ark
Ġfore most
Ġwea ving
Ġtur d
Ġkno bbly
Ġmot ives
sc ary
Ġcollect ive
with in
ĠAf ter
ĠQ uality
Ġstri mmer
ĠNo v
Ġep idemic
Ġtall est
Ġloo m
ĠScot ch
ĠPar a
ĠBla ke
Ġvag inas
Ġgru nting
Ġcompar atively
Ġsteal s
ĠTra cy
cra p
bl ood
Ġyouth ful
Ġsched uled
hu ge
Ġbeep s
nym ous
dri ven
Ġtakea ways
ĠBea gles
ĠMer sey
ĠMer kel
Ġprevent ing
ĠPan cake
Ġpref ab
ĠVod njan
ĠTru ly
ĠBarb ara
SA C
Ġdaffod il
Ġparticip ants
Ġbatch es
ĠBet ter
Ġrein car
Ġcroquet tes
ĠMir anda
supp osed
mod ern
Ġquad ruple
Ġgerb ils
amb ia
ĠSerb ian
Ġlik eable
Ġminer als
Ġcockro aches
Ġgher kin
ĠJac ques
mbur g
rec ord
ĠRos ie
ĠIM DB
ĠAut umn
Ġannot ate
Ġsnu ggle
ĠProf essor
ĠBrea king
ĠEP Q
slaugh ter
P C
P R
S h
c art
f ired
g ame
h ealth
h ours
l ated
o key
p ict
r er
s ers
z ip
Ġa actually
Ġy olo
ea nder
Ġm wah
re v
ut ory
me st
Ġsh atter
Ġu mm
et on
Ġn ay
ro d
od s
Ġba shing
ra il
Ġup coming
qu iry
ill as
im pro
Ġsu l
Ġus her
mp ed
ig li
ĠS zech
ĠT otal
ĠB ug
ru gu
ĠP erson
ĠD ak
ang ed
ĠN ow
co on
co st
Ġdri fting
Ġmar oon
Ġchar coal
ens itive
ĠU rugu
ract ical
Ġwar ts
Ġemp ower
Ġkn ight
ĠMar rake
bb ish
Ġdet ox
Ġbreakfast s
Ġflu ke
cell o
Ġpig let
cuss ions
sy stem
aw s
ĠAr mageddon
Ġshot gun
ana ly
Ġstat utory
ev il
head ed
ĠSim ply
ĠTo ad
ray on
Ġmer cury
comp an
ĠBro ke
care ful
nor th
Ġalternative ly
fla ke
Ġorch id
ĠGlas wegian
ĠCra zy
fam ous
Ġintention al
Ġamp le
ĠSe vent
bus iness
Mr s
ĠBird s
stay ed
ĠChuck ie
ĠPrest on
fal z
Ġbabys itter
ĠWeym outh
ĠUrugu ay
6 6
A ustral
D e
E nders
H IL
O C
O D
R L
R ight
S eptember
T alk
W ales
a phone
a gher
b aby
b usters
c row
c ute
c cess
c cas
d ogs
e la
h ar
h ound
h ini
h ouses
i lan
j ast
j ords
k no
l ength
l ophone
m ish
m inder
n ics
o id
o ciation
p i
p izza
p owers
s at
t inent
u its
u ating
v ita
y yeah
y don
Ä ĩ
Ġt s
Ġt t
Ġt ep
Ġt ying
Ġt iling
Ġth ai
Ġa all
Ġw er
Ġw icket
Ġw iring
Ġi gn
ou ston
Ġs I
Ġs erm
Ġs co
Ġs ided
Ġs someone
Ġy oy
Ġy elling
Ġy olks
er te
er ian
in ner
in nit
Ġo d
Ġo regano
Ġo mbudsman
Ġb ong
Ġb leep
at ty
at ross
at to
Ġd ell
Ġd ived
Ġm un
re ll
ll i
ll ie
ll ia
Ġl urch
Ġl ug
Ġl uc
Ġc you
Ġc ures
no by
ing ham
Ġg na
Ġg lace
Ġg ingers
Ġg assy
Ġf ol
Ġf jords
Ġto i
Ġto ppings
gh i
Ġp ent
Ġp ran
en ough
en iality
Ġli mo
Ġli lies
Ġli bert
Ġwh izzing
Ġno ve
Ġno is
Ġno ok
es u
Ġgo nd
Ġgo th
Ġgo ry
la gged
ut ic
Ġin capable
Ġin advert
Ġbe ver
Ġbe before
Ġbe etle
Ġr us
Ġr ays
me l
id ian
id ium
Ġk udos
Ġer rors
Ġer oded
ic ab
le qu
Ġj an
Ġj ean
Ġj une
Ġj ams
Ġj ohn
Ġu use
Ġe ti
Ġco ped
Ġco ppers
et ah
et ical
ro opy
Ġst ains
Ġst ern
Ġst ocked
Ġfor fe
Ġnot orious
ent in
Ġrea ches
ch ronic
Ġcan es
Ġcan ny
ir m
ir ies
ir ling
ir sk
ct r
ct ica
ith e
nt s
Ġif fy
Ġse l
Ġsa kes
op olitan
Ġab ou
Ġab so
Ġab rupt
ear ms
Ġre nder
Ġre vis
Ġre lied
Ġre ggae
ri on
ri ving
Ġba ba
Ġba ffled
ra p
ra gm
Ġme me
Ġch ir
Ġlo vers
qu oise
Ġmo ccas
Ġthem self
ca ly
ca fÃ©
Ġal o
Ġal way
ff ed
ff ie
Ġsu ing
ter ge
pp ling
pp led
Ġma i
Ġma j
Ġqu ot
Ġqu ince
un sen
Ġtw eak
Ġtw eezers
ound ed
Ġpro state
Ġpe ope
ss a
ss ed
il ocks
Ġti er
Ġex ert
Ġex cell
Ġex quisite
ol ent
ess entially
ig ator
ers en
Ġsp ed
Ġsp ear
Ġsp ind
Ġsp here
Ġsp ike
ĠS ay
ast rous
Ġpla c
Ġpla ice
Ġpla cing
Ġevery o
Ġstu mpy
Ġstu mbled
Ġdi a
Ġdi ver
Ġdi verted
Ġdi aph
Ġdi visions
ĠC e
ĠC re
ĠC and
ĠC are
ĠC ame
ĠC ord
ĠC arling
ĠC rayon
ain ted
ous ine
Ġoff ense
Ġoff set
wh oo
Ġneed y
sh ers
ul ing
Ġint onation
Ġint ensity
Ġbu il
Ġbu dd
Ġbu mmer
Ġbu ggers
Ġbu ndle
ĠA id
ĠA non
ĠA ires
os ol
ĠM ean
ĠM em
ĠM uff
ĠM ears
ĠM ina
ĠM ilton
Ġea ters
ation ally
ĠT ick
ĠT ee
ĠT ale
ĠT eam
ĠT owers
ty m
Ġcon fu
Ġcon sole
Ġde w
Ġde gra
Ġde cking
Ġde comp
ĠB h
ĠB est
ĠB een
ĠB led
ĠB unny
ĠB ucket
ĠB unsen
Ġwork force
Ġar te
Ġpa ces
Ġpa ired
Ġpa cif
Ġv ows
Ġv iolet
Ġover ground
Ġover bite
Ġpre lim
Ġman slaughter
te c
Ġstill s
Ġsi z
Ġhu bs
Ġhu gged
ĠE lf
ĠE ls
ĠE yre
ĠE uston
ment ation
ant or
Ġle v
ĠF M
ĠF ine
ĠF aw
ĠF GM
ĠF isher
pe y
pe utic
ĠP it
ĠP is
ĠP ack
ĠP ope
ĠP ugs
Ġho ist
est ed
Ġun in
Ġun kind
Ġun ethical
Ġcomp le
ĠG lass
ĠG ob
ĠG wyneth
ĠD M
ĠD ic
ĠD aw
ĠD owns
ĠW izz
ĠW eek
Ġlea ked
lo id
us ea
Ġaf ield
ĠL eningrad
Ġpart ridge
Ġsupp orter
ci le
ci ating
Ġpl iers
ath a
ath ing
Ġfun fair
Ġplay list
ĠCh il
ĠCh ubby
Ġtra v
Ġtra it
Ġtra cked
Ġend omet
Ġwan k
ĠH ut
ĠH et
ĠH els
ĠH airy
ĠH usky
ĠH ospital
ĠN ana
Ġmin ions
Ġmin iscu
ny ms
Ġac es
Ġpu ffy
dd ed
Ġnew com
Ġbl ea
Ġbl itz
Ġgra vest
Ġgra fting
Ġper sec
am orph
Ġsc ur
Ġsc um
ĠR ou
ĠR ing
ĠR as
ĠR ud
ĠR unning
ĠR ogen
ĠR isk
Ġhundred th
ta iled
ress ant
ress ively
Ġla ps
Ġla zing
Ġfl or
Ġfl imsy
Ġbla cked
Ġmon u
Ġperson able
Ġdr one
Ġdr eary
ple t
Ġdis li
Ġdis illusion
Ġturn out
lar ing
Ġhi ber
ĠO rd
ĠO live
Ġbus iest
cent re
cent ly
Ġear piece
Ġreal ms
Ġreal isation
Ġpr un
Ġpr isons
ub ers
Ġsl ung
ĠY az
ĠY ears
ĠY ama
son s
Ġchild like
Ġaw a
Ġmor als
Ġmor bid
Ġwait s
mo ving
icke ning
Ġres orts
ĠK ie
ĠK amp
ĠK ier
ĠK emp
Ġcool s
Ġcool ed
Ġhead line
Ġsw ig
Ġsw arm
Ġsw allows
Ġstud enty
Ġrec l
Ġpast ed
Ġpast ries
Ġcra ze
Ġinter vention
Ġhelp ers
lish ed
Ġchar mer
ap ist
Ġimp ose
up a
Ġspe ck
Ġima gery
Ġcomm uter
Ġnu ances
Ġdep rived
Ġdec imal
Ġju ry
ens us
ĠEnglish man
Ġroad ie
Ġrid ge
ĠU lan
for get
Ġmet ro
ĠV iber
Ġcor ned
Ġdra stic
Ġstand still
Ġbar rels
Ġpub erty
Ġchange over
Ġfo ss
Ġru gs
Ġmess enger
Ġexp an
Ġexp ats
ater al
Ġmiss p
Ġmiss iles
Ġinv aded
Ġtri ppy
Ġind uced
Ġbra g
Ġbra mbles
Ġacc using
ĠSp ice
ĠSp ort
Ġsim ile
Ġlisten ers
Ġnumber ed
Ġpol terge
Ġred cur
man ces
Ġpop pers
Ġcons ensus
Ġve ter
Ġve to
Ġap ar
Ġap ology
Ġinc re
Ġmatter ed
Ġsy m
ouch e
Ġcur lers
Ġbeaut ician
Ġgreen gro
tw ice
Ġintern ationally
Ġins ert
Ġins ists
Ġstupid ity
Ġsqu irt
Ġsqu ared
Ġair s
Ġgroup ies
Ġbeh old
Ġfit test
Ġconf essions
Ġconf isc
cer ine
cer ting
Ġclear ance
Ġton er
Ġreg ulate
Ġsca bs
Ġwar riors
Ġsuper powers
Ġcr Ã¨
Ġextra d
ograph ies
Ġtrans formed
Ġaff ili
ns ley
Ġmill ennium
Ġemp irical
Ġsub standard
ken ed
Ġz l
Ġz ÅĤ
Ġgar bage
Ġclean se
Ġsad s
Ġsm udge
con f
ĠCo e
ex istent
ex pensive
Ġwood pe
Ġboo bies
Ġdist ress
Ġwea ning
Ġwea sel
ĠAmerican isms
Ġpract iced
ob ao
oun cer
Ġfre ckles
Ġpush y
Ġcu mber
Ġaccount ants
Ġtur nt
Ġtur quoise
ĠFran co
ĠNor a
Ġnor ms
Ġnor therner
Ġrem ix
Ġresearch ers
Ġaut ograph
Ġprof ound
Ġprof essions
Ġview ings
Ġview point
ĠInd o
Ġroll ers
Ġroll ie
Ġdu o
Ġdu rable
Ġdu vets
Ġsnow s
Ġopt ical
Ġopt ician
Ġsmo kers
ton a
Ġskin nier
Ġball room
Ġball erina
ĠZ an
Ġvill ains
Ġvar iant
Ġcla use
Ġinf lict
Ġsex ism
Ġtoilet ries
Ġstation ed
ĠDe ms
ĠDe mo
ĠDe cker
ĠDe irdre
Ġclever ly
Ġpack aged
Ġmouth piece
Ġbutter milk
Ġpower ing
Ġcamer aman
Ġstar ved
Ġrout ines
bour n
Ġcal ves
Ġnotice board
sy l
Ġengine ered
Ġfight ers
ĠTw in
Ġemb oss
Ġsla ving
Ġsil ky
Ġsil ks
cl eaning
Ġpet ition
oph agus
Ġge ms
Ġson nets
ĠSh ort
friend s
Ġstri ped
Ġstri ppers
Ġnorth east
Ġpublic ation
ĠBar nsley
Ġrecogn isable
Ġexam iners
Ġcap itals
atic an
Ġbas i
Ġbas in
Ġep ile
ĠSouth east
Ġappro priately
ien ces
Ġye yes
Ġcrea ses
Ġloo ps
Ġloo py
ĠMo vie
Ġfarm house
Ġhole y
Ġgran ary
Ġpaint brush
Ġlog os
Ġincl usive
Ġdisc reet
Ġvi per
Ġet chings
Ġroast s
Ġgri me
Ġwhis king
ĠGree ks
Ġpsych ometric
sk an
ĠSo viet
[...]
