{"<s>":0,"<pad>":1,"</s>":2,"<unk>":3,"<mask>":4,"!":5,"\"":6,"#":7,"$":8,"%":9,"&":10,"'":11,"(":12,")":13,"*":14,"+":15,",":16,"-":17,".":18,"/":19,"0":20,"1":21,"2":22,"3":23,"4":24,"5":25,"6":26,"7":27,"8":28,"9":29,":":30,";":31,"<":32,"=":33,">":34,"?":35,"@":36,"A":37,"B":38,"C":39,"D":40,"E":41,"F":42,"G":43,"H":44,"I":45,"J":46,"K":47,"L":48,"M":49,"N":50,"O":51,"P":52,"Q":53,"R":54,"S":55,"T":56,"U":57,"V":58,"W":59,"X":60,"Y":61,"Z":62,"[":63,"\\":64,"]":65,"^":66,"_":67,"`":68,"a":69,"b":70,"c":71,"d":72,"e":73,"f":74,"g":75,"h":76,"i":77,"j":78,"k":79,"l":80,"m":81,"n":82,"o":83,"p":84,"q":85,"r":86,"s":87,"t":88,"u":89,"v":90,"w":91,"x":92,"y":93,"z":94,"{":95,"|":96,"}":97,"~":98,"¡":99,"¢":100,"£":101,"¤":102,"¥":103,"¦":104,"§":105,"¨":106,"©":107,"ª":108,"«":109,"¬":110,"®":111,"¯":112,"°":113,"±":114,"²":115,"³":116,"´":117,"µ":118,"¶":119,"·":120,"¸":121,"¹":122,"º":123,"»":124,"¼":125,"½":126,"¾":127,"¿":128,"À":129,"Á":130,"Â":131,"Ã":132,"Ä":133,"Å":134,"Æ":135,"Ç":136,"È":137,"É":138,"Ê":139,"Ë":140,"Ì":141,"Í":142,"Î":143,"Ï":144,"Ð":145,"Ñ":146,"Ò":147,"Ó":148,"Ô":149,"Õ":150,"Ö":151,"×":152,"Ø":153,"Ù":154,"Ú":155,"Û":156,"Ü":157,"Ý":158,"Þ":159,"ß":160,"à":161,"á":162,"â":163,"ã":164,"ä":165,"å":166,"æ":167,"ç":168,"è":169,"é":170,"ê":171,"ë":172,"ì":173,"í":174,"î":175,"ï":176,"ð":177,"ñ":178,"ò":179,"ó":180,"ô":181,"õ":182,"ö":183,"÷":184,"ø":185,"ù":186,"ú":187,"û":188,"ü":189,"ý":190,"þ":191,"ÿ":192,"Ā":193,"ā":194,"Ă":195,"ă":196,"Ą":197,"ą":198,"Ć":199,"ć":200,"Ĉ":201,"ĉ":202,"Ċ":203,"ċ":204,"Č":205,"č":206,"Ď":207,"ď":208,"Đ":209,"đ":210,"Ē":211,"ē":212,"Ĕ":213,"ĕ":214,"Ė":215,"ė":216,"Ę":217,"ę":218,"Ě":219,"ě":220,"Ĝ":221,"ĝ":222,"Ğ":223,"ğ":224,"Ġ":225,"ġ":226,"Ģ":227,"ģ":228,"Ĥ":229,"ĥ":230,"Ħ":231,"ħ":232,"Ĩ":233,"ĩ":234,"Ī":235,"ī":236,"Ĭ":237,"ĭ":238,"Į":239,"į":240,"İ":241,"ı":242,"Ĳ":243,"ĳ":244,"Ĵ":245,"ĵ":246,"Ķ":247,"ķ":248,"ĸ":249,"Ĺ":250,"ĺ":251,"Ļ":252,"ļ":253,"Ľ":254,"ľ":255,"Ŀ":256,"ŀ":257,"Ł":258,"ł":259,"Ń":260,"Ġt":261,"Ġth":262,"Ġa":263,"Ġw":264,"Ġi":265,"ou":266,"Ġs":267,"Ġy":268,"Ġthe":269,"..":270,"er":271,"in":272,"Ġo":273,"ea":274,"ĠI":275,"Ġh":276,"Ġb":277,"at":278,"nd":279,"Ġd":280,"Ġm":281,"Ġit":282,"Ġyou":283,"re":284,"ll":285,"Ġl":286,"Ġc":287,"no":288,"ing":289,"Ġg":290,"'s":291,"Ġ..":292,"eah":293,"Ġ...":294,"Ġand":295,"on":296,"Ġf":297,"Ġto":298,"ve":299,"ke":300,"gh":301,"Ġthat":302,"Ġyeah":303,"Ġp":304,"st":305,"en":306,"Ġli":307,"Ġwa":308,"Ġwh":309,"Ġso":310,"'t":311,"Ġno":312,"Ġwe":313,"it":314,"Ġha":315,"?.":316,"es":317,"Ġlike":318,"Ġgo":319,"or":320,"Ġof":321,"la":322,"ut":323,"Ġin":324,"an":325,"Ġon":326,"Ġbe":327,"Ġr":328,"me":329,"ay":330,"Ġwas":331,"ed":332,"Ġdo":333,"Ġthey":334,"id":335,"Ġk":336,"th":337,"is":338,"Ġer":339,"ugh":340,"Ġis":341,"Ġsh":342,"laugh":343,"laughs":344,"Ġ&":345,"ic":346,"le":347,"Ġj":348,"Ġbut":349,"se":350,"Ġu":351,"ust":352,"Ġe":353,"Ġhe":354,"ld":355,"Ġco":356,"now":357,"ght":358,"Ġknow":359,"et":360,"lly":361,"Ġjust":362,"ar":363,"ly":364,"Ġn":365,"Ġhave":366,"ver":367,"Ġoh":368,"Ġwhat":369,"Ġdon":370,"ro":371,"ere":372,"ight":373,"Ġthere":374,"Ġst":375,"out":376,"Ġmm":377,"ould":378,"Ġwell":379,"ink":380,"Ġfor":381,"Ġshe":382,"Ġnot":383,"ent":384,"Ġrea":385,"Ġthink":386,"oo":387,"ch":388,"'re":389,"Ġerm":390,"Ġcan":391,"'ve":392,"Ġsome":393,"Ġan":394,"Ġgot":395,"Ġdid":396,"ir":397,"ct":398,"Ġget":399,"Ġthen":400,"ith":401,"Ġ=":402,"Ġone":403,"nt":404,"Ġreally":405,"Ġif":406,"Ġthis":407,"ow":408,"Ġ.":409,"al":410,"Ġse":411,"Ġall":412,"Ġwith":413,"Ġor":414,"yeah":415,"Ġsa":416,"ck":417,"'m":418,"Ġmy":419,"Ġat":420,"od":421,"op":422,"Ġab":423,"Ġare":424,"Ġas":425,"ear":426,"Ġne":427,"Ġcos":428,"Ġre":429,"Ġ&=":430,"thing":431,"ri":432,"very":433,"Ġba":434,"ra":435,"ion":436,"Ġme":437,"Ġch":438,"Ġup":439,"Ġyour":440,"ce":441,"Ġlo":442,"ally":443,"our":444,"Ġwould":445,"Ġwhen":446,"Ġabout":447,"qu":448,"ther":449,"Ġmo":450,"'ll":451,"Ġthem":452,"ill":453,"ca":454,"Ġhad":455,"Ġout":456,"Ġthing":457,"Ġany":458,"one":459,"Ġright":460,"Ġal":461,"ff":462,"Ġmea":463,"im":464,"na":465,"Ġsu":466,"ite":467,"Ġsay":468,"ook":469,"ter":470,"pp":471,"Ġma":472,"Ġwere":473,"Ġqu":474,"ind":475,"ge":476,"use":477,"Ġwor":478,"mm":479,"Ġgood":480,"un":481,"Ġthou":482,"Ġtw":483,"and":484,"cause":485,"Ġmean":486,"Ġyes":487,"ry":488,"Ġsaid":489,"ound":490,"Ġpro":491,"Ġwant":492,"ive":493,"Ġmu":494,"Ġpe":495,"Ġca":496,"Ġsee":497,"Ġbecause":498,"Ġbit":499,"ss":500,"'d":501,"ice":502,"ople":503,"Ġpeople":504,"Ġgoing":505,"kay":506,"Ġcould":507,"way":508,"Ġta":509,"ur":510,"Ġhow":511,"Ġher":512,"il":513,"Ġdidn":514,"Ġsor":515,"Ġdoes":516,"Ġlook":517,"wn":518,"Ġnow":519,"ad":520,"tt":521,"ine":522,"Ġti":523,"onna":524,"Ġex":525,"Ġgonna":526,"rea":527,"Ġokay":528,"Ġus":529,"ab":530,"ell":531,"Ġwho":532,"mp":533,"ol":534,"Ġact":535,"ually":536,"Ġfro":537,"ess":538,"Ġsomething":539,"art":540,"king":541,"Ġfrom":542,"ig":543,"oh":544,"Ġtime":545,"Ġvery":546,"el":547,"ven":548,"ers":549,"Ġbeen":550,"mb":551,"Ġsp":552,"ma":553,"Ġquite":554,"ĠS":555,"ate":556,"ast":557,"Ġactually":558,"Ġput":559,"Ġpla":560,"Ġevery":561,"Ġwhere":562,"Ġback":563,"Ġstu":564,"Ġdi":565,"Ġsort":566,"ĠC":567,"ich":568,"Ġtwo":569,"Ġmore":570,"ree":571,"ain":572,"ous":573,"Ġfa":574,"ep":575,"Ġhim":576,"Ġoff":577,"ong":578,"wh":579,"ting":580,"Ġneed":581,"sh":582,"ul":583,"ose":584,"Ġint":585,"Ġprob":586,"Ġbu":587,"ot":588,"Ġother":589,"Ġwhy":590,"Ġnice":591,"Ġbo":592,"Ġlot":593,"Ġisn":594,"Ġyear":595,"ish":596,"ough":597,"Ġhis":598,"Ġwhich":599,"Ġdown":600,"so":601,"ĠA":602,"Ġfe":603,"ked":604,"Ġthan":605,"Ġday":606,"Ġkind":607,"Ġag":608,"Ġwent":609,"os":610,"ard":611,"Ġthings":612,"ĠM":613,"Ġmuch":614,"Ġea":615,"mber":616,"Ġhere":617,"Ġdoing":618,"ation":619,"Ġcome":620,"be":621,"ttle":622,"lf":623,"ĠT":624,"Ġonly":625,"ably":626,"ving":627,"ore":628,"Ġthought":629,"ty":630,"if":631,"day":632,"Ġcon":633,"Ġtake":634,"end":635,"Ġmake":636,"Ġde":637,"ĠB":638,"red":639,"Ġway":640,"Ġwork":641,"Ġar":642,"Ġtoo":643,"ie":644,"Ġhas":645,"Ġthough":646,"Ġlittle":647,"Ġpa":648,"Ġpo":649,"Ġstuff":650,"Ġv":651,"Ġeven":652,"Ġprobably":653,"Ġshould":654,"Ġwee":655,"Ġover":656,"Ġpre":657,"Ġdoesn":658,"Ġmight":659,"Ġman":660,"Ġwill":661,"ick":662,"right":663,"te":664,"Ġstill":665,"Ġum":666,"Ġcl":667,"Ġsi":668,"om":669,"Ġdiff":670,"Ġhu":671,"ies":672,"Ġmay":673,"ide":674,"Ġtheir":675,"ru":676,"Ġah":677,"ĠE":678,"Ġthese":679,"Ġlove":680,"Ġbig":681,"ble":682,"Ġnever":683,"Ġused":684,"ment":685,"Ġthree":686,"ond":687,"ways":688,"Ġ....":689,"Ġreme":690,"Ġremember":691,"ant":692,"Ġby":693,"Ġinto":694,"Ġen":695,"Ġgu":696,"ious":697,"Ġalways":698,"Ġle":699,"Ġfu":700,"Ġwat":701,"ĠF":702,"well":703,"ure":704,"per":705,"pe":706,"ning":707,"ĠP":708,"Ġwasn":709,"Ġdone":710,"Ġho":711,"you":712,"Ġhapp":713,"ort":714,"Ġstart":715,"ng":716,"est":717,"Ġtal":718,"Ġweek":719,"Ġbet":720,"Ġmaybe":721,"ood":722,"ody":723,"Ġke":724,"fore":725,"Ġhaven":726,"Ġanything":727,"Ġdiffer":728,"xt":729,"Ġtry":730,"Ġun":731,"Ġph":732,"Ġcar":733,"Ġthose":734,"irst":735,"Ġuh":736,"Ġcomp":737,"int":738,"Ġlast":739,"de":740,"ĠG":741,"Ġwouldn":742,"ĠD":743,"Ġlong":744,"Ġbefore":745,"ist":746,"ity":747,"Ġfirst":748,"ĠW":749,"Ġcom":750,"Ġlea":751,"age":752,"lo":753,"Ġcall":754,"act":755,"Ġagain":756,"but":757,"erm":758,"the":759,"Ġcou":760,"Ġlet":761,"Ġsaying":762,"body":763,"Ġsure":764,"Ġour":765,"us":766,"Ġtell":767,"Ġaf":768,"ne":769,"Ġmum":770,"Ġdifferent":771,"ĠL":772,"Ġpart":773,"Ġsame":774,"Ġfour":775,"Ġgive":776,"Ġjo":777,"Ġsupp":778,"that":779,"Ġafter":780,"ouse":781,"oney":782,"Ġwr":783,"ci":784,"we":785,"Ġfeel":786,"Ġtea":787,"Ġ?.":788,"enty":789,"Ġpl":790,"ath":791,"are":792,"Ġfun":793,"Ġsix":794,"Ġob":795,"Ġanyway":796,"row":797,"Ġalright":798,"Ġplay":799,"ool":800,"ang":801,"ĠCh":802,"Ġmoney":803,"rough":804,"ild":805,"Ġold":806,"Ġ'":807,"ead":808,"ame":809,"ms":810,"Ġtra":811,"Ġthrough":812,"Ġgetting":813,"Ġyears":814,"Ġhappen":815,"ag":816,"iously":817,"all":818,"riend":819,"ird":820,"Ġend":821,"ute":822,"pt":823,"Ġread":824,"ever":825,"Ġbeing":826,"Ġdad":827,"Ġhouse":828,"Ġtwenty":829,"sic":830,"nder":831,"Ġwon":832,"Ġwan":833,"Ġgod":834,"Ġfive":835,"ise":836,"ĠH":837,"ft":838,"Ġbad":839,"ĠN":840,"Ġmin":841,"ny":842,"Ġwanna":843,"he":844,"Ġano":845,"Ġround":846,"Ġac":847,"Ġnight":848,"Ġapp":849,"ounds":850,"Ġwatch":851,"Ġpu":852,"Ġte":853,"Ġro":854,"ile":855,"li":856,"ĠJ":857,"Ġobv":858,"Ġnext":859,"Ġsch":860,"Ġanother":861,"Ġfind":862,"Ġten":863,"imes":864,"yes":865,"where":866,"Ġuse":867,"dd":868,"Ġhalf":869,"Ġel":870,"ps":871,"urn":872,"reat":873,"co":874,"Ġnew":875,"Ġche":876,"Ġbl":877,"Ġfine":878,"Ġpay":879,"Ġaround":880,"Ġgra":881,"um":882,"fe":883,"Ġper":884,"Ġkeep":885,"ence":886,"Ġhaving":887,"am":888,"Ġobviously":889,"self":890,"ran":891,"Ġeverything":892,"Ġelse":893,"Ġsc":894,"Ġhome":895,"Ġunder":896,"Ġschool":897,"what":898,"ndred":899,"ue":900,"Ġsorry":901,"ĠR":902,"Ġhundred":903,"Ġhour":904,"Ġfuck":905,"ord":906,"Ġlive":907,"Ġones":908,"Ġbetter":909,"Ġhear":910,"Ġfriend":911,"Ġeat":912,"Ġcour":913,"Ġmany":914,"pen":915,"Ġwal":916,"unno":917,"Ġpoint":918,"read":919,"ta":920,"Ġid":921,"Ġeight":922,"Ġcame":923,"Ġpers":924,"Ġthank":925,"rm":926,"ts":927,"Ġmust":928,"ress":929,"Ġalso":930,"Ġaway":931,"Ġdunno":932,"ful":933,"Ġam":934,"Ġbuy":935,"Ġla":936,"Ġfl":937,"Ġmade":938,"Ġbook":939,"Ġsomeone":940,"Ġbla":941,"Ġguy":942,"ary":943,"Ġsit":944,"actly":945,"Ġmon":946,"Ġperson":947,"iss":948,"Ġfif":949,"Ġcouldn":950,"Ġtalking":951,"ought":952,"erest":953,"Ġdr":954,"Ġenough":955,"Ġthinking":956,"Ġwhatever":957,"rist":958,"Ġcalled":959,"Ġcoming":960,"ple":961,"Ġjob":962,"Ġstop":963,"tty":964,"Ġseen":965,"rd":966,"Ġinterest":967,"as":968,"Ġcourse":969,"Ġdri":970,"Ġlooking":971,"gg":972,"ily":973,"Ġown":974,"Ġexactly":975,"Ġwhole":976,"Ġdis":977,"Ġplace":978,"Ġturn":979,"lar":980,"ian":981,"Ġpretty":982,"Ġhi":983,"Ġbr":984,"Ġgone":985,"Ġever":986,"land":987,"ĠO":988,"les":989,"Ġshow":990,"Ġfew":991,"ict":992,"Ġidea":993,"ions":994,"Ġfunny":995,"vers":996,"Ġmar":997,"Ġmonth":998,"Ġbus":999,"Ġthir":1000,"Ġgoes":1001,"iday":1002,"ia":1003,"Ġtrying":1004,"teen":1005,"Ġmove":1006,"Ġrun":1007,"ads":1008,"cent":1009,"Ġsuppose":1010,"Ġaren":1011,"Ġroo":1012,"ult":1013,"Ġgir":1014,"Ġleft":1015,"lass":1016,"ried":1017,"Ġear":1018,"ces":1019,"Ġweird":1020,"Ġhard":1021,"ory":1022,"Ġmost":1023,"Ġdef":1024,"Ġlovely":1025,"ect":1026,"Ġwanted":1027,"Ġreal":1028,"Ġpr":1029,"they":1030,"eal":1031,"ha":1032,"Ġtoday":1033,"Ġlooks":1034,"Ġsays":1035,"Ġword":1036,"ub":1037,"Ġem":1038,"Ġdrink":1039,"Ġeveryone":1040,"og":1041,"ire":1042,"Ġhand":1043,"ĠEng":1044,"ner":1045,"Ġtold":1046,"side":1047,"ert":1048,"Ġplea":1049,"Ġphone":1050,"Ġfin":1051,"Ġbasic":1052,"ather":1053,"Ġsl":1054,"ward":1055,"Ġgreat":1056,"ĠChrist":1057,"ren":1058,"ĠY":1059,"Ġbro":1060,"Ġhel":1061,"Ġlife":1062,"Ġtru":1063,"ip":1064,"son":1065,"Ġmind":1066,"mas":1067,"Ġchild":1068,"Ġstay":1069,"Ġaw":1070,"Ġhor":1071,"Ġsec":1072,"Ġmor":1073,"Ġfar":1074,"ark":1075,"Ġdays":1076,"ph":1077,"Ġproble":1078,"Ġwait":1079,"ooked":1080,"Ġgirl":1081,"Ġwhe":1082,"vent":1083,"Ġcont":1084,"mo":1085,"Ġcount":1086,"Ġad":1087,"Ġbea":1088,"ance":1089,"able":1090,"Ġnothing":1091,"sol":1092,"Ġname":1093,"inite":1094,"Ġfam":1095,"Ġtop":1096,"Ġsaw":1097,"Ġmat":1098,"Ġtalk":1099,"ated":1100,"icke":1101,"Ġres":1102,"Ġfucking":1103,"vel":1104,"ither":1105,"Ġable":1106,"Ġtom":1107,"Ġloads":1108,"ĠK":1109,"Ġser":1110,"Ġcool":1111,"Ġshit":1112,"Ġonce":1113,"Ġleave":1114,"Ġbasically":1115,"initely":1116,"Ġhead":1117,"Ġmorning":1118,"Ġshop":1119,"solute":1120,"Ġsw":1121,"Ġcouple":1122,"by":1123,"Ġkid":1124,"Ġteach":1125,"Ġstud":1126,"een":1127,"Ġseven":1128,"do":1129,"Ġthirty":1130,"ange":1131,"Ġrec":1132,"Ġwater":1133,"Ġwrong":1134,"Ġfil":1135,"ĠChristmas":1136,"ign":1137,"Ġpast":1138,"mer":1139,"ount":1140,"Ġtrue":1141,"Ġcra":1142,"Ġbed":1143,"air":1144,"ling":1145,"Ġeas":1146,"eren":1147,"ah":1148,"Ġdefinitely":1149,"Ġhot":1150,"times":1151,"ying":1152,"Ġroom":1153,"Ġopen":1154,"Ġinter":1155,"ib":1156,"Ġstarted":1157,"Ġhelp":1158,"Ġabsolute":1159,"Ġtook":1160,"ron":1161,"lish":1162,"oc":1163,"Ġsk":1164,"Ġpounds":1165,"Ġgr":1166,"Ġfree":1167,"Ġsomebody":1168,"Ġnorm":1169,"Ġfood":1170,"Ġworking":1171,"Ġchar":1172,"Ġsometimes":1173,"ten":1174,"Ġbrea":1175,"Ġplease":1176,"ese":1177,"Ġbought":1178,"Ġweren":1179,"eak":1180,"Ġfair":1181,"Ġset":1182,"get":1183,"Ġside":1184,"Ġago":1185,"Ġinteresting":1186,"gine":1187,"Ġsma":1188,"Ġhop":1189,"Ġask":1190,"Ġeither":1191,"Ġcoo":1192,"utes":1193,"sand":1194,"Ġeach":1195,"Ġgotta":1196,"Ġthousand":1197,"ster":1198,"ap":1199,"orrow":1200,"Ġminutes":1201,"Ġimp":1202,"ready":1203,"onder":1204,"up":1205,"Ġwhile":1206,"Ġtr":1207,"ons":1208,"Ġlist":1209,"Ġalready":1210,"Ġwhether":1211,"Ġless":1212,"uck":1213,"ular":1214,"Ġgets":1215,"Ġproblem":1216,"Ġele":1217,"stand":1218,"Ġlear":1219,"rible":1220,"Ġwalk":1221,"gether":1222,"Ġlooked":1223,"Ġwow":1224,"Ġabsolutely":1225,"Ġbel":1226,"Ġsomewhere":1227,"Ġguess":1228,"ised":1229,"Ġwonder":1230,"osed":1231,"ix":1232,"Ġfriends":1233,"ross":1234,"Ġyet":1235,"Ġbest":1236,"Ġtrain":1237,"Ġboth":1238,"less":1239,"Ġspe":1240,"Ġima":1241,"leep":1242,"ac":1243,"ace":1244,"Ġtogether":1245,"Ġnear":1246,"zing":1247,"ical":1248,"Ġcat":1249,"Ġcomm":1250,"Ġnu":1251,"Ġsmall":1252,"okay":1253,"Ġdep":1254,"Ġcard":1255,"Ġdec":1256,"Ġunderstand":1257,"Ġeh":1258,"Ġsecond":1259,"ual":1260,"Ġhol":1261,"Ġfact":1262,"Ġwom":1263,"Ġfound":1264,"Ġsounds":1265,"gs":1266,"Ġsuch":1267,"Ġgrand":1268,"ves":1269,"ertain":1270,"Ġgen":1271,"Ġhours":1272,"Ġfinish":1273,"Ġdoor":1274,"Ġfifty":1275,"Ġkne":1276,"ings":1277,"Ġty":1278,"to":1279,"she":1280,"Ġboy":1281,"Ġhigh":1282,"Ġju":1283,"iz":1284,"Ġproper":1285,"Ġweeks":1286,"Ġhappened":1287,"Ġtimes":1288,"ens":1289,"Ġtomorrow":1290,"ĠEnglish":1291,"itch":1292,"pect":1293,"Ġheard":1294,"Ġpass":1295,"Ġpict":1296,"Ġsur":1297,"unch":1298,"Ġuni":1299,"oot":1300,"Ġmoment":1301,"lete":1302,"ents":1303,"ved":1304,"ket":1305,"cess":1306,"Ġpicture":1307,"Ġroad":1308,"Ġmine":1309,"Ġclass":1310,"Ġrid":1311,"Ġstra":1312,"Ġdear":1313,"du":1314,"ction":1315,"Ġcut":1316,"Ġrather":1317,"ean":1318,"Ġmakes":1319,"Ġhell":1320,"like":1321,"cos":1322,"rit":1323,"Ġliter":1324,"Ġcare":1325,"Ġyoung":1326,"rent":1327,"Ġwear":1328,"Ġgre":1329,"Ġfamily":1330,"Ġdes":1331,"Ġquest":1332,"med":1333,"ĠU":1334,"for":1335,"Ġunt":1336,"ger":1337,"Ġhope":1338,"Ġrest":1339,"Ġmaking":1340,"Ġreason":1341,"Ġlots":1342,"Ġama":1343,"Ġplan":1344,"ork":1345,"ester":1346,"Ġlight":1347,"arent":1348,"ee":1349,"any":1350,"ĠTh":1351,"ract":1352,"Ġholiday":1353,"Ġmet":1354,"Ġmil":1355,"Ġmonths":1356,"Ġphot":1357,"Ġfull":1358,"Ġuntil":1359,"Ġcomes":1360,"ĠV":1361,"inet":1362,"ave":1363,"iv":1364,"ank":1365,"Ġrecord":1366,"atur":1367,"Ġkids":1368,"Ġimagine":1369,"Ġbelie":1370,"Ġhasn":1371,"Ġcertain":1372,"Ġuhu":1373,"cial":1374,"Ġext":1375,"lock":1376,"ince":1377,"Ġrep":1378,"Ġcomplete":1379,"ste":1380,"Ġrel":1381,"Ġnine":1382,"Ġblack":1383,"Ġinst":1384,"Ġknew":1385,"Ġbuild":1386,"five":1387,"Ġbir":1388,"Ġmid":1389,"ream":1390,"kend":1391,"lic":1392,"how":1393,"Ġcor":1394,"Ġdra":1395,"Ġweekend":1396,"Ġhappy":1397,"Ġchea":1398,"Ġamazing":1399,"eas":1400,"Ġstand":1401,"Ġpres":1402,"cked":1403,"ible":1404,"Ġbreak":1405,"iew":1406,"Ġsleep":1407,"Ġmeans":1408,"Ġeverybody":1409,"Ġwants":1410,"Ġleast":1411,"Ġbar":1412,"Ġsea":1413,"Ġbirth":1414,"Ġspeak":1415,"Ġchildren":1416,"arently":1417,"kes":1418,"Ġquick":1419,"Ġshall":1420,"Ġbring":1421,"Ġface":1422,"ew":1423,"Ġfilm":1424,"Ġpub":1425,"meric":1426,"Ġchange":1427,"Ġhang":1428,"its":1429,"Ġforty":1430,"Ġtaking":1431,"cu":1432,"Ġworld":1433,"ze":1434,"oy":1435,"Ġhair":1436,"Ġmass":1437,"Ġfo":1438,"Ġninet":1439,"rill":1440,"Ġliterally":1441,"ates":1442,"Ġmeet":1443,"Ġoutside":1444,"Ġchang":1445,"there":1446,"Ġanno":1447,"ition":1448,"go":1449,"ĠAmeric":1450,"onest":1451,"Ġru":1452,"ween":1453,"Ġmess":1454,"amp":1455,"Ġapparently":1456,"Ġsend":1457,"ness":1458,"Ġpick":1459,"iting":1460,"Ġexp":1461,"ront":1462,"Ġpound":1463,"Ġpie":1464,"ater":1465,"Ġblood":1466,"outh":1467,"Ġyourself":1468,"esterday":1469,"Ġhonest":1470,"Ġexc":1471,"Ġbelieve":1472,"Ġpot":1473,"Ġmiss":1474,"Ġsing":1475,"Ġinv":1476,"Ġcol":1477,"iant":1478,"room":1479,"ĠSu":1480,"Ġwind":1481,"ti":1482,"Ġyesterday":1483,"Ġbetween":1484,"ating":1485,"Ġtri":1486,"Ġhm":1487,"Ġtable":1488,"Ġsupposed":1489,"lling":1490,"oup":1491,"ato":1492,"Ġind":1493,"Ġdro":1494,"ins":1495,"Ġter":1496,"icken":1497,"Ġpaid":1498,"icult":1499,"Ġdin":1500,"Ġlang":1501,"Ġlate":1502,"uh":1503,"Ġbirthday":1504,"Ġbra":1505,"iness":1506,"Ġsince":1507,"led":1508,"Ġsign":1509,"ocol":1510,"ject":1511,"ier":1512,"Ġcountry":1513,"Ġadd":1514,"Ġlangu":1515,"ĠThe":1516,"ense":1517,"Ġallow":1518,"riday":1519,"ors":1520,"Ġfront":1521,"esday":1522,"Ġhold":1523,"Ġstraight":1524,"Ġparent":1525,"der":1526,"ower":1527,"Ġanyone":1528,"dle":1529,"Ġcoll":1530,"Ġacc":1531,"wards":1532,"Ġquid":1533,"mail":1534,"ĠSp":1535,"Ġchocol":1536,"Ġmusic":1537,"Ġsim":1538,"als":1539,"Ġcheck":1540,"Ġsent":1541,"ack":1542,"Ġfoot":1543,"Ġlisten":1544,"Ġmyself":1545,"bo":1546,"Ġpartic":1547,"ĠFriday":1548,"Ġnumber":1549,"cy":1550,"Ġdifficult":1551,"Ġwrite":1552,"Ġwin":1553,"ted":1554,"Ġpain":1555,"Ġpol":1556,"Ġstr":1557,"Ġcold":1558,"Ġcompletely":1559,"Ġgame":1560,"Ġminute":1561,"pens":1562,"ber":1563,"Ġdrive":1564,"vour":1565,"Ġred":1566,"Ġwithout":1567,"man":1568,"Ġsound":1569,"bs":1570,"Ġhorrible":1571,"Ġspend":1572,"Ġda":1573,"cept":1574,"Ġchicken":1575,"mmer":1576,"Ġbaby":1577,"Ġenj":1578,"ations":1579,"ric":1580,"Ġblah":1581,"Ġhea":1582,"Ġspo":1583,"ail":1584,"zy":1585,"ouble":1586,"Ġseems":1587,"Ġchocolate":1588,"Ġasked":1589,"Ġtext":1590,"Ġpri":1591,"lls":1592,"ced":1593,"Ġmeant":1594,"Ġgener":1595,"Ġpop":1596,"Ġposs":1597,"Ġparticular":1598,"Ġtill":1599,"Ġexpens":1600,"Ġtwel":1601,"Ġmassive":1602,"Ġparents":1603,"Ġcost":1604,"ud":1605,"Ġfifteen":1606,"though":1607,"Ġwhite":1608,"Ġsevent":1609,"Ġcons":1610,"come":1611,"Ġliving":1612,"ited":1613,"gra":1614,"Ġsat":1615,"Ġworked":1616,"Ġplaying":1617,"Ġve":1618,"Ġwoman":1619,"Ġlater":1620,"Ġtype":1621,"rilliant":1622,"Ġart":1623,"not":1624,"Ġarea":1625,"Ġplaces":1626,"Ġcolour":1627,"Ġtried":1628,"Ġexpensive":1629,"nday":1630,"Ġbi":1631,"Ġgard":1632,"Ġap":1633,"Ġinc":1634,"Ġegg":1635,"Ġbusiness":1636,"ock":1637,"Ġterm":1638,"Ġpar":1639,"pped":1640,"Ġemail":1641,"fer":1642,"Ġsoon":1643,"Ġtwelve":1644,"just":1645,"aturday":1646,"ach":1647,"Ġed":1648,"ial":1649,"Ġgave":1650,"Ġquestion":1651,"Ġhuh":1652,"urs":1653,"my":1654,"ics":1655,"fu":1656,"Ġeasy":1657,"Ġbrilliant":1658,"ries":1659,"Ġexper":1660,"gy":1661,"airs":1662,"Ġgrow":1663,"Ġmatter":1664,"Ġnormally":1665,"Ġknows":1666,"ped":1667,"ĠSunday":1668,"most":1669,"Ġmoved":1670,"Ġworks":1671,"Ġlunch":1672,"ames":1673,"ky":1674,"Ġlearn":1675,"range":1676,"ondon":1677,"Ġbox":1678,"ĠSt":1679,"ĠSaturday":1680,"ĠLondon":1681,"ically":1682,"Ġsy":1683,"Ġhate":1684,"Ġbits":1685,"Ġdinner":1686,"elt":1687,"ye":1688,"Ġswe":1689,"Ġlanguage":1690,"did":1691,"Ġtax":1692,"Ġkill":1693,"Ġpercent":1694,"Ġyep":1695,"Ġalong":1696,"Ġcook":1697,"Ġcase":1698,"Ġbor":1699,"Ġes":1700,"Ġstick":1701,"Ġsense":1702,"clock":1703,"ouch":1704,"Ġmiddle":1705,"Ġalthough":1706,"Ġbott":1707,"pr":1708,"Ġclose":1709,"Ġgarden":1710,"Ġent":1711,"Ġstory":1712,"Ġcur":1713,"Ġearly":1714,"wer":1715,"Ġunless":1716,"Ġtaken":1717,"Ġparty":1718,"Ġwash":1719,"Ġexpect":1720,"ffee":1721,"Ġlevel":1722,"Ġusually":1723,"Ġguys":1724,"Ġment":1725,"Ġwatching":1726,"Ġlad":1727,"Ġage":1728,"Ġmain":1729,"Ġfish":1730,"Ġeating":1731,"Ġdepend":1732,"Ġlost":1733,"llow":1734,"Ġbeaut":1735,"nit":1736,"Ġdress":1737,"Ġgreen":1738,"ping":1739,"ming":1740,"cially":1741,"Ġallowed":1742,"Ġneeds":1743,"Ġstup":1744,"icul":1745,"ung":1746,"Ġalmost":1747,"Ġenjoy":1748,"tw":1749,"Ġnormal":1750,"Ġwords":1751,"Ġintern":1752,"rid":1753,"Ġglass":1754,"ages":1755,"Ġcheese":1756,"Ġins":1757,"Ġputting":1758,"Ġstupid":1759,"ative":1760,"key":1761,"Ġwine":1762,"Ġbloody":1763,"Ġshouldn":1764,"Ġsummer":1765,"Ġawful":1766,"Ġflat":1767,"Ġbooks":1768,"Ġsweet":1769,"Ġconvers":1770,"Ġoften":1771,"gest":1772,"Ġgirls":1773,"Ġsqu":1774,"Ġshort":1775,"Ġfla":1776,"aster":1777,"Ġrunning":1778,"icked":1779,"Ġacross":1780,"ef":1781,"ĠChin":1782,"Ġcup":1783,"Ġain":1784,"gin":1785,"Ġhappens":1786,"Ġfinished":1787,"Ġsug":1788,"Ġcent":1789,"ĠBrit":1790,"Ġstre":1791,"Ġtelling":1792,"Ġeleven":1793,"Ġair":1794,"Ġdeal":1795,"Ġring":1796,"Ġworry":1797,"Ġtin":1798,"Ġgroup":1799,"Ġcoffee":1800,"Ġdriving":1801,"Ġworth":1802,"Ġsitting":1803,"Ġpark":1804,"Ġmate":1805,"sel":1806,"ĠNew":1807,"Ġbeh":1808,"Ġfit":1809,"Ġamount":1810,"Ġhuge":1811,"iver":1812,"Ġwalking":1813,"Ġrub":1814,"iet":1815,"Ġconf":1816,"sed":1817,"ereas":1818,"cer":1819,"io":1820,"Ġtest":1821,"Ġhadn":1822,"Ġfelt":1823,"Ġdog":1824,"Ġturned":1825,"Ġflo":1826,"ĠCos":1827,"ife":1828,"why":1829,"Ġeff":1830,"Ġbeautif":1831,"line":1832,"Ġreading":1833,"Ġannoying":1834,"Ġseem":1835,"Ġbrother":1836,"Ġpan":1837,"Ġans":1838,"book":1839,"Ġpost":1840,"Ġcake":1841,"gu":1842,"ital":1843,"Ġ?":1844,"Ġclear":1845,"Ġvis":1846,"Ġkept":1847,"Ġliked":1848,"Ġstudents":1849,"Ġton":1850,"got":1851,"Ġyours":1852,"unk":1853,"Ġages":1854,"Ġsme":1855,"Ġbother":1856,"Ġreg":1857,"Ġcomput":1858,"iculous":1859,"cle":1860,"Ġland":1861,"Ġusing":1862,"Ġsell":1863,"view":1864,"Ġmother":1865,"Ġsca":1866,"ider":1867,"ealth":1868,"Ġfan":1869,"wise":1870,"urch":1871,"ities":1872,"oice":1873,"onday":1874,"els":1875,"Ġblue":1876,"ctor":1877,"Ġwar":1878,"raph":1879,"Ġridiculous":1880,"Ġapart":1881,"res":1882,"mmy":1883,"ices":1884,"Ġass":1885,"ience":1886,"Ġchanged":1887,"Ġbehind":1888,"Ġsurpr":1889,"versity":1890,"Ġsuper":1891,"Ġmanag":1892,"Ġcr":1893,"Ġclo":1894,"Ġluck":1895,"gan":1896,"Ġsixty":1897,"Ġmen":1898,"Ġra":1899,"lad":1900,"Ġfavour":1901,"ĠMonday":1902,"Ġbread":1903,"pecially":1904,"ball":1905,"Ġtakes":1906,"Ġgiven":1907,"earch":1908,"Ġpress":1909,"izz":1910,"ided":1911,"ral":1912,"Ġbeautiful":1913,"Ġdel":1914,"Ġfollow":1915,"Ġwindow":1916,"ational":1917,"Ġpaper":1918,"Ġlikes":1919,"Ġready":1920,"ys":1921,"Ġextra":1922,"vy":1923,"Ġtran":1924,"Ġstrange":1925,"Ġlaugh":1926,"ĠTV":1927,"unt":1928,"because":1929,"ments":1930,"Ġsal":1931,"ips":1932,"Ġorder":1933,"Ġsun":1934,"Ġmod":1935,"Ġbag":1936,"Ġprodu":1937,"Ġfore":1938,"mon":1939,"Ġsho":1940,"four":1941,"port":1942,"ograph":1943,"Ġolder":1944,"ĠWh":1945,"Ġlived":1946,"Ġwhereas":1947,"Ġblo":1948,"Ġnobody":1949,"ters":1950,"ĠIt":1951,"ars":1952,"arling":1953,"lain":1954,"Ġreck":1955,"ĠGerm":1956,"Ġwatched":1957,"Ġthanks":1958,"Ġpull":1959,"Ġtrans":1960,"Ġopp":1961,"Ġcream":1962,"ately":1963,"Ġcompany":1964,"Ġhello":1965,"fully":1966,"Ġmeal":1967,"uro":1968,"ific":1969,"Ġits":1970,"Ġfly":1971,"Ġaff":1972,"ns":1973,"really":1974,"oose":1975,"lan":1976,"Ġmill":1977,"Ġslight":1978,"Ġsong":1979,"olog":1980,"ĠEngland":1981,"Ġfill":1982,"selves":1983,"Ġtown":1984,"Ġna":1985,"Ġespecially":1986,"cing":1987,"ibly":1988,"Ġtouch":1989,"fect":1990,"rench":1991,"ug":1992,"fort":1993,"cks":1994,"Ġcheap":1995,"Ġsister":1996,"Ġtot":1997,"have":1998,"Ġcrazy":1999,"Ġbank":2000,"Ġwarm":2001,"Ġkitch":2002,"Ġemp":2003,"gn":2004,"Ġinnit":2005,"Ġotherwise":2006,"Ġnearly":2007,"ome":2008,"two":2009,"Ġanywhere":2010,"ones":2011,"Ġteacher":2012,"oud":2013,"Ġbottom":2014,"Ġbrought":2015,"Ġpaying":2016,"Ġleg":2017,"Ġjump":2018,"Ġbuilding":2019,"cri":2020,"Ġtonight":2021,"Ġconversation":2022,"Ġspecial":2023,"Ġform":2024,"Ġdarling":2025,"Ġatt":2026,"Ġdead":2027,"Ġreckon":2028,"Ġsub":2029,"Ġhmm":2030,"Ġeighteen":2031,"ken":2032,"dding":2033,"Ġz":2034,"form":2035,"haps":2036,"Ġcover":2037,"Ġfloor":2038,"Ġmed":2039,"when":2040,"Ġspace":2041,"atter":2042,"Ġgar":2043,"Ġevening":2044,"Ġdepends":2045,"Ġhit":2046,"ilt":2047,"Ġcarry":2048,"Ġbusy":2049,"Ġinside":2050,"Ġkitchen":2051,"Ġinstead":2052,"Ġclean":2053,"ising":2054,"ove":2055,"Ġmilk":2056,"ses":2057,"ery":2058,"work":2059,"nesday":2060,"eath":2061,"ĠWed":2062,"Ġice":2063,"Ġanswer":2064,"can":2065,"ks":2066,"rown":2067,"Ġbath":2068,"ĠFrench":2069,"Ġuniversity":2070,"rect":2071,"Ġprogra":2072,"Ġdifference":2073,"Ġrain":2074,"hm":2075,"igh":2076,"Ġforget":2077,"Ġsad":2078,"Ġhist":2079,"Ġmoving":2080,"ned":2081,"ident":2082,"Ġsm":2083,"Ġpen":2084,"ges":2085,"Ġcomputer":2086,"con":2087,"uc":2088,"ĠCo":2089,"ex":2090,"Ġanybody":2091,"Ġslow":2092,"Ġpictures":2093,"Ġbur":2094,"ĠWednesday":2095,"Ġwood":2096,"Ġboo":2097,"Ġpotato":2098,"Ġhous":2099,"Ġworse":2100,"Ġdist":2101,"vis":2102,"Ġgosh":2103,"Ġperhaps":2104,"Ġwea":2105,"Ġcloth":2106,"Ġloc":2107,"Ġbigger":2108,"ĠFace":2109,"Ġmeat":2110,"ĠAmerica":2111,"ridge":2112,"Ġactual":2113,"Ġpiece":2114,"ĠAmerican":2115,"Ġfat":2116,"ilar":2117,"Ġtech":2118,"Ġline":2119,"which":2120,"Ġret":2121,"Ġchurch":2122,"Ġdied":2123,"Ġslightly":2124,"min":2125,"ĠFacebook":2126,"Ġpract":2127,"ursday":2128,"Ġhealth":2129,"Ġwrit":2130,"Ġimport":2131,"ake":2132,"icking":2133,"Ġrubb":2134,"ines":2135,"Ġrent":2136,"urt":2137,"Ġnineteen":2138,"vice":2139,"Ġseeing":2140,"Ġrealise":2141,"py":2142,"Ġdark":2143,"Ġmarried":2144,"osp":2145,"iving":2146,"Ġwriting":2147,"atch":2148,"ob":2149,"Ġev":2150,"Ġfire":2151,"Ġfeeling":2152,"oun":2153,"Ġticke":2154,"Ġsize":2155,"Ġinternet":2156,"Ġtiny":2157,"Ġfre":2158,"Ġkn":2159,"Ġonto":2160,"ature":2161,"Ġpush":2162,"Ġterrible":2163,"Ġfavourite":2164,"rew":2165,"ĠBritish":2166,"Ġexperience":2167,"app":2168,"ĠAnd":2169,"pa":2170,"Ġthrow":2171,"Ġill":2172,"Ġpoor":2173,"ĠThursday":2174,"board":2175,"Ġperfect":2176,"Ġhosp":2177,"Ġlives":2178,"ism":2179,"Ġorgan":2180,"Ġstopped":2181,"Ġbody":2182,"Ġcu":2183,"Ġagainst":2184,"Ġsimilar":2185,"Ġshut":2186,"Ġexamp":2187,"rol":2188,"Ġstrong":2189,"Ġparticularly":2190,"Ġchat":2191,"ied":2192,"stairs":2193,"Ġwomen":2194,"Ġnews":2195,"Ġquickly":2196,"Ġpizz":2197,"Ġpresent":2198,"Ġcross":2199,"ants":2200,"Ġsau":2201,"Ġaccount":2202,"ility":2203,"Ġteam":2204,"ories":2205,"Ġchoose":2206,"Ġinterested":2207,"Ġbird":2208,"Ġwalked":2209,"Ġproperly":2210,"ĠMar":2211,"br":2212,"Ġdecided":2213,"Ġwish":2214,"Ġwall":2215,"Ġfall":2216,"eat":2217,"Ġcamp":2218,"Ġagree":2219,"Ġlonger":2220,"Ġcommun":2221,"Ġtaste":2222,"Ġbegin":2223,"Ġinterview":2224,"Ġtur":2225,"ney":2226,"ĠFran":2227,"Ġrecording":2228,"Ġstreet":2229,"Ġodd":2230,"Ġclothes":2231,"Ġmiles":2232,"po":2233,"dden":2234,"Ġsingle":2235,"Ġdate":2236,"Ġimportant":2237,"fast":2238,"uring":2239,"Ġspr":2240,"ĠEaster":2241,"Ġeye":2242,"Ġeighty":2243,"ĠNor":2244,"Ġninety":2245,"more":2246,"Ġsick":2247,"Ġdouble":2248,"Ġplayed":2249,"Ġprice":2250,"Ġnor":2251,"Ġforward":2252,"Ġforgot":2253,"bu":2254,"Ġveget":2255,"av":2256,"Ġrubbish":2257,"ĠIs":2258,"some":2259,"Ġboard":2260,"Ġbottle":2261,"ught":2262,"Ġmix":2263,"Ġrem":2264,"Ġeasier":2265,"Ġsudden":2266,"une":2267,"Ġcharact":2268,"Ġclub":2269,"this":2270,"Ġelect":2271,"Ġfootball":2272,"Ã©":2273,"Ġoffer":2274,"ield":2275,"Ġneeded":2276,"Ġoc":2277,"Ġhey":2278,"Ġrecent":2279,"ĠTu":2280,"Ġvide":2281,"Ġteaching":2282,"ats":2283,"Ġhistory":2284,"don":2285,"ined":2286,"Ġresearch":2287,"inger":2288,"dy":2289,"Ġthird":2290,"Ġwo":2291,"Ġaut":2292,"used":2293,"Ġmessage":2294,"bb":2295,"Ġwaiting":2296,"Ġpossibly":2297,"em":2298,"ym":2299,"ret":2300,"six":2301,"lier":2302,"ai":2303,"let":2304,"Ġlady":2305,"yed":2306,"Ġoffice":2307,"Ġbike":2308,"Ġboys":2309,"nine":2310,"Ġprof":2311,"Ġseventy":2312,"ills":2313,"ote":2314,"Ġexample":2315,"Ġspent":2316,"gr":2317,"Ġwithin":2318,"Ġview":2319,"Ġweather":2320,"Ġevent":2321,"Ġdrinking":2322,"Ġdet":2323,"ĠInd":2324,"Ġtoile":2325,"Ġsci":2326,"ĠYork":2327,"old":2328,"Ġtast":2329,"ĠSc":2330,"Ġcute":2331,"Ġgiving":2332,"Ġeyes":2333,"Ġroll":2334,"Ġaccent":2335,"set":2336,"Ġcards":2337,"Ġfur":2338,"Ġtend":2339,"eth":2340,"rees":2341,"Ġtotally":2342,"Ġtired":2343,"Ġasking":2344,"Ġdu":2345,"Ġeverywhere":2346,"arter":2347,"Ġcooking":2348,"Ġdoctor":2349,"Ġsnow":2350,"Ġafterno":2351,"pping":2352,"Ġinvol":2353,"velop":2354,"ship":2355,"Ġbecome":2356,"Ġopt":2357,"Ġpur":2358,"Ġiss":2359,"Ġsmo":2360,"ures":2361,"Ġcharge":2362,"Ġcertainly":2363,"par":2364,"Ġfeed":2365,"pes":2366,"com":2367,"Ġpiss":2368,"ĠAust":2369,"Ġquiet":2370,"Ġpos":2371,"Ġhouses":2372,"Ġfast":2373,"Ġcir":2374,"Ġbeer":2375,"eight":2376,"ison":2377,"Ġthemselves":2378,"Ġmention":2379,"aur":2380,"Ġload":2381,"ĠLe":2382,"Ġlose":2383,"Ġpizza":2384,"Ġkno":2385,"Ġsixteen":2386,"Ġsha":2387,"Ġhopefully":2388,"Ġprogram":2389,"ton":2390,"Ġtreat":2391,"Ġearlier":2392,"Ġcity":2393,"Ġorig":2394,"Ġhotel":2395,"Ġtree":2396,"Ġonline":2397,"Ġbreakfast":2398,"Ġpicked":2399,"irt":2400,"Ġfell":2401,"Ġequ":2402,"Ġcy":2403,"uation":2404,"Ġkinda":2405,"Ġsugar":2406,"Ġpolice":2407,"Ġanim":2408,"astic":2409,"Ġskin":2410,"Ġafternoon":2411,"Ġterms":2412,"Ġatta":2413,"ĠGod":2414,"ality":2415,"iced":2416,"Ġball":2417,"Ġtu":2418,"Ġboring":2419,"Ġfourteen":2420,"Ġcatch":2421,"reen":2422,"Ġref":2423,"mbers":2424,"who":2425,"Ġshame":2426,"Ġmot":2427,"Ġhands":2428,"ĠZ":2429,"Ġpriv":2430,"Ġquestions":2431,"cket":2432,"time":2433,"ĠEuro":2434,"Ġbuying":2435,"ets":2436,"erv":2437,"Ġworried":2438,"Ġvill":2439,"anish":2440,"stic":2441,"Ġself":2442,"Ġdie":2443,"Ġdeg":2444,"Ġlearning":2445,"Ġgoodness":2446,"Ġsauce":2447,"Ġorigin":2448,"Ġfant":2449,"ains":2450,"was":2451,"Ġsold":2452,"Ġeggs":2453,"Ġtrouble":2454,"Ġsmell":2455,"ĠChinese":2456,"Ġeduc":2457,"Ġwearing":2458,"Ġban":2459,"Ġav":2460,"Ġchill":2461,"Ġflow":2462,"Ġbow":2463,"Ġsand":2464,"Ġresp":2465,"Ġsyste":2466,"mit":2467,"Ġbedroom":2468,"Ġshoes":2469,"Ġlow":2470,"sc":2471,"Ġhappening":2472,"Ġstuck":2473,"of":2474,"Ġbear":2475,"Ġphotos":2476,"ĠMr":2477,"tten":2478,"Ġflu":2479,"ruit":2480,"Ġcentre":2481,"que":2482,"Ġconne":2483,"Ġvar":2484,"Ġstudent":2485,"Ġsave":2486,"Ġhospital":2487,"ni":2488,"Ġtomato":2489,"ides":2490,"Ġjobs":2491,"three":2492,"Ġanymore":2493,"ĠTuesday":2494,"Ġways":2495,"Ġstarting":2496,"Ġphotograph":2497,"Ġhung":2498,"Ġyounger":2499,"Ġstru":2500,"Ġcla":2501,"Ġmillion":2502,"Ġsilly":2503,"Ġplant":2504,"Ġflight":2505,"Ġmissed":2506,"Ġbuilt":2507,"Ġval":2508,"Ġcult":2509,"Ġproject":2510,"Ġmach":2511,"Ġcle":2512,"rote":2513,"ession":2514,"Ġprefer":2515,"Ġwebs":2516,"Ġwritten":2517,"Ġcars":2518,"Ġcru":2519,"Ġnecess":2520,"Ġlucky":2521,"Ġtowards":2522,"Ġdrunk":2523,"sion":2524,"Ġthinks":2525,"pri":2526,"Ġsurprised":2527,"Ġexplain":2528,"Ġbeginning":2529,"Ġcontact":2530,"ĠYou":2531,"Ġtrip":2532,"Ġhimself":2533,"Ġdru":2534,"Ġcollect":2535,"Ġletter":2536,"lit":2537,"Ġlar":2538,"Ġrecently":2539,"ressed":2540,"ially":2541,"Ġshower":2542,"Ġchance":2543,"ĠAustral":2544,"Ġtemp":2545,"Ġinf":2546,"Ġsex":2547,"ans":2548,"ĠYeah":2549,"cell":2550,"Ġwedding":2551,"ged":2552,"pro":2553,"Ġinvolved":2554,"Ġthirteen":2555,"Ġdevelop":2556,"eaking":2557,"vert":2558,"Ġtoilet":2559,"Ġkey":2560,"Ġconsider":2561,"Ġtut":2562,"Ġspec":2563,"Ġbrown":2564,"ues":2565,"Ġrestaur":2566,"Ġdrop":2567,"Ġooh":2568,"orn":2569,"ellow":2570,"Ġprogramme":2571,"Ġborn":2572,"Ġstation":2573,"Ġreco":2574,"Ġfather":2575,"Ġmeeting":2576,"ĠSpanish":2577,"Ġinform":2578,"ĠDe":2579,"ales":2580,"Ġfantastic":2581,"cil":2582,"ĠFrance":2583,"Ġphoto":2584,"Ġworst":2585,"ering":2586,"Ġoil":2587,"anger":2588,"Ġproblems":2589,"Ġcorner":2590,"Ġnan":2591,"Ġtwice":2592,"Ġswim":2593,"Ġclever":2594,"Ġpack":2595,"Ġmouth":2596,"Ġmhm":2597,"Ġgym":2598,"ade":2599,"Ġstarts":2600,"Ġstate":2601,"gle":2602,"Ġloved":2603,"Ġstayed":2604,"ume":2605,"Ġwrote":2606,"Ġbutter":2607,"Ġsta":2608,"ging":2609,"Ġdraw":2610,"Ġnone":2611,"Ġstep":2612,"shed":2613,"Ġargu":2614,"eter":2615,"Ġsuddenly":2616,"seven":2617,"Ġpower":2618,"Ġprint":2619,"Ġcamer":2620,"vern":2621,"Ġfeels":2622,"Ġstar":2623,"Ġplus":2624,"Ġcolle":2625,"Ġlocal":2626,"orry":2627,"Ġchips":2628,"Ġdry":2629,"ane":2630,"Ġshopping":2631,"Ġsystem":2632,"Ġfurther":2633,"Ġfeet":2634,"Ġpig":2635,"cuss":2636,"ium":2637,"Ġsocial":2638,"Ġrad":2639,"Ġlistening":2640,"arily":2641,"bit":2642,"Ġbothered":2643,"ians":2644,"Ġtele":2645,"oub":2646,"Ġshops":2647,"ists":2648,"Ġended":2649,"Ġlights":2650,"Ġdaugh":2651,"ots":2652,"gotten":2653,"Ġbrain":2654,"Ġduring":2655,"Ġrout":2656,"Ġlead":2657,"ties":2658,"Ġsna":2659,"Ġsorts":2660,"wich":2661,"Ġgeneral":2662,"bour":2663,"Ġpoints":2664,"ient":2665,"Ġcry":2666,"Ġforgotten":2667,"with":2668,"Ġlegs":2669,"Ġce":2670,"Ġvers":2671,"Ġcal":2672,"Ġnotice":2673,"sy":2674,"Ġengine":2675,"Ġmanaged":2676,"Ġknown":2677,"Ġwebsite":2678,"ĠAf":2679,"az":2680,"Ġfight":2681,"uhu":2682,"ĠTw":2683,"Ġscared":2684,"Ġband":2685,"Ġyellow":2686,"Ġmad":2687,"Ġmanage":2688,"Ġmarket":2689,"Ġfilms":2690,"Ġwashing":2691,"Ġfig":2692,"usting":2693,"Ġcheaper":2694,"ground":2695,"Ġjour":2696,"Ġemb":2697,"Ġlaw":2698,"huh":2699,"ĠOh":2700,"lt":2701,"Ġhuman":2702,"Ġorange":2703,"Ġeffect":2704,"Ġsla":2705,"ern":2706,"iling":2707,"Ġrand":2708,"Ġcharacter":2709,"Ġbeach":2710,"Ġlect":2711,"Ġvideo":2712,"Ġsil":2713,"Ġfancy":2714,"Ġseventeen":2715,"Ġfruit":2716,"cl":2717,"Ġgovern":2718,"Ġseemed":2719,"Ġpet":2720,"Ġrandom":2721,"tle":2722,"Ġinformation":2723,"ker":2724,"Ġfield":2725,"aybe":2726,"ĠDay":2727,"ale":2728,"Ġben":2729,"Ġspeaking":2730,"Ġcreat":2731,"Ġexciting":2732,"Ġwinter":2733,"Ġfresh":2734,"ĠSpain":2735,"Ġnoticed":2736,"Ġquarter":2737,"Ġprote":2738,"uss":2739,"ĠGerman":2740,"Ġsituation":2741,"Ġglad":2742,"ails":2743,"sing":2744,"Ġmatch":2745,"Ġwife":2746,"Ġsouth":2747,"Ġchair":2748,"Ġvillage":2749,"Ġteeth":2750,"kets":2751,"band":2752,"Ġscary":2753,"ator":2754,"Ġcountries":2755,"Ġmath":2756,"itive":2757,"Ġrice":2758,"dge":2759,"ey":2760,"lu":2761,"ĠUK":2762,"Ġrealised":2763,"Ġtrave":2764,"Ġgold":2765,"Ġserious":2766,"Ġboat":2767,"uary":2768,"Ġsepar":2769,"Ġkeeps":2770,"Ġdiscuss":2771,"kward":2772,"atural":2773,"Ġweight":2774,"Ġothers":2775,"Ġperi":2776,"Ġvoice":2777,"Ġprivate":2778,"Ġgames":2779,"Ġsol":2780,"oph":2781,"gue":2782,"iff":2783,"ety":2784,"Ġawkward":2785,"Ġcollege":2786,"Ġfamous":2787,"Ġtraining":2788,"shire":2789,"Ġground":2790,"pper":2791,"Ġstaying":2792,"ĠQ":2793,"Ġdisg":2794,"ffic":2795,"Ġbooked":2796,"Ġwhenever":2797,"ival":2798,"Ġlie":2799,"Ġdoub":2800,"Ġclea":2801,"Ġcontract":2802,"Ġafford":2803,"Ġpossible":2804,"Ġleaving":2805,"Ġschools":2806,"Ġmic":2807,"Ġarm":2808,"Ġpasta":2809,"Ġperiod":2810,"Ġcontrol":2811,"Ġplate":2812,"Ġproduct":2813,"Ġge":2814,"Ġsurely":2815,"Ġconst":2816,"Ġdaughter":2817,"Ġmummy":2818,"night":2819,"Ġocca":2820,"ror":2821,"Ġbased":2822,"Ġseries":2823,"Ġhungry":2824,"Ġexcept":2825,"Ġdirect":2826,"Ġcri":2827,"Ġseriously":2828,"Ġrelation":2829,"Ġglasses":2830,"Ġchoice":2831,"does":2832,"Ġson":2833,"Ġarri":2834,"rass":2835,"Ġpink":2836,"lax":2837,"uts":2838,"ĠSh":2839,"Ġgovernment":2840,"Ġbin":2841,"Ġdogs":2842,"Ġpage":2843,"Ġafterwards":2844,"friend":2845,"cking":2846,"Ġstri":2847,"Ġhorse":2848,"Ġhat":2849,"Ġshare":2850,"vision":2851,"reme":2852,"ĠNo":2853,"Ġsport":2854,"Ġnorth":2855,"ĠChina":2856,"ĠCa":2857,"Ġprin":2858,"Ġfairly":2859,"Ġvisit":2860,"Ġlarge":2861,"aw":2862,"ises":2863,"Ġeducation":2864,"wa":2865,"Ġdanger":2866,"Ġcust":2867,"then":2868,"Ġchop":2869,"Ġscience":2870,"Ġpens":2871,"Ġservice":2872,"ak":2873,"ĠJan":2874,"cade":2875,"ysic":2876,"Ġexcited":2877,"Ġdish":2878,"Ġcommon":2879,"maybe":2880,"ured":2881,"Ġupstairs":2882,"Ġeaten":2883,"Ġremind":2884,"Ġpotatoes":2885,"Ġsalt":2886,"ables":2887,"Ġdesign":2888,"ays":2889,"Ġbless":2890,"nel":2891,"esco":2892,"Ġfridge":2893,"Ġprocess":2894,"erry":2895,"Ġentire":2896,"ĠIn":2897,"Ġgives":2898,"Ġpublic":2899,"fortable":2900,"Ġdig":2901,"ology":2902,"Ġmachine":2903,"Ġbloke":2904,"mar":2905,"Ġdisgusting":2906,"Ġelectric":2907,"Ġpair":2908,"iscu":2909,"Ġess":2910,"Ġest":2911,"Ġnatural":2912,"Ġfault":2913,"Ġoffic":2914,"ows":2915,"Ġstanding":2916,"ohol":2917,"Ġcoun":2918,"lace":2919,"ĠHar":2920,"Ġlesson":2921,"ĠAfric":2922,"Ġoper":2923,"Ġstage":2924,"ĠAs":2925,"Ġseason":2926,"Ġoppos":2927,"Ġadvert":2928,"Ġspoke":2929,"cohol":2930,"Ġran":2931,"ards":2932,"Ġeffort":2933,"Ġcrap":2934,"Ġwonderful":2935,"here":2936,"ered":2937,"tember":2938,"Ġsaus":2939,"cel":2940,"Ġheart":2941,"Ġheavy":2942,"Ġgarlic":2943,"bed":2944,"Ġmaths":2945,"ring":2946,"ka":2947,"Ġpersonal":2948,"Ġswitch":2949,"Ġflying":2950,"ĠBar":2951,"icy":2952,"Ġphysic":2953,"Ġjoke":2954,"Ġgenerally":2955,"eptember":2956,"Ġsandwich":2957,"ĠTesco":2958,"Ġrecogn":2959,"Ġexam":2960,"thank":2961,"Ġeasily":2962,"bies":2963,"ĠRuss":2964,"Ġissue":2965,"Ġplastic":2966,"Ġhurt":2967,"oned":2968,"Ġcap":2969,"load":2970,"sure":2971,"Ġdeep":2972,"yle":2973,"Ġalcohol":2974,"iled":2975,"atic":2976,"ham":2977,"iction":2978,"phone":2979,"ike":2980,"Ġholidays":2981,"Ġhonestly":2982,"Ġnecessarily":2983,"Ġbas":2984,"Ġupset":2985,"Ġfix":2986,"Ġhus":2987,"Ġgrowing":2988,"cellent":2989,"Ġscreen":2990,"Ġspeed":2991,"Ġflowers":2992,"Ġasleep":2993,"Ġsorted":2994,"eg":2995,"Ġnames":2996,"ero":2997,"Ġfra":2998,"sters":2999,"Ġstaff":3000,"Ġticket":3001,"Ġdegree":3002,"ĠSeptember":3003,"ardon":3004,"ĠRo":3005,"ules":3006,"Ġloud":3007,"Ġcond":3008,"Ġjoin":3009,"Ġdescri":3010,"thern":3011,"ĠPo":3012,"ptop":3013,"Ġble":3014,"Ġpieces":3015,"Ġlay":3016,"Ġep":3017,"Ġadv":3018,"Ġrac":3019,"Ġbroken":3020,"Ġplane":3021,"Ġsupport":3022,"Ġbiscu":3023,"Ġlaptop":3024,"iest":3025,"Ġaccept":3026,"Ġexcuse":3027,"Ġrestaurant":3028,"irty":3029,"Ġtall":3030,"Ġtraffic":3031,"ĠX":3032,"Ġplanning":3033,"lfriend":3034,"Ġembar":3035,"nis":3036,"esome":3037,"Ġsmaller":3038,"eb":3039,"ĠJanuary":3040,"back":3041,"Ġitself":3042,"Ġris":3043,"Ġselling":3044,"ĠSouth":3045,"Ġrelig":3046,"Ġsuggest":3047,"ris":3048,"Ġconnect":3049,"Ġcats":3050,"Ġbowl":3051,"Ġdecide":3052,"Ġsens":3053,"Ġteachers":3054,"Ġkilled":3055,"ime":3056,"Ġtravel":3057,"Ġmental":3058,"erc":3059,"Ġours":3060,"esus":3061,"Ġsake":3062,"Ġcooked":3063,"Ġcareful":3064,"ighbour":3065,"Ġapply":3066,"vest":3067,"Ġdecis":3068,"Ġtoast":3069,"ention":3070,"Ġcirc":3071,"Ġlibr":3072,"Ġgrandad":3073,"Ġhusband":3074,"Ġpat":3075,"Ġate":3076,"apan":3077,"sorry":3078,"Ġtrees":3079,"Ġwra":3080,"lim":3081,"ĠAr":3082,"ĠAustralia":3083,"Ġsoci":3084,"Ġopposite":3085,"Ġembarrass":3086,"rest":3087,"Ġsuc":3088,"shion":3089,"Ġeventually":3090,"Ġappro":3091,"mic":3092,"Ġdisapp":3093,"Ġcompet":3094,"Ġmotor":3095,"ppy":3096,"Ġgirlfriend":3097,"Ġcamera":3098,"zer":3099,"Ġprov":3100,"Ġfut":3101,"Ġpool":3102,"Ġwet":3103,"Ġrelax":3104,"Ġop":3105,"Ġnet":3106,"Ġdrinks":3107,"Ġabove":3108,"Ġstudy":3109,"Ġgrandma":3110,"oint":3111,"urance":3112,"Ġloves":3113,"Ġperm":3114,"ĠGermany":3115,"Ġsubject":3116,"Ġlu":3117,"Ġwake":3118,"Ġmap":3119,"lay":3120,"Ġshot":3121,"Ġtalked":3122,"rious":3123,"Ġswimming":3124,"Ġmem":3125,"Ġspa":3126,"Ġteen":3127,"ien":3128,"Ġmist":3129,"ĠMor":3130,"Ġoccasion":3131,"ĠJapan":3132,"Ġrude":3133,"ift":3134,"Ġapple":3135,"Ġturns":3136,"Ġsoup":3137,"Ġvan":3138,"Ġcupboard":3139,"ams":3140,"Ġblock":3141,"Ġmag":3142,"Ġboyfriend":3143,"Ġideas":3144,"ode":3145,"Ġvol":3146,"loy":3147,"Ġgrown":3148,"Ġarch":3149,"istic":3150,"Ġdream":3151,"Ġacade":3152,"Ġcancer":3153,"Ġbull":3154,"ĠMa":3155,"Ġbatter":3156,"Ġdangerous":3157,"Ġye":3158,"Ġnose":3159,"Ġneighbour":3160,"Ġsoft":3161,"Ġpolit":3162,"Ġcrea":3163,"ution":3164,"own":3165,"Ġthick":3166,"Ġbenef":3167,"Ġloo":3168,"Ġbiggest":3169,"Ġmob":3170,"Ġenjoyed":3171,"Ġclos":3172,"Ġexcellent":3173,"ĠMo":3174,"ression":3175,"Ġheat":3176,"Ġcarro":3177,"Ġcris":3178,"mmed":3179,"Ġmov":3180,"Ġlift":3181,"Ġfarm":3182,"Ġbeans":3183,"Ġcommunity":3184,"Ġlaughing":3185,"Ġpret":3186,"Ġawesome":3187,"Ġwi":3188,"ched":3189,"Ġbroke":3190,"Ġuseful":3191,"Ġski":3192,"Ġpressure":3193,"Ġsafe":3194,"Ġclosed":3195,"Ġsimple":3196,"ho":3197,"Ġtrust":3198,"ĠItal":3199,"Ġaunt":3200,"Ġbru":3201,"Ġthin":3202,"Ġlemon":3203,"Ġsecret":3204,"Ġlessons":3205,"Ġdropped":3206,"look":3207,"Ġcontin":3208,"antly":3209,"Ġtickets":3210,"Ġrich":3211,"Ġexerc":3212,"Ġhole":3213,"Ġcast":3214,"Ġidi":3215,"Ġgran":3216,"ils":3217,"ĠScot":3218,"ĠAl":3219,"Ġpaint":3220,"Ġplenty":3221,"Ġow":3222,"Ġcurry":3223,"Ġshout":3224,"Ġpassed":3225,"Ġinvest":3226,"Ġsinging":3227,"wow":3228,"Ġlog":3229,"Ġtennis":3230,"Ġpsy":3231,"Ġriver":3232,"see":3233,"Ġopened":3234,"icks":3235,"Ġincl":3236,"Ġsplit":3237,"Ġsto":3238,"Ġdire":3239,"Ġposh":3240,"Ġscore":3241,"Ġcous":3242,"Ġswear":3243,"Ġclearly":3244,"Ġbathroom":3245,"Ġdisc":3246,"Ġnumbers":3247,"Ġbill":3248,"Ġport":3249,"eds":3250,"box":3251,"da":3252,"pl":3253,"Ġmis":3254,"Ġquality":3255,"ĠPar":3256,"Ġhur":3257,"Ġsalad":3258,"Ġbored":3259,"uine":3260,"Ġfle":3261,"ana":3262,"Ġbecom":3263,"zz":3264,"Ġvi":3265,"Ġburn":3266,"Ġmount":3267,"gging":3268,"Ġrug":3269,"good":3270,"Ġcine":3271,"Ġpopular":3272,"Ġdoubt":3273,"lance":3274,"sp":3275,"Ġet":3276,"Ġsuit":3277,"ĠWor":3278,"Ġbright":3279,"Ġkeeping":3280,"Ġskills":3281,"neath":3282,"Ġterri":3283,"Ġmort":3284,"ĠDon":3285,"Ġroast":3286,"Ġvegetables":3287,"Ġgri":3288,"Ġgun":3289,"Ġlibrary":3290,"Ġtravelling":3291,"etic":3292,"Ġjuice":3293,"Ġgenuine":3294,"Ġri":3295,"Ġste":3296,"ĠSw":3297,"Ġhardly":3298,"Ġsle":3299,"ergy":3300,"Ġdan":3301,"Ġcoast":3302,"Ġherself":3303,"Ġaware":3304,"Ġpassport":3305,"Ġtaught":3306,"Ġfund":3307,"Ġunderneath":3308,"Ġyum":3309,"att":3310,"Ġscen":3311,"Ġsomehow":3312,"Ġbags":3313,"Ġconte":3314,"Ġcrack":3315,"Ġextreme":3316,"Ġfort":3317,"ĠScotland":3318,"Ġinsurance":3319,"Ġnoise":3320,"Ġje":3321,"jor":3322,"Ġbeca":3323,"Ġspoon":3324,"Ġdeath":3325,"Ġcred":3326,"Ġstore":3327,"Ġaccident":3328,"Ġtrad":3329,"fortun":3330,"Ġtechn":3331,"ners":3332,"Ġgay":3333,"oogle":3334,"Ġcheers":3335,"ibility":3336,"Ġfuture":3337,"Ġgig":3338,"Ġbabies":3339,"Ġbrand":3340,"Ġpardon":3341,"Ġang":3342,"ĠMay":3343,"bing":3344,"Ġstrugg":3345,"Ġwhis":3346,"Ġconcer":3347,"Ġhoping":3348,"about":3349,"ĠGree":3350,"Ġpsych":3351,"Ġsli":3352,"Ġpath":3353,"Ġcaf":3354,"ives":3355,"Ġseparate":3356,"entially":3357,"Ġseat":3358,"Ġposition":3359,"Ġmentioned":3360,"sk":3361,"Ġrang":3362,"ĠJune":3363,"Ġcharity":3364,"Ġstories":3365,"Ġlamb":3366,"ony":3367,"ĠWales":3368,"Ġleaves":3369,"Ġstandard":3370,"Cos":3371,"Ġshows":3372,"ĠWhat":3373,"Ġoven":3374,"Ġsquare":3375,"Ġgarage":3376,"lled":3377,"cast":3378,"ister":3379,"Ġrespons":3380,"Ġcustom":3381,"ĠSo":3382,"Ġhigher":3383,"Ġstock":3384,"Ġvo":3385,"Ġoption":3386,"Ġculture":3387,"Ġgl":3388,"ram":3389,"Ġclim":3390,"Ġepis":3391,"shing":3392,"Ġhall":3393,"icious":3394,"Ġclick":3395,"Ġdeliver":3396,"Ġwaste":3397,"ortun":3398,"Ġpretend":3399,"Ġchanging":3400,"Ġnon":3401,"Ġlikely":3402,"ults":3403,"Ġsleeping":3404,"Ġtheory":3405,"Ġletters":3406,"Ġgrey":3407,"Ġpulled":3408,"ley":3409,"Ġargument":3410,"Ġarmy":3411,"Ġopportun":3412,"Ġoriginal":3413,"Ġstress":3414,"Ġdeb":3415,"lied":3416,"bury":3417,"Ġpicking":3418,"ĠEurope":3419,"Ġlearnt":3420,"gged":3421,"eans":3422,"gage":3423,"Ġcaught":3424,"Ġincred":3425,"ĠItalian":3426,"Ġcorrect":3427,"Ġknife":3428,"ech":3429,"Ġtastes":3430,"ĠMc":3431,"allen":3432,"Ġrelationship":3433,"Ġpension":3434,"Ġcinema":3435,"Ġbye":3436,"ĠGoogle":3437,"Ġforever":3438,"Ġcomplain":3439,"Ġmark":3440,"Ġiron":3441,"Ġpissed":3442,"Ġeco":3443,"Ġannoyed":3444,"Ġversion":3445,"over":3446,"Ġconfused":3447,"Ġempty":3448,"ĠMan":3449,"oups":3450,"rend":3451,"ĠSky":3452,"Ġflavour":3453,"Ġmajor":3454,"Ġputs":3455,"Ġinvited":3456,"ĠIre":3457,"nolo":3458,"ĠYorkshire":3459,"Ġscra":3460,"ency":3461,"Ġtour":3462,"Ġhy":3463,"Ġscr":3464,"uff":3465,"road":3466,"Ġpleased":3467,"Ġinstru":3468,"ĠIreland":3469,"Ġwondering":3470,"gar":3471,"Ġknowing":3472,"Ġcomfortable":3473,"Ġshowed":3474,"Ġcolours":3475,"Ġig":3476,"Ġlying":3477,"Ġwel":3478,"orm":3479,"Ġunfortun":3480,"Ġdoors":3481,"Ġtaxi":3482,"Ġhoo":3483,"ivid":3484,"Ġhill":3485,"Ġaccess":3486,"ears":3487,"Ġimpro":3488,"ass":3489,"Ġcopy":3490,"Ġbeat":3491,"Ġnational":3492,"ohn":3493,"Ġspin":3494,"Ġbacon":3495,"Ġindust":3496,"Ġrugby":3497,"eed":3498,"ĠCan":3499,"ĠMarch":3500,"Ġtelevision":3501,"Ġmobile":3502,"Ġduck":3503,"Ġholding":3504,"itter":3505,"ona":3506,"Ġkiss":3507,"Ġsuccess":3508,"Ġpi":3509,"Ġbeef":3510,"ĠOct":3511,"ingers":3512,"ik":3513,"Ġsmoke":3514,"Ġchap":3515,"ĠPh":3516,"ford":3517,"Ġprom":3518,"Ġpractice":3519,"Ġdepart":3520,"every":3521,"idence":3522,"ural":3523,"Ġcock":3524,"arian":3525,"Ġdesk":3526,"Ġexist":3527,"Ġjoking":3528,"hand":3529,"Ġginger":3530,"rom":3531,"ĠWar":3532,"Ġigno":3533,"Ġrequ":3534,"ober":3535,"ches":3536,"Ġbase":3537,"ĠWorld":3538,"Ġfinger":3539,"Ġaffect":3540,"ler":3541,"Ġrh":3542,"Ġstat":3543,"Ġdiv":3544,"ĠIndian":3545,"Ġaye":3546,"Ġrough":3547,"fa":3548,"ugust":3549,"Ġanimals":3550,"etera":3551,"Ġsite":3552,"Ġvalue":3553,"ances":3554,"Ġreci":3555,"Ġcakes":3556,"Ġradio":3557,"Ġpin":3558,"Ġboxes":3559,"Ġopin":3560,"bles":3561,"ĠKor":3562,"Ġecono":3563,"bably":3564,"Ġcele":3565,"ĠcafÃ©":3566,"Ġnotes":3567,"Ġenergy":3568,"Ġbadly":3569,"Ġcouncil":3570,"Ġcott":3571,"Ġappre":3572,"au":3573,"berry":3574,"pril":3575,"Ġplays":3576,"Ġpurple":3577,"Ġbon":3578,"Ġcoach":3579,"Ġstyle":3580,"her":3581,"tte":3582,"Ġavo":3583,"Ġdownstairs":3584,"Ġnights":3585,"umably":3586,"ĠOctober":3587,"Ġtight":3588,"ina":3589,"ĠAfrica":3590,"Ġsurv":3591,"Ġdick":3592,"yep":3593,"Ġlab":3594,"Ġredu":3595,"Ġcomplic":3596,"ppers":3597,"ĠJu":3598,"Ġmanager":3599,"Ġplayer":3600,"Ġrock":3601,"Ġtypes":3602,"Ġonion":3603,"ĠAugust":3604,"Ġwheel":3605,"Ġdrove":3606,"Ġscratch":3607,"ase":3608,"Ġbrid":3609,"year":3610,"ively":3611,"ĠOr":3612,"Ġroof":3613,"Ġspot":3614,"Ġimm":3615,"Ġfollowing":3616,"Ġwindows":3617,"Ġpurp":3618,"even":3619,"ata":3620,"alright":3621,"geous":3622,"Ġhanging":3623,"ama":3624,"Ġphoned":3625,"Ġalive":3626,"ĠBla":3627,"Ġfamil":3628,"exactly":3629,"ĠJack":3630,"Ġsociety":3631,"Ġgenuinely":3632,"using":3633,"Ġsetting":3634,"ummy":3635,"Ġwild":3636,"Ġisland":3637,"Ġkeen":3638,"Ġmater":3639,"ĠThat":3640,"mble":3641,"ĠYear":3642,"Ġaddress":3643,"ls":3644,"Ġanimal":3645,"Ġglo":3646,"Ġwhose":3647,"Ġclock":3648,"Ġchallen":3649,"Ġguit":3650,"Ġtrack":3651,"Ġroads":3652,"Ġmixed":3653,"Ġindivid":3654,"probably":3655,"Ġspread":3656,"Ġshar":3657,"ĠApril":3658,"Ġairport":3659,"iding":3660,"Ġtooth":3661,"Ġsupermar":3662,"BC":3663,"ĠJohn":3664,"Ġdecision":3665,"Ġbang":3666,"Ġfingers":3667,"Ġalone":3668,"Ġinclud":3669,"zen":3670,"Ġaud":3671,"Ġham":3672,"rodu":3673,"aged":3674,"Ġjourney":3675,"rab":3676,"ĠAn":3677,"Ġobs":3678,"Ġangry":3679,"ĠDo":3680,"Ġexpl":3681,"Ġmodern":3682,"Ġcow":3683,"raft":3684,"Ġappreci":3685,"tch":3686,"Ġhelped":3687,"zed":3688,"eng":3689,"ently":3690,"Ġpresumably":3691,"Ġregular":3692,"Ġattention":3693,"ared":3694,"ease":3695,"mes":3696,"Ġsale":3697,"ops":3698,"epend":3699,"Ġhundreds":3700,"mary":3701,"ining":3702,"Ġtherefore":3703,"Ġrev":3704,"ĠCV":3705,"ired":3706,"Ġimmed":3707,"Ġlower":3708,"Ġneck":3709,"Ġchuck":3710,"Ġvote":3711,"itions":3712,"idd":3713,"ission":3714,"berries":3715,"Ġsmells":3716,"ĠIp":3717,"Ġcro":3718,"Ġfoc":3719,"Ġgroups":3720,"din":3721,"Ġsever":3722,"Ġmush":3723,"ify":3724,"Ġrail":3725,"Ġchanges":3726,"icky":3727,"Ġtelly":3728,"Ġmostly":3729,"Ġcovered":3730,"oured":3731,"Ġfr":3732,"rish":3733,"Ġpoo":3734,"reed":3735,"icer":3736,"ope":3737,"Ġvag":3738,"Ġstraw":3739,"Ġimmedi":3740,"larious":3741,"Ġfinding":3742,"Ġlit":3743,"cture":3744,"Ġbackground":3745,"ĠFeb":3746,"your":3747,"Ġsearch":3748,"has":3749,"icle":3750,"Ġbringing":3751,"outs":3752,"Ġblan":3753,"Ġyay":3754,"Ġparts":3755,"ovember":3756,"Ġmicrow":3757,"Ġdance":3758,"Ġtrous":3759,"Ġconc":3760,"ĠGu":3761,"Ġspending":3762,"Ġfigure":3763,"Ġbun":3764,"Ġbirds":3765,"Ġcho":3766,"Ġsmart":3767,"ec":3768,"Ġuncle":3769,"Ġcompan":3770,"Ġchee":3771,"Ġtough":3772,"cake":3773,"Ġhilarious":3774,"Ġver":3775,"Ġdirty":3776,"Ġcomb":3777,"Ġpregn":3778,"Ġbecame":3779,"Ġgas":3780,"Ġchilli":3781,"Ġnature":3782,"cember":3783,"Ġlines":3784,"Ġclasses":3785,"Ġlevels":3786,"Ġsports":3787,"Ġcredit":3788,"ura":3789,"Ġhar":3790,"Ġsection":3791,"ĠGe":3792,"Ġnightma":3793,"Ġreturn":3794,"Ġala":3795,"Ġseconds":3796,"lary":3797,"Ġrules":3798,"Ġnowhere":3799,"Ġroute":3800,"Ġrisk":3801,"amn":3802,"Ġtomatoes":3803,"comm":3804,"Ġfashion":3805,"Ġblow":3806,"ĠLego":3807,"Ġrespect":3808,"Ġgranny":3809,"Ġdressed":3810,"Ġmeaning":3811,"Ġlanguages":3812,"Ġwelcome":3813,"imum":3814,"Ġspecific":3815,"ĠIrish":3816,"uth":3817,"Ġharder":3818,"Ġir":3819,"lect":3820,"Ġcoat":3821,"Ġanti":3822,"itional":3823,"Ġtells":3824,"Ġfinal":3825,"Ġprofession":3826,"Ġkick":3827,"Ġexams":3828,"ĠTwitter":3829,"ites":3830,"Ġhowever":3831,"Ġattack":3832,"Ġyo":3833,"Ġcand":3834,"Ġfrea":3835,"Ġremo":3836,"Ġcarp":3837,"Ġreasons":3838,"Ġabroad":3839,"Ġhealthy":3840,"Ġnote":3841,"Ġcontext":3842,"Ġrab":3843,"Ġboss":3844,"Ġmainly":3845,"Ġlink":3846,"sted":3847,"Ġque":3848,"Ġshowing":3849,"Ġcomplicated":3850,"bly":3851,"Ġbottles":3852,"che":3853,"Ġneither":3854,"Ġwanting":3855,"ĠFebru":3856,"Ġwoo":3857,"Ġdaddy":3858,"Ġpublish":3859,"Ġdot":3860,"ĠDecember":3861,"Ġexercise":3862,"ĠNovember":3863,"taly":3864,"lin":3865,"Ġdocu":3866,"Ġdownload":3867,"Ġdev":3868,"ĠBo":3869,"Ġfir":3870,"Ġwoah":3871,"Ġunfortunately":3872,"ĠFebruary":3873,"would":3874,"Ġguitar":3875,"Ġhelping":3876,"Ġcompanies":3877,"Ġrooms":3878,"Ġclaim":3879,"rate":3880,"Ġpudding":3881,"Ġreply":3882,"Ġdrag":3883,"Ġmodel":3884,"ĠIndia":3885,"Ġindeed":3886,"Ġzero":3887,"lable":3888,"ĠMiss":3889,"Ġobject":3890,"Ġindividual":3891,"Ġmissing":3892,"Ġbiscuits":3893,"fl":3894,"Ġnicer":3895,"Ġqual":3896,"iles":3897,"cling":3898,"Ġinvent":3899,"Ġrate":3900,"oli":3901,"ĠBu":3902,"Ġenv":3903,"ĠJew":3904,"ference":3905,"ev":3906,"Ġur":3907,"Ġtou":3908,"Ġsour":3909,"Ġana":3910,"Ġcalling":3911,"Ġgravy":3912,"Ġruns":3913,"ĠItaly":3914,"ids":3915,"Ġstone":3916,"tern":3917,"pple":3918,"ĠWe":3919,"Ġdriver":3920,"Ġwoke":3921,"Ġpea":3922,"Ġbump":3923,"ĠHo":3924,"Ġturning":3925,"Ġride":3926,"Ġobvious":3927,"sec":3928,"Ġdisco":3929,"Ġdistance":3930,"ĠNorth":3931,"Ġprotect":3932,"Ġoccasionally":3933,"Ġbridge":3934,"Ġidiot":3935,"pers":3936,"Ġbitch":3937,"ography":3938,"cious":3939,"Ġfest":3940,"Ġavai":3941,"Ġsides":3942,"mend":3943,"Ġforeign":3944,"Ġshape":3945,"Ġtro":3946,"Ġstood":3947,"Ġscrew":3948,"Ġcomment":3949,"Ġinvite":3950,"nology":3951,"umb":3952,"Ġpatter":3953,"Ġrece":3954,"Ġsurprise":3955,"aries":3956,"Ġnast":3957,"Ġdepartment":3958,"Ġnightmare":3959,"light":3960,"Ġspoken":3961,"Ġsn":3962,"Ġeuro":3963,"Ġcompared":3964,"Ġauth":3965,"ients":3966,"ĠDav":3967,"Ġhorses":3968,"Ġrelative":3969,"Ġpregnant":3970,"Ġtar":3971,"erg":3972,"Ġspare":3973,"Ġthousands":3974,"Ġemails":3975,"Ġattract":3976,"stro":3977,"ified":3978,"Ġvarious":3979,"Ġopinion":3980,"mpt":3981,"ĠPol":3982,"Ġrecorded":3983,"Ġpurpose":3984,"Ġtor":3985,"Ġfork":3986,"Ġspell":3987,"Ġdecent":3988,"Ġslowly":3989,"Ġbutton":3990,"Ġstairs":3991,"ctors":3992,"Ġreview":3993,"ĠParis":3994,"Ġtourist":3995,"Ġshoo":3996,"Ġthingy":3997,"ĠCar":3998,"Ġcree":3999,"iron":4000,"Ġwhoever":4001,"ĠBBC":4002,"Ġears":4003,"Ġtrousers":4004,"iev":4005,"Ġearn":4006,"Ġenjo":4007,"Ġrow":4008,"Ġcosts":4009,"Ġcelebr":4010,"head":4011,"Ġintrodu":4012,"uses":4013,"Ġarrived":4014,"Ġborrow":4015,"Ġga":4016,"Ġfucked":4017,"ĠLab":4018,"Ġdamn":4019,"Ġjam":4020,"Ġsaving":4021,"Ġbomb":4022,"Ġestate":4023,"Ġahead":4024,"ĠGood":4025,"Ġaver":4026,"Ġshock":4027,"Ġspring":4028,"Ġmemory":4029,"ĠEx":4030,"ĠEast":4031,"Ġrecognise":4032,"Ġopportunity":4033,"Ġsaved":4034,"iment":4035,"ĠTur":4036,"Ġteenag":4037,"hip":4038,"Ġbunch":4039,"useum":4040,"Ġcutting":4041,"ĠBritain":4042,"Ġenjoying":4043,"af":4044,"Ġtim":4045,"cott":4046,"Ġcurrent":4047,"Ġsausages":4048,"Ġsou":4049,"Ġyyou":4050,"Ġcash":4051,"Ġparking":4052,"Ġdoll":4053,"ĠBe":4054,"SE":4055,"ube":4056,"ĠiP":4057,"Ġdue":4058,"Ġsteak":4059,"Ġtap":4060,"Ġappoint":4061,"Ġearth":4062,"Ġjudge":4063,"Ġmovie":4064,"Ġserv":4065,"Ġsending":4066,"Ġmushroom":4067,"Ġcalls":4068,"Ġmenu":4069,"Ġcrit":4070,"Ġgor":4071,"Ġfold":4072,"Ġdem":4073,"ĠHe":4074,"Ġcommit":4075,"Ġbri":4076,"Ġbul":4077,"ĠCamb":4078,"ĠHarry":4079,"Ġmile":4080,"Ġtape":4081,"Ġtun":4082,"Ġfed":4083,"shit":4084,"ĠAma":4085,"Ġprices":4086,"men":4087,"put":4088,"ino":4089,"Ġplants":4090,"otter":4091,"Ġenc":4092,"Ġgrab":4093,"Ġreport":4094,"Ġbattery":4095,"house":4096,"Ġtid":4097,"Ġwire":4098,"Ġhost":4099,"ressive":4100,"ĠDavid":4101,"ude":4102,"Ġdod":4103,"Ġpetrol":4104,"Ġyog":4105,"Ġviol":4106,"cul":4107,"Ġdrama":4108,"ior":4109,"Ġwest":4110,"Ġupd":4111,"Ġspeech":4112,"Ġcleaning":4113,"mach":4114,"Ġintell":4115,"ĠPa":4116,"ĠNational":4117,"Ġentertain":4118,"ening":4119,"lex":4120,"Ġlock":4121,"Ġcig":4122,"Ġchecked":4123,"Ġnasty":4124,"Ġsheep":4125,"Ġslept":4126,"ĠJuly":4127,"Ġqueen":4128,"ĠPer":4129,"arrow":4130,"Ġadult":4131,"ended":4132,"Ġtrade":4133,"ĠPort":4134,"Ġmicrowave":4135,"Ġpure":4136,"otion":4137,"Ġcourt":4138,"Ġident":4139,"Ġcommunic":4140,"Ġgrass":4141,"Ġedge":4142,"Ġsurvive":4143,"Ġenviron":4144,"rant":4145,"zon":4146,"Ġfli":4147,"ences":4148,"Ġactiv":4149,"Ġhelps":4150,"Ġfreezer":4151,"Ġembarrassing":4152,"ened":4153,"Ġprimary":4154,"Ġexpecting":4155,"Ġmortgage":4156,"Ġavailable":4157,"Ġrecom":4158,"Ġjeans":4159,"alk":4160,"Ġpepper":4161,"Ġfalling":4162,"Ġarms":4163,"ĠGo":4164,"Ġdetails":4165,"Ġdancing":4166,"sher":4167,"Ġcloser":4168,"Ġpra":4169,"Ġbeha":4170,"Ġrecommend":4171,"Ġmi":4172,"Ġareas":4173,"Ġdelicious":4174,"Ġemploy":4175,"Ġvolunt":4176,"ength":4177,"Ġmir":4178,"Ġchem":4179,"Ġgorgeous":4180,"Ġpacked":4181,"Ġgradu":4182,"Ġscar":4183,"Ġinit":4184,"Ġarse":4185,"Ġpron":4186,"Ġwondered":4187,"Ġrace":4188,"tee":4189,"commod":4190,"Ġcannot":4191,"ilos":4192,"Ġspicy":4193,"Ġprison":4194,"Ġadmit":4195,"Ġtyp":4196,"Ġpainting":4197,"Ġbecomes":4198,"Ġenvironment":4199,"Ġrare":4200,"Ġfake":4201,"Ġunit":4202,"Ġilleg":4203,"cc":4204,"Ġdess":4205,"Ġpitch":4206,"isation":4207,"Ġsno":4208,"Ġrange":4209,"Ġcart":4210,"Ġcloud":4211,"Ġmini":4212,"Ġquicker":4213,"Ġmedic":4214,"Ġpork":4215,"ĠBut":4216,"Ġphones":4217,"rank":4218,"Ġtalks":4219,"Ġcycle":4220,"Ġtechnology":4221,"Ġautom":4222,"oss":4223,"adays":4224,"Ġdisp":4225,"Ġperfectly":4226,"oura":4227,"Ġclassic":4228,"kin":4229,"Ġwha":4230,"Ġadvice":4231,"Ġdama":4232,"Ġaer":4233,"Ġhide":4234,"Ġrole":4235,"Ġpositive":4236,"Ġoriginally":4237,"Ġalarm":4238,"Ġproperty":4239,"Ġacademic":4240,"Ġtwent":4241,"Ġhunt":4242,"ĠGC":4243,"Ġstars":4244,"Ġant":4245,"Ġtables":4246,"lime":4247,"Ġgiant":4248,"Ġtow":4249,"ledge":4250,"Ġbell":4251,"Ġcha":4252,"Ġnowadays":4253,"Ġaccommod":4254,"Ġhers":4255,"shop":4256,"Ġraining":4257,"Ġdrugs":4258,"ĠAmazon":4259,"des":4260,"Ġshed":4261,"Ġtransl":4262,"Ġcousin":4263,"Ġought":4264,"eral":4265,"Ġmeals":4266,"Ġimmediately":4267,"Ġbud":4268,"ception":4269,"Ġdent":4270,"Ġcrying":4271,"pre":4272,"ĠMus":4273,"ĠBrown":4274,"Ġstomach":4275,"Ġonions":4276,"ctions":4277,"ĠUn":4278,"Ġassume":4279,"Ġvegetarian":4280,"Ġsink":4281,"Ġpint":4282,"Ġjac":4283,"ĠWest":4284,"Ġcreate":4285,"Ġknit":4286,"ribut":4287,"Ġends":4288,"Ġprev":4289,"Ġchef":4290,"Ġsongs":4291,"Ġturkey":4292,"Ġsensible":4293,"Ġhed":4294,"Ġgru":4295,"acy":4296,"Ġcrow":4297,"Ġpill":4298,"Ġcareer":4299,"Ġflights":4300,"Ġtit":4301,"Ġknock":4302,"Ġcarrots":4303,"Ġaction":4304,"Ġlosing":4305,"Ġseveral":4306,"could":4307,"Ġchest":4308,"ĠGCSE":4309,"Ġlimit":4310,"Ġking":4311,"Ġcause":4312,"Ġindepend":4313,"ding":4314,"fair":4315,"Ġlic":4316,"Ġmurd":4317,"Ġcab":4318,"rupt":4319,"rendous":4320,"Ġconv":4321,"Ġrob":4322,"ĠRussia":4323,"oman":4324,"Ġcer":4325,"ara":4326,"Ġnurs":4327,"Ġwherever":4328,"Ġgeography":4329,"arre":4330,"roat":4331,"icket":4332,"Ġappreciate":4333,"limey":4334,"Ġhelpful":4335,"Ġboil":4336,"Ġreplace":4337,"Ġaverage":4338,"Ġissues":4339,"ula":4340,"irts":4341,"Ġfriendly":4342,"gger":4343,"Ġgrew":4344,"Ġepisode":4345,"Ġindustry":4346,"reet":4347,"Ġcontro":4348,"Ġchecking":4349,"Ġdirection":4350,"vi":4351,"ĠSim":4352,"ĠMon":4353,"Ġeast":4354,"Ġsounded":4355,"ughty":4356,"Ġdiet":4357,"Ġflower":4358,"Ġhandy":4359,"Ġconcerned":4360,"hmm":4361,"Ġdiss":4362,"olk":4363,"ateg":4364,"Ġfuss":4365,"Ġourselves":4366,"ĠZea":4367,"Ġreligion":4368,"Ġcontent":4369,"Ġthrowing":4370,"Ġdodgy":4371,"Ġthi":4372,"Ġnut":4373,"ĠYout":4374,"Ġboots":4375,"Ġsupermarket":4376,"first":4377,"ination":4378,"Ġgoog":4379,"istics":4380,"Ġtotal":4381,"Ġanaly":4382,"Ġpersonally":4383,"Ġorganised":4384,"Ġtemper":4385,"Ġchi":4386,"Ġhorrendous":4387,"Ġmates":4388,"Ġwalks":4389,"ivil":4390,"male":4391,"ggy":4392,"Ġrule":4393,"Ġchatting":4394,"mps":4395,"ieth":4396,"Ġdecor":4397,"Ġliterature":4398,"raid":4399,"ĠPotter":4400,"Ġinflu":4401,"from":4402,"Ġwore":4403,"Ġsixth":4404,"Ġdata":4405,"Ġnat":4406,"tting":4407,"Ġtie":4408,"Ġfinally":4409,"ration":4410,"Ġtheat":4411,"Ġkit":4412,"Ġcode":4413,"Ġyummy":4414,"itude":4415,"urity":4416,"Ġuses":4417,"ĠAir":4418,"ĠJames":4419,"iano":4420,"ounce":4421,"ĠEurop":4422,"Ġbeard":4423,"Ġconsidering":4424,"Ġpun":4425,"Ġnuts":4426,"Ġmistake":4427,"Ġdocument":4428,"Ġcetera":4429,"Ġballs":4430,"Ġfemale":4431,"Ġclue":4432,"Ġneighbours":4433,"iring":4434,"tail":4435,"Ġfamilies":4436,"ury":4437,"Ġlength":4438,"ria":4439,"Ġcompar":4440,"Ġhandle":4441,"Ġdare":4442,"Ġconcent":4443,"Ġstudying":4444,"erve":4445,"Ġplanned":4446,"Ġdoctors":4447,"Ġsaf":4448,"Ġpainful":4449,"Ġtasty":4450,"Ġpiano":4451,"ĠZealand":4452,"lor":4453,"rict":4454,"Ġfurn":4455,"ĠSy":4456,"Ġafraid":4457,"Ġearning":4458,"Ġengineering":4459,"ĠTo":4460,"Ġblind":4461,"Ġmetal":4462,"Ġsigns":4463,"Ġnaughty":4464,"Ġsession":4465,"rel":4466,"ential":4467,"Ġneg":4468,"Ġoffered":4469,"riage":4470,"ĠTha":4471,"Ġplu":4472,"Ġspray":4473,"Ġchallenge":4474,"Ġdying":4475,"Ġpartner":4476,"Ġcamping":4477,"urally":4478,"Ġpulling":4479,"iar":4480,"Ġplans":4481,"Ġfestival":4482,"Ġchrist":4483,"Ġapplic":4484,"Ġseats":4485,"Ġconversations":4486,"Ġnails":4487,"Ġchan":4488,"ĠScott":4489,"Ġsky":4490,"Ġlegal":4491,"ĠCambridge":4492,"dad":4493,"ching":4494,"Ġbalance":4495,"ĠEve":4496,"Ġholes":4497,"Ġillegal":4498,"norm":4499,"Ġnest":4500,"ser":4501,"Ġsofa":4502,"Ġpacket":4503,"Ġperform":4504,"Ġpresents":4505,"Ġordered":4506,"Ġauntie":4507,"Ġcigare":4508,"Ġtrea":4509,"verse":4510,"Ġprop":4511,"ĠDV":4512,"Ġshoot":4513,"Ġmale":4514,"shes":4515,"Ġcell":4516,"Ġshift":4517,"ĠSains":4518,"ords":4519,"Ġhum":4520,"ĠUm":4521,"Ġjumper":4522,"ĠKorea":4523,"Ġencoura":4524,"ckets":4525,"Ġincome":4526,"Ġtruth":4527,"Ġtechnically":4528,"Ġboot":4529,"Ġpour":4530,"Ġbare":4531,"Ġplates":4532,"Ġcharacters":4533,"ba":4534,"gers":4535,"Ġlake":4536,"odka":4537,"Ġmaterial":4538,"HS":4539,"Ġnerv":4540,"ĠWell":4541,"Ġswap":4542,"Ġphotographs":4543,"Ġimpressed":4544,"ĠPolish":4545,"Ġdates":4546,"iddle":4547,"Ġtwe":4548,"Ġmood":4549,"Ġing":4550,"Ġmarks":4551,"Ġapproach":4552,"ĠStreet":4553,"Ġnervous":4554,"Ġscan":4555,"Ġmessages":4556,"Ġframe":4557,"ray":4558,"Ġchairs":4559,"ĠMac":4560,"Ġdegrees":4561,"Ġrecipe":4562,"sit":4563,"ule":4564,"wers":4565,"itor":4566,"Ġchose":4567,"Ġspir":4568,"tired":4569,"Ġmedia":4570,"Ġbenefit":4571,"Ġmuseum":4572,"Ġhire":4573,"Ġskill":4574,"ĠThai":4575,"Ġtick":4576,"Ġstops":4577,"Ġocc":4578,"Ġcircle":4579,"bel":4580,"mi":4581,"ĠBra":4582,"Ġhomework":4583,"Ġarticle":4584,"kers":4585,"mark":4586,"Ġstro":4587,"Ġsteal":4588,"Ġfunn":4589,"ĠJesus":4590,"Ġfilled":4591,"Ġsausage":4592,"Ġdescribe":4593,"Ġped":4594,"Ġburnt":4595,"su":4596,"Ġwise":4597,"Ġpunch":4598,"izarre":4599,"Ġdigital":4600,"ĠYoutube":4601,"Ġmarry":4602,"Ġvideos":4603,"Ġlunchtime":4604,"Ġincredible":4605,"eam":4606,"iture":4607,"vered":4608,"ulation":4609,"Ġunus":4610,"Ġbrocc":4611,"Ġcrikey":4612,"ĠSainsbury":4613,"ello":4614,"Ġscream":4615,"Ġheads":4616,"Ġsigned":4617,"nice":4618,"utter":4619,"ĠSha":4620,"Ġbackwards":4621,"Ġleaf":4622,"Ġsecurity":4623,"Ġringing":4624,"Ġdread":4625,"cakes":4626,"ĠCor":4627,"Ġpocket":4628,"agne":4629,"Ġcastle":4630,"ja":4631,"Ġaim":4632,"Ġwide":4633,"Ġpow":4634,"Ġoptions":4635,"sis":4636,"Ġhoney":4637,"Ġhated":4638,"thers":4639,"ĠCD":4640,"Ġkinds":4641,"Ġoverd":4642,"ĠPeter":4643,"Ġparties":4644,"Ġrelated":4645,"Ġconnection":4646,"ware":4647,"Ġhom":4648,"etti":4649,"istan":4650,"Ġletting":4651,"allow":4652,"Ġimpression":4653,"Ġintellig":4654,"Ġprofessional":4655,"ush":4656,"Ġcarried":4657,"Ġdepending":4658,"ĠDVD":4659,"Ġmember":4660,"Ġvodka":4661,"Ġfinan":4662,"eared":4663,"Ġshh":4664,"oted":4665,"Ġpump":4666,"ĠAmericans":4667,"Ġcottage":4668,"nal":4669,"Ġdust":4670,"bble":4671,"sa":4672,"Ġfully":4673,"Ġbroccoli":4674,"ĠWill":4675,"Ġblame":4676,"Ġclassroom":4677,"Ġheating":4678,"Ġimprove":4679,"Ġbizarre":4680,"ĠArab":4681,"ĠMich":4682,"ĠEs":4683,"inting":4684,"las":4685,"Ġnail":4686,"Ġplain":4687,"Ġplug":4688,"Ġblond":4689,"Ġfocus":4690,"wor":4691,"Ġfab":4692,"Ġfourth":4693,"ĠGeor":4694,"Ġamb":4695,"Ġbat":4696,"ĠWel":4697,"ĠRussian":4698,"Ġtheatre":4699,"Ġpeas":4700,"Ġsolid":4701,"Ġarrange":4702,"Ġexpected":4703,"priate":4704,"Ġsteps":4705,"Ġtub":4706,"Ġeth":4707,"Ġfrozen":4708,"Ġbroad":4709,"Ġincrea":4710,"ĠIpad":4711,"bur":4712,"Ġoo":4713,"Ġgolf":4714,"hey":4715,"Ġrose":4716,"Ġtopic":4717,"Ġreasonable":4718,"Ġpanic":4719,"ĠBlack":4720,"bon":4721,"Ġpy":4722,"Ġbey":4723,"Ġlol":4724,"Ġpages":4725,"Ġtablet":4726,"Ġanswers":4727,"Ġentirely":4728,"car":4729,"Ġblimey":4730,"Ġconfident":4731,"Ġdessert":4732,"Ġbite":4733,"ĠShe":4734,"ĠPr":4735,"ounge":4736,"Ġingred":4737,"Ġunusual":4738,"rating":4739,"atically":4740,"Ġdiction":4741,"Ġcough":4742,"Ġloan":4743,"ĠDa":4744,"Ġhalfway":4745,"ressing":4746,"ĠOx":4747,"Ġcomputers":4748,"Ġfighting":4749,"ilosoph":4750,"pool":4751,"Ġopening":4752,"Ġtrains":4753,"Ġsales":4754,"Ġbanana":4755,"Ġskiing":4756,"ĠEuropean":4757,"Ġchip":4758,"oses":4759,"Ġcomedy":4760,"ĠBir":4761,"chie":4762,"ĠGreat":4763,"Ġreality":4764,"Ġtests":4765,"Ġsuccessful":4766,"Ġchew":4767,"Ġrecy":4768,"Ġcricket":4769,"ĠWelsh":4770,"Ġcop":4771,"Ġgrandpa":4772,"ingu":4773,"ĠBen":4774,"Ġsixt":4775,"Ġeng":4776,"Ġaccommodation":4777,"Ġfurniture":4778,"Ġtent":4779,"Ġlounge":4780,"Ġsentence":4781,"Ġmagaz":4782,"Ġavoid":4783,"Ġgrade":4784,"Ġinternational":4785,"Ġpermission":4786,"ply":4787,"Ġcarpet":4788,"Ġlif":4789,"Ġship":4790,"Ġstamp":4791,"ĠCl":4792,"Ġfixed":4793,"Ġwrap":4794,"fied":4795,"hat":4796,"Ġmer":4797,"rian":4798,"Ġguar":4799,"ĠChar":4800,"Ġmidnight":4801,"Ġforce":4802,"ĠCorn":4803,"Ġfilling":4804,"Ġproducts":4805,"Ġwhisky":4806,"Ġphra":4807,"Ġscale":4808,"Ġlecture":4809,"Ġeld":4810,"Ġproof":4811,"Ġladies":4812,"Ġboom":4813,"Ġconstantly":4814,"Ġcontinue":4815,"Ġirrit":4816,"oon":4817,"lla":4818,"keting":4819,"Ġdies":4820,"ĠCam":4821,"Ġboll":4822,"people":4823,"Ġcarav":4824,"Ġdifferently":4825,"Ġscient":4826,"Ġsmoking":4827,"ials":4828,"Ġcivil":4829,"Ġwander":4830,"Ġreali":4831,"Ġprove":4832,"Ġtip":4833,"ording":4834,"Ġgross":4835,"Ġknowledge":4836,"odes":4837,"Ġretired":4838,"Ġpeel":4839,"Ġshoulder":4840,"ĠLike":4841,"Ġweekends":4842,"didn":4843,"Ġbend":4844,"igning":4845,"Ġbum":4846,"ĠWind":4847,"Ġpotentially":4848,"pared":4849,"Ġcheeky":4850,"Ġol":4851,"Ġlim":4852,"lam":4853,"Ġshirt":4854,"Ġult":4855,"ĠBl":4856,"Ġawake":4857,"Ġtheme":4858,"Ġward":4859,"actually":4860,"Ġblog":4861,"bor":4862,"Ġfi":4863,"Ġfear":4864,"Ġremembered":4865,"Ġrush":4866,"something":4867,"Ġtraditional":4868,"Ġrot":4869,"Ġcope":4870,"Ġminimum":4871,"Ġapplied":4872,"Ġauthor":4873,"mhm":4874,"Ġcre":4875,"Ġwalls":4876,"Ġrap":4877,"mpy":4878,"ictor":4879,"Ġcrisps":4880,"ĠScottish":4881,"Ġstretch":4882,"Ġprogramm":4883,"ossible":4884,"Ġbudget":4885,"ĠMuslim":4886,"Ġcurt":4887,"Ġskinny":4888,"Ġbeyond":4889,"Ġni":4890,"Ġprog":4891,"Ġknee":4892,"ocks":4893,"ghetti":4894,"loyed":4895,"Ġextent":4896,"Ġbarbe":4897,"Ġnaked":4898,"Ġpushing":4899,"Ġnegative":4900,"ĠCon":4901,"Ġretire":4902,"Ġcreative":4903,"Ġjacket":4904,"Ġgear":4905,"ĠMin":4906,"Ġcourses":4907,"Ġsits":4908,"Ġworrying":4909,"ael":4910,"iders":4911,"Ġordin":4912,"tery":4913,"Ġmul":4914,"ĠEd":4915,"Ġemotion":4916,"Ġscene":4917,"Ġtypical":4918,"nut":4919,"pir":4920,"Ġtool":4921,"law":4922,"comp":4923,"Ġeighties":4924,"ĠGreece":4925,"Ġvolunte":4926,"ald":4927,"Ġphilosoph":4928,"rance":4929,"Ġcorp":4930,"Ġmarketing":4931,"Ġmanagement":4932,"Ġconnected":4933,"Ġresponsibility":4934,"cut":4935,"Ġmembers":4936,"ĠOf":4937,"Ġprofit":4938,"ĠJapanese":4939,"Ġarchite":4940,"umed":4941,"Ġtong":4942,"inc":4943,"rael":4944,"Ġextremely":4945,"Ġmeasure":4946,"ada":4947,"ĠLabour":4948,"chester":4949,"Ġdestro":4950,"Ġprepared":4951,"Ġtricky":4952,"ĠThey":4953,"Ġterribly":4954,"ums":4955,"Ġgate":4956,"ques":4957,"Ġmult":4958,"ĠNe":4959,"ĠStar":4960,"Ġlectur":4961,"Ġtarget":4962,"Ġtemperature":4963,"nic":4964,"term":4965,"Ġveg":4966,"Ġpenis":4967,"ĠPoland":4968,"Ġservices":4969,"Ġfasc":4970,"Ġimpossible":4971,"Ġcarrying":4972,"Ġknocked":4973,"Ġeuros":4974,"Ġmouse":4975,"Ġlane":4976,"alf":4977,"ĠSa":4978,"Ġproud":4979,"spect":4980,"Ġgap":4981,"Ġpred":4982,"Ġjesus":4983,"Ġchamp":4984,"case":4985,"lands":4986,"ĠVictor":4987,"iety":4988,"Ġoperation":4989,"Ġcapital":4990,"ĠGreek":4991,"bal":4992,"off":4993,"inating":4994,"Ġwhoo":4995,"Ġrat":4996,"Ġheld":4997,"Ġcrash":4998,"Ġreminds":4999,"Ġguaran":5000,"ooth":5001,"ĠChristian":5002,"Ġtransfer":5003,"Ġtranscri":5004,"Ġjournal":5005,"bby":5006,"Ġkil":5007,"shall":5008,"Ġjoined":5009,"Ġassist":5010,"Ġnicely":5011,"Ġbrush":5012,"vey":5013,"Ġstor":5014,"ĠMad":5015,"ĠTra":5016,"Ġjumping":5017,"Ġprovide":5018,"Ġspaghetti":5019,"Ġtunnel":5020,"sell":5021,"Ġchim":5022,"tted":5023,"ĠMP":5024,"Ġpoison":5025,"ĠHow":5026,"Ġmicro":5027,"Ġhedge":5028,"cue":5029,"iny":5030,"Ġsheet":5031,"Ġsuff":5032,"ĠNHS":5033,"Ġcrowd":5034,"hold":5035,"mum":5036,"ille":5037,"Ġkeys":5038,"Ġgramm":5039,"anyway":5040,"Ġwinning":5041,"mos":5042,"Ġinstance":5043,"Ġraw":5044,"ga":5045,"Ġdough":5046,"Ġfry":5047,"ĠRob":5048,"Ġlazy":5049,"Ġdesper":5050,"Ġsweets":5051,"Ġdishwa":5052,"Ġshouting":5053,"Ġrabbit":5054,"ius":5055,"rop":5056,"Ġmoan":5057,"Ġbeds":5058,"ĠIsrael":5059,"ĠMrs":5060,"Ġstressed":5061,"Ġmash":5062,"Ġadvent":5063,"Ġmajority":5064,"Ġfrust":5065,"Ġthrown":5066,"Ġtail":5067,"oles":5068,"ddle":5069,"Ġideal":5070,"mingham":5071,"Ġmedical":5072,"attoo":5073,"ok":5074,"Ġkicked":5075,"Ġsets":5076,"Ġsimply":5077,"Ġbikes":5078,"Ġfeedback":5079,"Ġpipe":5080,"Ġappointment":5081,"press":5082,"ĠIce":5083,"anda":5084,"ption":5085,"Ġfifth":5086,"Ġresults":5087,"Ġcycling":5088,"Ġdrawing":5089,"ffy":5090,"down":5091,"rier":5092,"Ġmonkey":5093,"Ġmoves":5094,"Ġcarrot":5095,"Ġmountain":5096,"Ġprawn":5097,"ĠGeorge":5098,"Ġsocks":5099,"Ġelement":5100,"Ġpushed":5101,"hib":5102,"inth":5103,"isn":5104,"Ġchoo":5105,"ifically":5106,"ĠDub":5107,"Ġstopping":5108,"Ġwashed":5109,"Ġrhy":5110,"Ġfailed":5111,"Ġaccording":5112,"Ġsmile":5113,"atin":5114,"atory":5115,"Ġsticks":5116,"ĠCoke":5117,"Ġingredients":5118,"Ġowe":5119,"Ġspon":5120,"Ġfifties":5121,"ĠUni":5122,"Ġesca":5123,"Ġwooden":5124,"Ġstruggling":5125,"Ġshooting":5126,"Ġdictionary":5127,"ĠBirmingham":5128,"Ġll":5129,"Ġlads":5130,"ilities":5131,"Ġslide":5132,"Ġgeneration":5133,"Ġdeveloped":5134,"Ġdiscussion":5135,"Ġflew":5136,"Ġordinary":5137,"vant":5138,"Ġoutf":5139,"Ġmagn":5140,"Ġvague":5141,"Ġgrea":5142,"Ġbutt":5143,"shirt":5144,"Ġslice":5145,"ache":5146,"Ġprinted":5147,"Ġdelete":5148,"Ġbreast":5149,"Ġqueue":5150,"Ġmushrooms":5151,"hood":5152,"Ġgro":5153,"Ġmoon":5154,"ĠBer":5155,"ased":5156,"ipes":5157,"Ġbreaking":5158,"Ġluckily":5159,"Ġcalm":5160,"Ġcondition":5161,"Ġmountains":5162,"Ġpor":5163,"ooming":5164,"ĠSm":5165,"Ġpause":5166,"Ġguest":5167,"Ġpartly":5168,"aging":5169,"Ġsett":5170,"ensive":5171,"inct":5172,"Ġrefer":5173,"Ġexact":5174,"order":5175,"Ġhearing":5176,"fif":5177,"ole":5178,"tes":5179,"Ġgall":5180,"Ġstab":5181,"chan":5182,"Ġeval":5183,"Ġnaturally":5184,"fy":5185,"Ġfright":5186,"lant":5187,"ints":5188,"Ġstring":5189,"Ġbasis":5190,"Ġbiscuit":5191,"Ġattractive":5192,"Ġund":5193,"ained":5194,"soci":5195,"Ġroundabout":5196,"Ġmillions":5197,"Ġachie":5198,"Ġding":5199,"Ġnovel":5200,"Ġheels":5201,"Ġmakeup":5202,"Ġaha":5203,"Ġjokes":5204,"umn":5205,"twenty":5206,"Ġcucu":5207,"Ġtutor":5208,"ya":5209,"Ġsticking":5210,"essed":5211,"Ġagreed":5212,"ĠBru":5213,"Ġargue":5214,"Ġadded":5215,"Ġbrief":5216,"Ġsafety":5217,"east":5218,"Ġsorting":5219,"going":5220,"ĠQu":5221,"Ġofficer":5222,"stop":5223,"Ġconcept":5224,"Ġflats":5225,"Ġdeli":5226,"Ġcreepy":5227,"Ġgoogle":5228,"ash":5229,"Ġjun":5230,"ished":5231,"uming":5232,"Ġessentially":5233,"eme":5234,"Ġbone":5235,"Ġfried":5236,"Ġtwist":5237,"Ġflood":5238,"ĠUS":5239,"Ġnetwork":5240,"Ġcereal":5241,"Ġgoal":5242,"lection":5243,"Ġlocked":5244,"Ġteams":5245,"Ġperman":5246,"Ġmud":5247,"Ġfallen":5248,"Ġequival":5249,"Ġsixties":5250,"gly":5251,"Ġtattoo":5252,"isy":5253,"Ġusual":5254,"Ġplayers":5255,"arks":5256,"Ġcompetition":5257,"ĠSkype":5258,"Ġincluding":5259,"Ġferry":5260,"Ġmus":5261,"Ġdetail":5262,"Ġlectures":5263,"Ġpowder":5264,"Ġblonde":5265,"Ġdishwasher":5266,"Ġweak":5267,"uty":5268,"ffle":5269,"unning":5270,"ĠBro":5271,"ĠLo":5272,"asp":5273,"Ġbuildings":5274,"Ġsandwiches":5275,"Ġbasket":5276,"eable":5277,"ston":5278,"ĠBel":5279,"Ġpresume":5280,"Ġhousing":5281,"Ġrestaurants":5282,"Ġmotorway":5283,"Ġmulti":5284,"bag":5285,"rated":5286,"Ġsalary":5287,"Ġassoci":5288,"absolute":5289,"Ġconference":5290,"Ġthrew":5291,"orter":5292,"Ġrings":5293,"Ġsai":5294,"Ġsumm":5295,"Ġmetres":5296,"ems":5297,"fact":5298,"Ġstir":5299,"Ġmatt":5300,"ĠVal":5301,"Ġcorn":5302,"Ġevil":5303,"Ġlicence":5304,"ldi":5305,"Ġunderstanding":5306,"Ġfox":5307,"Ġreligious":5308,"Ġmurder":5309,"Ġequivalent":5310,"god":5311,"Ġss":5312,"Ġhates":5313,"Ġlin":5314,"Ġheight":5315,"Ġreception":5316,"ĠTom":5317,"ealous":5318,"Ġbars":5319,"Ġspecifically":5320,"Ġhabit":5321,"eding":5322,"ari":5323,"Ġaltern":5324,"Ġdip":5325,"Ġrecordings":5326,"ĠIT":5327,"Ġfaster":5328,"icles":5329,"alm":5330,"Ġbrings":5331,"Ġfairy":5332,"Ġracist":5333,"Ġjewell":5334,"ĠPark":5335,"ĠLu":5336,"Ġbenefits":5337,"Ġacting":5338,"ief":5339,"ĠPro":5340,"ĠGra":5341,"ĠLiver":5342,"Ġappear":5343,"Ġcontribut":5344,"mother":5345,"Ġunivers":5346,"Ġchickens":5347,"Ġseventies":5348,"Ġcentral":5349,"Ġbullshit":5350,"Ġdollars":5351,"Ġgut":5352,"alog":5353,"Ġkettle":5354,"ĠOff":5355,"Ġtreatment":5356,"Ġnanny":5357,"Ġtank":5358,"Ġcateg":5359,"Ġnah":5360,"Ġfreezing":5361,"Ġtrained":5362,"Ġimagin":5363,"Ġopposed":5364,"Ġcreated":5365,"celona":5366,"Ġpattern":5367,"bla":5368,"Ġden":5369,"take":5370,"Ġpray":5371,"bye":5372,"Ġstrict":5373,"Ġemailed":5374,"eron":5375,"Ġbran":5376,"Ġshap":5377,"Ġalb":5378,"abet":5379,"agger":5380,"Ġadults":5381,"Ġexperien":5382,"Ġphysical":5383,"ĠMorris":5384,"Ġquote":5385,"Ġleader":5386,"Ġstreng":5387,"Ġfirm":5388,"Ġmirror":5389,"ĠOxford":5390,"sex":5391,"Ġmechan":5392,"Ġcharged":5393,"Ġevidence":5394,"paper":5395,"Ġrequire":5396,"ĠJewish":5397,"ĠMex":5398,"Ġtheirs":5399,"his":5400,"made":5401,"ships":5402,"Ġvac":5403,"ĠPE":5404,"Ġdresses":5405,"ĠNorthern":5406,"Ġclubs":5407,"Ġsilver":5408,"Ġjelly":5409,"Ġstressful":5410,"Ġcaravan":5411,"imate":5412,"Ġregist":5413,"Ġtuna":5414,"Ġtitle":5415,"Ġoverdraft":5416,"ĠWindows":5417,"Ġrom":5418,"ica":5419,"Ġjealous":5420,"Ġpapers":5421,"Ġvouch":5422,"Ġprep":5423,"pest":5424,"Ġunlike":5425,"Ġserve":5426,"Ġpars":5427,"Ġessay":5428,"ĠBarcelona":5429,"cra":5430,"Ġability":5431,"Ġspeaks":5432,"Ġexperiment":5433,"Ġtreated":5434,"word":5435,"Ġgent":5436,"lend":5437,"ooh":5438,"Ġmel":5439,"ĠBa":5440,"ocked":5441,"Ġtube":5442,"ĠAustralian":5443,"Ġgrief":5444,"normous":5445,"Ġtongue":5446,"ĠLiverpool":5447,"Ġshad":5448,"Ġexten":5449,"Ġmassively":5450,"Ġgrill":5451,"ilst":5452,"Ġpays":5453,"Ġstudies":5454,"Ġtransport":5455,"Ġinterviews":5456,"parent":5457,"Ġthreat":5458,"Ġboun":5459,"Ġann":5460,"Ġapolog":5461,"Ġlandl":5462,"Ġnecessary":5463,"Ġdevelopment":5464,"doesn":5465,"Ġprevious":5466,"absolutely":5467,"Ġconsidered":5468,"ican":5469,"Ġcable":5470,"Ġvine":5471,"Ġpersonality":5472,"Ġlistened":5473,"Ġattitude":5474,"Ġcircus":5475,"Ġprogrammes":5476,"eh":5477,"Ġlingu":5478,"Ġpit":5479,"ancy":5480,"Ġrasp":5481,"Ġcore":5482,"Ġdriven":5483,"Ġriding":5484,"Ġsurprising":5485,"Ġcameras":5486,"iam":5487,"Ġwave":5488,"Ġharm":5489,"Ġcapt":5490,"Ġspider":5491,"ĠLa":5492,"Ġappeal":5493,"ordin":5494,"Ġembarrassed":5495,"Ġpeace":5496,"Ġbollocks":5497,"Ġenormous":5498,"Ġforms":5499,"name":5500,"arts":5501,"Ġdiary":5502,"ĠAldi":5503,"Ġannoys":5504,"Ġarrive":5505,"Ġcustomer":5506,"Ġtweet":5507,"fuck":5508,"Ġinj":5509,"rial":5510,"Ġunfair":5511,"ĠRoman":5512,"ize":5513,"Ġattached":5514,"Ġignore":5515,"Ġdentist":5516,"Ġcigarette":5517,"zes":5518,"Ġthroat":5519,"Ġdepos":5520,"Ġtablets":5521,"Ġshoe":5522,"Ġstruggle":5523,"hello":5524,"under":5525,"Ġnarrow":5526,"oms":5527,"Ġdivor":5528,"Ġelder":5529,"icar":5530,"Ġfalls":5531,"ĠApple":5532,"Ġscoo":5533,"Ġeats":5534,"ĠOne":5535,"Ġburning":5536,"were":5537,"Ġiit":5538,"ators":5539,"Ġgather":5540,"ths":5541,"nam":5542,"Ġfuneral":5543,"Ġpancake":5544,"Ġphysically":5545,"Ġteenager":5546,"ĠMichael":5547,"ĠUniversity":5548,"Ġbound":5549,"Ġnap":5550,"Ġsees":5551,"Ġfail":5552,"ĠDis":5553,"Ġbreathe":5554,"Ġsquee":5555,"Ġsalmon":5556,"Ġaccents":5557,"Ġsharing":5558,"ox":5559,"Ġabs":5560,"ĠRich":5561,"Ġexpert":5562,"Ġequip":5563,"ĠRoad":5564,"Ġgrammar":5565,"ĠIceland":5566,"Ġdelivery":5567,"Ġtune":5568,"Ġcider":5569,"Ġfri":5570,"inder":5571,"ĠGP":5572,"Ġsecondary":5573,"Ġfeeding":5574,"Ġprojects":5575,"Ġphysics":5576,"Ġrailway":5577,"fi":5578,"Ġbeg":5579,"Ġner":5580,"Ġshel":5581,"mma":5582,"Ġbuff":5583,"Ġscheme":5584,"resent":5585,"Ġassess":5586,"Ġdirectly":5587,"Ġdelivered":5588,"rad":5589,"ived":5590,"Ġbelow":5591,"Ġartist":5592,"Ġmagazine":5593,"Ġmattress":5594,"eab":5595,"Ġtower":5596,"cient":5597,"Ġcheque":5598,"Ġswea":5599,"Ġdissert":5600,"tres":5601,"anta":5602,"antic":5603,"Ġthroughout":5604,"Ġlaid":5605,"iber":5606,"ized":5607,"Ġexplained":5608,"Ġrelaxed":5609,"Ġwealth":5610,"Ġpile":5611,"Ġlatest":5612,"Ġincredibly":5613,"Ġperformance":5614,"lays":5615,"Ġrefu":5616,"quite":5617,"Ġfees":5618,"ĠTe":5619,"Ġunif":5620,"Ġblooming":5621,"Ġdrawer":5622,"Ġsymb":5623,"Ġelectricity":5624,"each":5625,"ĠIphone":5626,"Ġminus":5627,"Ġpointless":5628,"Ġadmin":5629,"Ġpassion":5630,"Ġtexted":5631,"Ġproduce":5632,"Ġcollection":5633,"Ġaudience":5634,"had":5635,"inx":5636,"Ġtoe":5637,"Ġugly":5638,"etro":5639,"Ġreach":5640,"ĠAb":5641,"Ġrepla":5642,"gypt":5643,"viour":5644,"ĠSte":5645,"ĠJo":5646,"Ġimpressive":5647,"Ġadvance":5648,"Ġpolitical":5649,"Ġpolitics":5650,"Ġmaint":5651,"Ġsignal":5652,"Ġsunny":5653,"Ġofficial":5654,"Ġbecoming":5655,"Ġmould":5656,"Ġpies":5657,"Ġinject":5658,"think":5659,"Ġmaster":5660,"ĠJust":5661,"Ġuseless":5662,"Ġcities":5663,"lymp":5664,"Ġmam":5665,"Ġmax":5666,"Ġcalend":5667,"Ġsitu":5668,"Ġprior":5669,"Ġshorts":5670,"Ġburger":5671,"Ġstatement":5672,"Ġtwenties":5673,"rang":5674,"ux":5675,"wood":5676,"Ġhook":5677,"Ġpence":5678,"Ġweigh":5679,"Ġnur":5680,"Ġbaking":5681,"Ġexhib":5682,"Ġuncom":5683,"Ġtray":5684,"Ġconsult":5685,"Ġtidy":5686,"Ġdamage":5687,"Ġbones":5688,"Ġpoll":5689,"Ġmustn":5690,"Ġbelt":5691,"Ġbrothers":5692,"Ġremote":5693,"Ġconstru":5694,"Ġ3":5695,"idl":5696,"Ġkna":5697,"olic":5698,"ĠPe":5699,"Ġunderst":5700,"Ġpractical":5701,"Ġclimb":5702,"Ġapplication":5703,"believ":5704,"give":5705,"Ġpir":5706,"Ġsore":5707,"Ġhaird":5708,"Ġanyhow":5709,"ĠCup":5710,"Ġmarsh":5711,"iped":5712,"Ġhorri":5713,"gery":5714,"Ġfollowed":5715,"Ġpractise":5716,"ĠMorrisons":5717,"Ġpara":5718,"Ġassumed":5719,"Ġrespond":5720,"host":5721,"Ġbehaviour":5722,"Ġalbum":5723,"hi":5724,"ĠWars":5725,"ĠOlymp":5726,"Ġresour":5727,"Ġdepressed":5728,"Ġcustomers":5729,"Ġeconomy":5730,"Ġweed":5731,"Ġworn":5732,"ella":5733,"Ġpond":5734,"Ġsisters":5735,"Ġflour":5736,"Ġdealing":5737,"Ġcomplaining":5738,"iers":5739,"sting":5740,"utch":5741,"Ġcovers":5742,"illa":5743,"osen":5744,"Ġscri":5745,"ĠKing":5746,"Ġtempted":5747,"ĠiPh":5748,"ded":5749,"Ġrema":5750,"ĠMe":5751,"Ġpoet":5752,"ĠLan":5753,"Ġasks":5754,"Ġhurts":5755,"Ġindependent":5756,"these":5757,"ĠCath":5758,"Ġjewellery":5759,"Ġmarriage":5760,"Ġeleph":5761,"Ġbelong":5762,"Ġnana":5763,"Ġmiser":5764,"Ġcucumber":5765,"inging":5766,"ĠEgypt":5767,"Ġnamed":5768,"Ġcleaned":5769,"Ġdude":5770,"Ġcleaner":5771,"Ġrelatively":5772,"Ġdemand":5773,"Ġyoga":5774,"Ġmixt":5775,"Ġautomatically":5776,"Ġtits":5777,"Ġfiver":5778,"Ġwasted":5779,"Ġseeds":5780,"Ġaspect":5781,"Ġtries":5782,"Ġlearned":5783,"Ġdirector":5784,"Ġfortune":5785,"cers":5786,"Ġnoisy":5787,"ĠLidl":5788,"Ġspeakers":5789,"Ġdisappoint":5790,"Ġdiscount":5791,"cted":5792,"Ġlas":5793,"Ġimage":5794,"ĠVen":5795,"Ġtriple":5796,"Ġscreaming":5797,"Ġfascinating":5798,"lies":5799,"Ġshy":5800,"Ġjar":5801,"Ġbast":5802,"Ġterra":5803,"Ġstronger":5804,"Ġadvant":5805,"ĠManchester":5806,"idden":5807,"illy":5808,"round":5809,"Ġnood":5810,"Ġcomplex":5811,"Ġapples":5812,"Ġchees":5813,"Ġdisab":5814,"Ġcoloured":5815,"ĠAsian":5816,"parents":5817,"father":5818,"Ġfence":5819,"Ġsteam":5820,"care":5821,"ĠSch":5822,"Ġvirt":5823,"Ġguide":5824,"Ġdisease":5825,"Ġbuses":5826,"Ġdragon":5827,"rete":5828,"itary":5829,"levant":5830,"Ġovernight":5831,"ĠLatin":5832,"gen":5833,"Ġcompare":5834,"agram":5835,"visor":5836,"Ġvegetable":5837,"Ġsuggested":5838,"Ġboiling":5839,"ĠRoy":5840,"Ġlack":5841,"Ġdepressing":5842,"Ġterror":5843,"Ġflex":5844,"Ġuncomfortable":5845,"bl":5846,"craft":5847,"hang":5848,"non":5849,"Ġhistor":5850,"Ġdistract":5851,"Ġmovies":5852,"Ġepisodes":5853,"bits":5854,"omb":5855,"pea":5856,"Ġbal":5857,"Ġpier":5858,"thod":5859,"usted":5860,"Ġsuits":5861,"ĠBau":5862,"Ġwindy":5863,"Ġaddict":5864,"Ġkilling":5865,"Ġresponsible":5866,"Ġequipment":5867,"bet":5868,"ette":5869,"Ġowned":5870,"Ġadver":5871,"Ġfactory":5872,"Ġknees":5873,"Ġpassing":5874,"Ġlighter":5875,"Ġradi":5876,"Ġdesigned":5877,"Ġimmig":5878,"Ġmixture":5879,"ault":5880,"Ġwhilst":5881,"Ġchick":5882,"Ġchosen":5883,"airy":5884,"Ġimpact":5885,"Ġruined":5886,"Ġconserv":5887,"Ġbanks":5888,"ĠAfrican":5889,"Ġvoca":5890,"ĠTurk":5891,"Ġgraduate":5892,"Ġnurse":5893,"Ġdump":5894,"Ġstructure":5895,"Ġroutine":5896,"Ġadvertising":5897,"ĠMother":5898,"Ġwitch":5899,"Ġgy":5900,"chy":5901,"aby":5902,"Ġsupper":5903,"Ġfields":5904,"Ġcontinu":5905,"Ġmiserable":5906,"ĠBauer":5907,"Ġwit":5908,"thy":5909,"Ġrights":5910,"venue":5911,"ĠBig":5912,"Ġcoup":5913,"Ġflash":5914,"Ġsmooth":5915,"wait":5916,"Ġconvin":5917,"bow":5918,"Ġkicking":5919,"Ġagent":5920,"Ġleather":5921,"Ġhanded":5922,"Ġpopulation":5923,"Ġfrequ":5924,"Ġeffectively":5925,"cies":5926,"Ġ0":5927,"Ġwings":5928,"Ġyouth":5929,"Ġfeat":5930,"Ġreaction":5931,"oom":5932,"Ġcancel":5933,"ĠEU":5934,"Ġfunction":5935,"ĠHor":5936,"Ġtex":5937,"Ġpleas":5938,"Ġsquir":5939,"Ġactivity":5940,"iter":5941,"ĠDan":5942,"Ġsupply":5943,"Ġstands":5944,"Ġtechnical":5945,"ĠCameron":5946,"Ġdissertation":5947,"Ġcalendar":5948,"ament":5949,"fish":5950,"olen":5951,"Ġvoted":5952,"Ġunbeliev":5953,"Ġending":5954,"Ġcharging":5955,"Ġwears":5956,"ological":5957,"Ġzone":5958,"Ġspinach":5959,"Ġuniversities":5960,"ĠMiddle":5961,"Ġwardro":5962,"bay":5963,"ds":5964,"Ġbung":5965,"Ġdrank":5966,"Ġspeaker":5967,"Ġgloves":5968,"Ġdeposit":5969,"writ":5970,"Ġya":5971,"Ġliqu":5972,"geon":5973,"fying":5974,"Ġtan":5975,"olution":5976,"Ġwilling":5977,"Ġamong":5978,"Ġthirties":5979,"Ġresult":5980,"Ġmeetings":5981,"Ġlocation":5982,"Ġcrime":5983,"Ġfinancial":5984,"Ġgang":5985,"Ġmeas":5986,"Ġcases":5987,"rows":5988,"Ġrolls":5989,"Ġguessing":5990,"Ġjud":5991,"Ġregard":5992,"lude":5993,"Ġbonus":5994,"fall":5995,"Ġbills":5996,"Ġarrest":5997,"test":5998,"Ġunc":5999,"Ġfreeze":6000,"Ġknack":6001,"kea":6002,"phe":6003,"Ġcath":6004,"change":6005,"Ġexha":6006,"mbs":6007,"Ġsched":6008,"Ġcountryside":6009,"Ġmagic":6010,"gain":6011,"ij":6012,"stick":6013,"anas":6014,"Ġshorter":6015,"Ġnick":6016,"reams":6017,"ĠPre":6018,"cip":6019,"Ġpassword":6020,"bbed":6021,"away":6022,"ws":6023,"Ġrip":6024,"Ġchain":6025,"Ġvia":6026,"Ġtalent":6027,"phere":6028,"phones":6029,"Ġcounter":6030,"Ġnineties":6031,"Ġsignific":6032,"Ġmusical":6033,"Ġsticky":6034,"Ġwarning":6035,"Ġforest":6036,"Ġyogh":6037,"And":6038,"Ġoi":6039,"Ġbod":6040,"Ġrib":6041,"ico":6042,"Ġjinx":6043,"Ġreh":6044,"rush":6045,"ĠGreen":6046,"Ġbooking":6047,"Ġparked":6048,"Ġprincess":6049,"Ġchoir":6050,"Ġbarely":6051,"Ġspirit":6052,"Ġgentle":6053,"val":6054,"Ġththey":6055,"Ġpean":6056,"mming":6057,"Ġplot":6058,"Ġfinishing":6059,"Ġorganise":6060,"Ġpresentation":6061,"Ġdiscovered":6062,"Ġdreadful":6063,"Ġcub":6064,"Ġmyster":6065,"mbled":6066,"Ġpaed":6067,"ĠWa":6068,"Ġtrail":6069,"Ġhotels":6070,"Ġnorthern":6071,"Ġeconom":6072,"Ġchannel":6073,"ĠClub":6074,"Ġachieve":6075,"Ġtexting":6076,"orting":6077,"Ġbells":6078,"Ġcas":6079,"Ġlately":6080,"Ġconfusing":6081,"Ġconcentrate":6082,"ĠTurkish":6083,"Ġpants":6084,"lash":6085,"Ġshelf":6086,"reak":6087,"Ġactor":6088,"aint":6089,"ddings":6090,"Ġrepresent":6091,"Ġpubs":6092,"Ġblanket":6093,"Ġguarantee":6094,"bes":6095,"will":6096,"nor":6097,"Ġdrives":6098,"Ġskip":6099,"Ġtrips":6100,"yal":6101,"Ġhen":6102,"Ġboiled":6103,"Ġgrate":6104,"Ġtexts":6105,"Ġwoods":6106,"Ġorganic":6107,"Ġmotiv":6108,"Ġgrim":6109,"Ġstrength":6110,"cool":6111,"hu":6112,"ov":6113,"Ġpil":6114,"Ġbond":6115,"ĠGame":6116,"ĠHa":6117,"Ġmince":6118,"Ġhip":6119,"Ġbrick":6120,"Ġheaven":6121,"Ġsquash":6122,"Ġinvented":6123,"ĠPeru":6124,"Ġtha":6125,"Ġloose":6126,"Ġgift":6127,"Ġatmos":6128,"Ġmusc":6129,"ĠCity":6130,"ĠGre":6131,"Ġconscious":6132,"Ġhitting":6133,"works":6134,"Ġappropriate":6135,"Ġinvestig":6136,"ĠCanada":6137,"ĠShakes":6138,"Ġdesperate":6139,"Ġinch":6140,"alking":6141,"Ġchu":6142,"bey":6143,"ĠDen":6144,"Ġadverts":6145,"Ġfet":6146,"Ġsolar":6147,"igner":6148,"Ġclimbing":6149,"Ġdebt":6150,"Ġloft":6151,"ĠKen":6152,"Ġbreathing":6153,"Ġrubber":6154,"Ġdrum":6155,"Ġfunding":6156,"Ġregularly":6157,"Ġfreak":6158,"ĠDisney":6159,"wall":6160,"Ġlip":6161,"Ġwhale":6162,"Ġouts":6163,"Ġmasters":6164,"ifts":6165,"ĠRome":6166,"Ġprogress":6167,"Ġsymbol":6168,"ckey":6169,"iate":6170,"Ġpipes":6171,"Ġwhack":6172,"Ġbeep":6173,"Ġec":6174,"Ġquar":6175,"elling":6176,"ĠPri":6177,"never":6178,"Ġgraph":6179,"Ġbuys":6180,"Ġcompetitive":6181,"Ġconcert":6182,"Ġsouthern":6183,"Ġbuttons":6184,"bra":6185,"gent":6186,"pack":6187,"xy":6188,"Ġsen":6189,"Ġsheets":6190,"Ġash":6191,"mallow":6192,"Ġbugger":6193,"Ġvir":6194,"usion":6195,"ggle":6196,"Ġproduction":6197,"Ġpod":6198,"Ġstream":6199,"Ġbreath":6200,"Ġtrick":6201,"Ġsurgery":6202,"Ġcampa":6203,"Ġevents":6204,"Ġlump":6205,"Ġalternative":6206,"dam":6207,"Ġhidden":6208,"only":6209,"Ġpatch":6210,"Ġinher":6211,"ĠTop":6212,"ddy":6213,"Ġgrandmother":6214,"Ġpainted":6215,"Ġfishing":6216,"Ġsteel":6217,"Ġja":6218,"Ġbush":6219,"ĠEm":6220,"Ġguil":6221,"Ġbreaks":6222,"Ġinsane":6223,"Ġvisa":6224,"gon":6225,"onse":6226,"Ġweb":6227,"met":6228,"Ġseed":6229,"Ġsatis":6230,"Ġpancakes":6231,"Ġtechni":6232,"apt":6233,"dom":6234,"ii":6235,"ups":6236,"Ġdice":6237,"oring":6238,"Ġjack":6239,"Ġheck":6240,"child":6241,"while":6242,"Ġfee":6243,"Ġgrad":6244,"Ġinclude":6245,"Ġcups":6246,"Ġshared":6247,"Ġapplying":6248,"Ġcircum":6249,"Ġrequest":6250,"Ġlimited":6251,"nuts":6252,"Ġcert":6253,"although":6254,"ĠFl":6255,"Ġjoint":6256,"Ġcollea":6257,"Ġheav":6258,"Ġdressing":6259,"Ġmotorb":6260,"Ġcurrently":6261,"Ġresources":6262,"kind":6263,"wing":6264,"ereab":6265,"still":6266,"Ġbelly":6267,"Ġupgra":6268,"Ġpeppers":6269,"ĠSec":6270,"Ġbubb":6271,"Ġclin":6272,"Ġjoy":6273,"ĠRed":6274,"Ġtrial":6275,"Ġcalcul":6276,"Ġchopped":6277,"ĠInst":6278,"Ġunderstood":6279,"Ġguilty":6280,"Ġoops":6281,"Ġfuel":6282,"Ġowns":6283,"Ġkidding":6284,"Ġprinter":6285,"Ġguns":6286,"castle":6287,"Ġbunny":6288,"ĠUnited":6289,"Ġmarshmallow":6290,"Ġadvantage":6291,"Ġnoodles":6292,"Ġmint":6293,"Ġbee":6294,"icate":6295,"ending":6296,"Ġguard":6297,"ĠDar":6298,"ĠNet":6299,"Ġfreed":6300,"Ġfigures":6301,"Ġtravelled":6302,"Ġetc":6303,"Ġsharp":6304,"emp":6305,"Ġnope":6306,"Ġstarter":6307,"Ġstolen":6308,"whereas":6309,"Ġpencil":6310,"Ġtummy":6311,"ĠAsda":6312,"onald":6313,"after":6314,"Ġbungal":6315,"fic":6316,"rat":6317,"say":6318,"tra":6319,"Ġwhoa":6320,"Ġbug":6321,"ĠMart":6322,"Ġstuffed":6323,"Ġvit":6324,"Ġdining":6325,"Ġdecisions":6326,"ĠBox":6327,"ae":6328,"net":6329,"sions":6330,"Ġded":6331,"chair":6332,"gend":6333,"Ġspiders":6334,"Ġlottery":6335,"ĠAM":6336,"ĠMag":6337,"ĠFin":6338,"ĠDor":6339,"Ġsinger":6340,"ification":6341,"Ġreflect":6342,"Ġcrimin":6343,"Ġwipe":6344,"alogue":6345,"Ġyoghurt":6346,"mind":6347,"inated":6348,"ickers":6349,"Ġemerg":6350,"Ġpots":6351,"Ġbiology":6352,"ietnam":6353,"Ġeyeb":6354,"Ġclosing":6355,"ĠSwed":6356,"ban":6357,"dunno":6358,"viously":6359,"stal":6360,"Ġallerg":6361,"Ġspect":6362,"before":6363,"Ġvow":6364,"ĠFor":6365,"love":6366,"Ġgrandparents":6367,"Ġenter":6368,"Ġtasted":6369,"Ġpigs":6370,"Ġsnap":6371,"Ġinitially":6372,"Ġevaluation":6373,"ĠRichard":6374,"might":6375,"Ġquant":6376,"Ġboats":6377,"ĠTun":6378,"ender":6379,"ĠEbay":6380,"Ġdefin":6381,"Ġshitty":6382,"Ġresponse":6383,"Ġmachines":6384,"Ġdebate":6385,"Ġvagina":6386,"Ġbalcon":6387,"und":6388,"Ġpad":6389,"Ġanx":6390,"ssy":6391,"ili":6392,"Ġspark":6393,"ulous":6394,"Ġintense":6395,"ĠAre":6396,"Ġrepeat":6397,"udi":6398,"Ġfitted":6399,"Ġstreets":6400,"ĠNorway":6401,"Ġpublishing":6402,"jamas":6403,"burgh":6404,"Ġpyjamas":6405,"Ġlecturer":6406,"Ġwage":6407,"Ġasse":6408,"Ġchin":6409,"Ġbucket":6410,"asing":6411,"Ġraise":6412,"Ġblend":6413,"Ġripped":6414,"Ġgrumpy":6415,"Ġoccur":6416,"Ġvocabu":6417,"Ġseal":6418,"Ġrum":6419,"Ġconven":6420,"Ġdeer":6421,"Ġvib":6422,"Ġcarbon":6423,"Ġtouching":6424,"Ġcrossed":6425,"Ġpackage":6426,"Ġslip":6427,"Ġconcrete":6428,"Ġteenagers":6429,"Ġpermanent":6430,"Ġlasagne":6431,"peare":6432,"esh":6433,"Ġtag":6434,"ĠCy":6435,"Ġhockey":6436,"nym":6437,"Ġsurf":6438,"Ġvisual":6439,"Ġdrug":6440,"Ġcustard":6441,"Ġpromise":6442,"ereabouts":6443,"wear":6444,"Ġborder":6445,"Ġshocked":6446,"Ġnea":6447,"ours":6448,"ĠChurch":6449,"Ġveh":6450,"Ġtoilets":6451,"Ġfluffy":6452,"Ġtiming":6453,"ĠEssex":6454,"Ġassistant":6455,"mate":6456,"Ġtrend":6457,"Ġbeers":6458,"Ġrely":6459,"ourse":6460,"Ġsuck":6461,"Ġinstall":6462,"Ġentit":6463,"ighth":6464,"Ġbedrooms":6465,"Ġengineer":6466,"Ġmatches":6467,"ĠPhD":6468,"Ġintelligent":6469,"Ġprepare":6470,"Ġwardrobe":6471,"Ġlon":6472,"Ġfiction":6473,"leted":6474,"Ġsettle":6475,"Ġkiller":6476,"Ġgardening":6477,"point":6478,"Ġversus":6479,"ĠQue":6480,"akes":6481,"fli":6482,"oul":6483,"Ġdrew":6484,"nothing":6485,"Ġfart":6486,"keep":6487,"def":6488,"Ġteas":6489,"Ġadop":6490,"Ġpresident":6491,"Ġpenny":6492,"Ġlawy":6493,"dri":6494,"Ġsigning":6495,"eria":6496,"Ġpram":6497,"edral":6498,"irl":6499,"Ġpee":6500,"essions":6501,"Ġacqu":6502,"Ġshown":6503,"Ġemployed":6504,"Ġformal":6505,"akistan":6506,"Ġharsh":6507,"ĠTurkey":6508,"Ġengaged":6509,"Ġconvinced":6510,"Ġjet":6511,"Ġsuspect":6512,"ĠBright":6513,"ĠOn":6514,"Ġwheels":6515,"Ġcuts":6516,"ĠVietnam":6517,"Ġtouched":6518,"Ġaccounts":6519,"Ġwrapped":6520,"Ġtroll":6521,"Ġphrase":6522,"Ġatmosphere":6523,"nish":6524,"Ġsubs":6525,"ulate":6526,"Ġketch":6527,"Ġfriendship":6528,"Ġinteract":6529,"Ġindo":6530,"Ġconfir":6531,"celled":6532,"Ġreduced":6533,"Ġstrawberry":6534,"ĠHoll":6535,"Ġflip":6536,"Ġphilosophy":6537,"Ġuniform":6538,"ĠShakespeare":6539,"know":6540,"lines":6541,"Ġdomin":6542,"ĠAm":6543,"istry":6544,"ĠNewcastle":6545,"Ġtelephone":6546,"Ġstatus":6547,"Ġcows":6548,"Ġchemical":6549,"free":6550,"kins":6551,"Ġhash":6552,"uted":6553,"cts":6554,"gel":6555,"oty":6556,"osc":6557,"ĠMail":6558,"Ġapprent":6559,"Ġflies":6560,"Ġprize":6561,"Ġposted":6562,"Ġapartment":6563,"Ġwarmer":6564,"Ġcultural":6565,"Ġpowerful":6566,"Ġchucked":6567,"cal":6568,"lph":6569,"Ġki":6570,"Ġsailing":6571,"Ġchunk":6572,"olf":6573,"Ġhomes":6574,"Ġetcetera":6575,"Ġvocabulary":6576,"Donald":6577,"Ġwing":6578,"Ġmice":6579,"Ġstones":6580,"ĠPl":6581,"Ġunderground":6582,"Ġfilter":6583,"ivity":6584,"Ġsilence":6585,"Ġrelationships":6586,"Ġcousins":6587,"Ġslippers":6588,"Ġobsessed":6589,"Ġinfluence":6590,"ĠThailand":6591,"Ġolive":6592,"Ġsituations":6593,"Ġshr":6594,"Ġnought":6595,"ĠAh":6596,"ĠPakistan":6597,"Ġnav":6598,"Ġcruise":6599,"Ġsilent":6600,"ost":6601,"erved":6602,"Ġcabb":6603,"should":6604,"ĠMed":6605,"Ġsites":6606,"Ġstays":6607,"Ġboobs":6608,"Ġtends":6609,"Ġfella":6610,"dinburgh":6611,"Ġcombination":6612,"fla":6613,"Ġsight":6614,"Ġmethod":6615,"Ġperspect":6616,"Ġmarking":6617,"Ġtrainers":6618,"Ġpaperwork":6619,"Ġnavy":6620,"Ġprotein":6621,"Ġdiscussing":6622,"Ġroughly":6623,"Ġstroke":6624,"Ġoutfit":6625,"ĠBerlin":6626,"Ġfreedom":6627,"boy":6628,"Ġrise":6629,"otes":6630,"Ġagg":6631,"Ġhorror":6632,"Ġadapt":6633,"Ġpopped":6634,"Ġsubjects":6635,"Ġsettings":6636,"Ġsettled":6637,"nes":6638,"Ġted":6639,"Ġsail":6640,"Ġdemon":6641,"Ġslim":6642,"Ġmilitary":6643,"Ġpotential":6644,"Ġdrops":6645,"Ġshocking":6646,"ĠCornwall":6647,"It":6648,"lers":6649,"life":6650,"oons":6651,"war":6652,"rose":6653,"Ġselect":6654,"ffin":6655,"ĠMal":6656,"ĠEr":6657,"Ġbeforehand":6658,"cia":6659,"athon":6660,"ĠChris":6661,"Ġgrapes":6662,"Ġscru":6663,"Ġroot":6664,"Ġcares":6665,"Ġreplied":6666,"Ġdram":6667,"Ġentrance":6668,"Ġcentury":6669,"Ġdeals":6670,"Ġfanci":6671,"Ġelectron":6672,"Ġhamster":6673,"Ġthread":6674,"Ġhills":6675,"Ġgin":6676,"Ġbabe":6677,"nav":6678,"Ġcaused":6679,"ĠDra":6680,"Ġdisaster":6681,"portion":6682,"ĠGuard":6683,"mond":6684,"Ġlime":6685,"Ġtask":6686,"Ġpointing":6687,"rup":6688,"ĠEdinburgh":6689,"ĠRad":6690,"stern":6691,"Ġpoorly":6692,"Ġamongst":6693,"von":6694,"erb":6695,"Ġbins":6696,"iser":6697,"Ġsamp":6698,"Ġprem":6699,"Ġdried":6700,"Ġeighteenth":6701,"Ġleaders":6702,"Ġdisappeared":6703,"layer":6704,"Ġspaces":6705,"cons":6706,"verted":6707,"Ġank":6708,"Ġtact":6709,"ĠBoo":6710,"Ġoldest":6711,"Ġdrivers":6712,"Ġhighlight":6713,"ĠThere":6714,"Ġvariety":6715,"Ġhurting":6716,"Ġinstrument":6717,"Ġnursery":6718,"Ġextension":6719,"Ġvinegar":6720,"ĠiPhone":6721,"field":6722,"nie":6723,"Ġcin":6724,"Ġghost":6725,"Ġhammer":6726,"rome":6727,"Ġoffers":6728,"ĠMary":6729,"ĠBob":6730,"Ġarrang":6731,"Ġstudio":6732,"Ġannoy":6733,"Ġcrunch":6734,"Ġjumped":6735,"Ġceiling":6736,"Ġconditions":6737,"Ġrelaxing":6738,"Ġremove":6739,"Ġupdate":6740,"Ch":6741,"bird":6742,"Ġdamp":6743,"Ġgoose":6744,"Ġcancelled":6745,"Ġbake":6746,"Ġcliff":6747,"Ġskirt":6748,"Ġplanet":6749,"Ġforgetting":6750,"Ġcampus":6751,"clear":6752,"ĠAsia":6753,"Ġducks":6754,"Ġrecipes":6755,"Ġislands":6756,"Ġhostel":6757,"Ġpaedoph":6758,"Ġlord":6759,"ont":6760,"Ġstair":6761,"Ġcontain":6762,"Ġpercentage":6763,"Ġkeyboard":6764,"Ġleads":6765,"Ġbalcony":6766,"lig":6767,"top":6768,"Ġlens":6769,"Ġpic":6770,"Ġwaking":6771,"uten":6772,"Ġgoodbye":6773,"real":6774,"Ġdiam":6775,"shine":6776,"soever":6777,"Ġdeck":6778,"Ġmanu":6779,"Ġtenner":6780,"ires":6781,"Ġcomments":6782,"eez":6783,"Ġreleas":6784,"Ġconfidence":6785,"Ġsubst":6786,"Ġaccepted":6787,"Ġtowel":6788,"AT":6789,"Ġdim":6790,"Ġwedge":6791,"Ġexchange":6792,"Ġminor":6793,"Ġmanaging":6794,"azz":6795,"Ġswitched":6796,"Ġmoaning":6797,"Ġlandlord":6798,"Ġnearest":6799,"corn":6800,"sort":6801,"Ġsni":6802,"Ġbicy":6803,"those":6804,"Ġdisag":6805,"Ġdesert":6806,"Ġlanded":6807,"Ġvalid":6808,"Ġthirteenth":6809,"Ġhumans":6810,"Ġfarmers":6811,"Ġmaterials":6812,"ĠPaul":6813,"Ġpurely":6814,"Ġfrustrating":6815,"Ġunbelievable":6816,"Ġliquid":6817,"Ġcampaign":6818,"uction":6819,"Ġupside":6820,"unless":6821,"Ġtied":6822,"ĠBat":6823,"Ġpale":6824,"Ġoverall":6825,"Ġrolling":6826,"Ġmarked":6827,"Ġincluded":6828,"Ġentertainment":6829,"ĠBoxing":6830,"Ġtoys":6831,"itation":6832,"Ġsemi":6833,"igs":6834,"Ġtimet":6835,"ulp":6836,"Ġcraw":6837,"Ġhairy":6838,"Ġcovering":6839,"Ġsprouts":6840,"Ġprofile":6841,"Ġpairs":6842,"Ġdisappointed":6843,"Ġtiss":6844,"Ġfal":6845,"Ġwhatsoever":6846,"Ġforwards":6847,"Ġsurround":6848,"Ġmeter":6849,"Ġcheating":6850,"Ġsympt":6851,"Ġtested":6852,"Ġorganisation":6853,"Ġperspective":6854,"bab":6855,"Ġduty":6856,"Ġlid":6857,"odge":6858,"ĠNight":6859,"Ġpolite":6860,"obviously":6861,"Ġparsn":6862,"Ġlinguistics":6863,"Ġhass":6864,"aste":6865,"ĠJim":6866,"umes":6867,"Ġshove":6868,"Ġbananas":6869,"Ġsoftware":6870,"Ġurgh":6871,"Ġcurtains":6872,"ĠVictorian":6873,"Ġromantic":6874,"flix":6875,"den":6876,"Ġlent":6877,"ittle":6878,"mester":6879,"Ġshush":6880,"Ġreb":6881,"Ġreference":6882,"Ġsuic":6883,"Ġprec":6884,"amel":6885,"ggling":6886,"Ġeasiest":6887,"ĠStates":6888,"Ġassuming":6889,"Ġdistur":6890,"Ġcontacts":6891,"Ġmystery":6892,"Ġmanufact":6893,"Ġslo":6894,"Ġmild":6895,"Ġfru":6896,"Ġshake":6897,"Ġshots":6898,"Ġcocon":6899,"Ġdiag":6900,"Ġlegend":6901,"Ġgrams":6902,"Ġhighly":6903,"Ġfifteenth":6904,"Ġgardens":6905,"Ġdeliber":6906,"Ġfigured":6907,"Ġemotional":6908,"Ġhairdress":6909,"ĠCatholic":6910,"Ġcertific":6911,"Ġketchup":6912,"Ġlun":6913,"Ġancient":6914,"Ġmos":6915,"ĠAll":6916,"Ġleague":6917,"ĠChan":6918,"Ġbadge":6919,"Ġdrawn":6920,"easant":6921,"Ġmedium":6922,"Ġacadem":6923,"Ġhoop":6924,"ĠBrownies":6925,"ĠSmith":6926,"bac":6927,"vo":6928,"Ġthera":6929,"ller":6930,"icing":6931,"Ġnicked":6932,"Ġswallow":6933,"Ġmessaged":6934,"Ġsatnav":6935,"ĠArabic":6936,"aps":6937,"wick":6938,"Ã¨":6939,"Ġlorry":6940,"itzer":6941,"char":6942,"Ġchasing":6943,"Ġoutdo":6944,"Ġmask":6945,"Ġspelt":6946,"ulgar":6947,"Ġpoem":6948,"Ġchildhood":6949,"Ġgrant":6950,"Ġgrandfather":6951,"Ġridiculously":6952,"ugal":6953,"Ġknocking":6954,"Ġprinting":6955,"Ġexplore":6956,"Ġcells":6957,"ĠRobin":6958,"Ġfancied":6959,"va":6960,"Ġwrist":6961,"Ġfits":6962,"Ġwhi":6963,"Ġposter":6964,"Ġmessed":6965,"Ġpossibility":6966,"Ġviews":6967,"Ġroller":6968,"Ġstrawberries":6969,"Ġpatterns":6970,"Ġintroduced":6971,"Ġcritic":6972,"Ġcircumst":6973,"Ġfile":6974,"Ġgoat":6975,"Ġbitter":6976,"rue":6977,"Ġenth":6978,"Ġcomfy":6979,"Ġanonym":6980,"Ġsmashed":6981,"Ġrecognised":6982,"thanks":6983,"Ġmistakes":6984,"ĠInstagram":6985,"bread":6986,"Ġled":6987,"star":6988,"Ġforties":6989,"Ġsusp":6990,"Ġquiz":6991,"olks":6992,"Ġeffic":6993,"olds":6994,"Ġleading":6995,"Ġentertaining":6996,"Ġexhibition":6997,"sen":6998,"ued":6999,"Ġwhereabouts":7000,"Ġrust":7001,"isure":7002,"Ġnegot":7003,"ional":7004,"ffe":7005,"otic":7006,"Ġagency":7007,"Ġcomed":7008,"Ġengage":7009,"Ġfarmer":7010,"Ġdrain":7011,"Ġpicks":7012,"Ġparks":7013,"Ġtesting":7014,"ĠWho":7015,"Ġportion":7016,"Ġboiler":7017,"Ġrealize":7018,"Ġmuscles":7019,"ĠNetflix":7020,"Ġdiamond":7021,"Ġsir":7022,"ĠID":7023,"Ġfool":7024,"Ġtops":7025,"Ġstink":7026,"Ġprepar":7027,"ĠLew":7028,"Ġsurvey":7029,"Ġdropping":7030,"Ġcostume":7031,"Ġregister":7032,"Ġblokes":7033,"Ġarguing":7034,"Ġreviews":7035,"Ġmedicine":7036,"ĠVenice":7037,"Ġemergency":7038,"Ġththat":7039,"vet":7040,"Ġgoss":7041,"edd":7042,"Ġdonkey":7043,"Ġstunning":7044,"Ġforth":7045,"Ġloving":7046,"Ġworries":7047,"ĠAnt":7048,"ĠBible":7049,"Ġcompla":7050,"ĠDid":7051,"Ġopens":7052,"ucks":7053,"Ġcareers":7054,"Ġrecords":7055,"Ġinsp":7056,"Ġequal":7057,"Ġcollecting":7058,"Ġsneak":7059,"Ġactivities":7060,"Ġhumour":7061,"Ġwhoops":7062,"Ġsenior":7063,"Ġvitam":7064,"Ġdemonst":7065,"umber":7066,"Ġwrest":7067,"Ġduh":7068,"Ġdug":7069,"sey":7070,"Ġpepp":7071,"ĠCal":7072,"Ġlawn":7073,"Ġcheapest":7074,"Ġruin":7075,"Ġexpand":7076,"Ġblocked":7077,"Ġrented":7078,"Ġkilome":7079,"ders":7080,"iel":7081,"sounds":7082,"icop":7083,"Ġstall":7084,"Ġorch":7085,"ablish":7086,"Ġhug":7087,"eady":7088,"ĠHouse":7089,"fection":7090,"Ġcardboard":7091,"Ġproperties":7092,"ologist":7093,"Ġpizzas":7094,"Ġreminded":7095,"Ġredund":7096,"Ġcomparison":7097,"Ġraspberries":7098,"ĠBrighton":7099,"ump":7100,"Ġdairy":7101,"Ġcopper":7102,"Ġshell":7103,"ĠLloy":7104,"forward":7105,"Ġmodules":7106,"Ġdumb":7107,"ĠOlympics":7108,"fly":7109,"Ġmou":7110,"Ġreca":7111,"Ġupper":7112,"Ġmessing":7113,"Ġforecast":7114,"Ġeffective":7115,"Ġbatteries":7116,"Ġhoover":7117,"ĠPortugal":7118,"Ġlifest":7119,"Ġnerves":7120,"lon":7121,"ĠInt":7122,"oni":7123,"ppa":7124,"Ġwhichever":7125,"ĠFour":7126,"Ġphase":7127,"Ġcounting":7128,"Ġrolled":7129,"Ġconstant":7130,"Ġdiscard":7131,"Ġsavings":7132,"ji":7133,"Ġyoun":7134,"Ġrene":7135,"Ġbaked":7136,"mmus":7137,"ĠCent":7138,"Ġarsed":7139,"Ġvicar":7140,"Ġperfor":7141,"ristol":7142,"Ġmornings":7143,"Ġhighest":7144,"Ġconsent":7145,"Ġmatters":7146,"Ġtradition":7147,"ĠExpress":7148,"ĠDaily":7149,"Ġsqueeze":7150,"Ġcathedral":7151,"Ġhiding":7152,"Ġshirts":7153,"chat":7154,"Ġfaces":7155,"ĠMil":7156,"Ġthoughts":7157,"ciation":7158,"Ġspends":7159,"Ġscare":7160,"Ġwrites":7161,"Ġloop":7162,"Ġcrackers":7163,"ĠSimon":7164,"Ġvoucher":7165,"ĠHolland":7166,"Ġtre":7167,"Ġtoy":7168,"ĠTr":7169,"Ġleisure":7170,"Ġoblig":7171,"ĠHol":7172,"ĠRe":7173,"ĠKind":7174,"Ġserving":7175,"Ġbargain":7176,"Ġmassage":7177,"bbing":7178,"Ġselfish":7179,"Ġstrip":7180,"Ġslee":7181,"Ġinstructions":7182,"Ġelephant":7183,"Ġpleasant":7184,"Ġhon":7185,"Ġbes":7186,"Ġdy":7187,"Ġdigest":7188,"Ġbubble":7189,"Ġfudge":7190,"ĠWall":7191,"ĠLake":7192,"angle":7193,"Ġminister":7194,"Ġlap":7195,"Ġzomb":7196,"Ġsexy":7197,"Ġgolden":7198,"ipt":7199,"mite":7200,"Ġcran":7201,"itals":7202,"arma":7203,"rot":7204,"Ġgotten":7205,"Ġsequ":7206,"imately":7207,"atever":7208,"ĠMy":7209,"iece":7210,"oody":7211,"Ġcharges":7212,"Ġamazed":7213,"Ġlaughed":7214,"Ġcalories":7215,"Ġstole":7216,"Ġrecycling":7217,"Ġirritating":7218,"Ġcorpus":7219,"Ġyoungest":7220,"Oh":7221,"ax":7222,"cor":7223,"Ġ2":7224,"Ġwool":7225,"itler":7226,"Ġshave":7227,"sequ":7228,"ffles":7229,"ĠTony":7230,"ĠDi":7231,"Ġcraft":7232,"Ġrecorder":7233,"Ġadditional":7234,"Ġgrows":7235,"Ġcookies":7236,"Ġchurches":7237,"Ġtempor":7238,"proof":7239,"ĠTwo":7240,"ĠInn":7241,"Ġfamiliar":7242,"Ġrabbits":7243,"alloween":7244,"Ġstorage":7245,"Ġbranch":7246,"Ġgradually":7247,"definitely":7248,"Ġcoconut":7249,"ĠLewis":7250,"half":7251,"lie":7252,"mouth":7253,"pret":7254,"Ġtiles":7255,"Ġpony":7256,"thirty":7257,"cher":7258,"Ġmashed":7259,"ĠAt":7260,"Ġstuffing":7261,"usi":7262,"Ġresist":7263,"Ġserved":7264,"rics":7265,"Ġpriest":7266,"Ġautumn":7267,"Ġcoaching":7268,"zzy":7269,"ĠIran":7270,"Ġdating":7271,"Ġcong":7272,"Ġwheat":7273,"Ġshiny":7274,"Ġnephe":7275,"Ġbass":7276,"quet":7277,"Ġactive":7278,"ulf":7279,"ĠAng":7280,"Ġhelicop":7281,"Ġdaft":7282,"Ġbusinesses":7283,"Ġnewspaper":7284,"poly":7285,"Ġlayer":7286,"Ġsoul":7287,"Ġviolence":7288,"ĠDubai":7289,"Ġfalse":7290,"gian":7291,"Ġwwe":7292,"lement":7293,"Ġumb":7294,"namon":7295,"ttes":7296,"ĠMarks":7297,"ĠBond":7298,"sically":7299,"ĠJones":7300,"Ġfinds":7301,"issors":7302,"Ġflap":7303,"sels":7304,"ifications":7305,"Ġknickers":7306,"poon":7307,"Ġsolution":7308,"Ġdisappear":7309,"Ġbillion":7310,"Ġfortnight":7311,"Ġtort":7312,"Ġfunnily":7313,"Ġcheesy":7314,"children":7315,"Ġcabbage":7316,"try":7317,"Ġhats":7318,"Ġitems":7319,"reg":7320,"Ġnom":7321,"Ġdolph":7322,"third":7323,"Ġnum":7324,"quit":7325,"ĠHalloween":7326,"ĠRight":7327,"Ġdrill":7328,"happy":7329,"Ġtruck":7330,"Ġexplan":7331,"Ġpolish":7332,"Ġinsist":7333,"ĠWhite":7334,"apparently":7335,"Ġeffects":7336,"Ġcleared":7337,"Ġbleeding":7338,"Ġpronounce":7339,"Ġdivorced":7340,"Ġscript":7341,"Ġeyebrows":7342,"Ġallergic":7343,"Ġarranged":7344,"Don":7345,"other":7346,"zil":7347,"Ġtons":7348,"Ġththe":7349,"Ġder":7350,"Ġatte":7351,"Ġreverse":7352,"Ġproportion":7353,"ĠBristol":7354,"ĠJul":7355,"Ġheading":7356,"Ġmessy":7357,"Ġbeauty":7358,"Ġvari":7359,"Ġseparately":7360,"Ġpretending":7361,"Ġkitten":7362,"Ġpeanut":7363,"stru":7364,"ĠSanta":7365,"ĠFar":7366,"psy":7367,"ggs":7368,"ĠLeeds":7369,"Ġroutes":7370,"Ġpatient":7371,"Ġcommunicate":7372,"Ġvaguely":7373,"hill":7374,"Ġly":7375,"Ġsoap":7376,"Ġcoal":7377,"Ġrelevant":7378,"Ġtack":7379,"adium":7380,"Ġevenings":7381,"ĠDead":7382,"Ġfairness":7383,"Ġfinishes":7384,"Ġplanes":7385,"Ġchocolates":7386,"Ġarguments":7387,"Ġdishes":7388,"Ġviolent":7389,"Ġmedication":7390,"Ġknitting":7391,"Ġrhyme":7392,"Ġescape":7393,"itzerland":7394,"pot":7395,"Ġber":7396,"Ġrank":7397,"roid":7398,"Ġstere":7399,"Ġforced":7400,"Ġangle":7401,"Ġsemester":7402,"Ġtiger":7403,"Ġcomfort":7404,"Ġfeelings":7405,"Ġnearer":7406,"Ġinspect":7407,"ĠXbox":7408,"Ġpathetic":7409,"Ġremoved":7410,"Ġcommunication":7411,"Ġmultiple":7412,"Ġentitled":7413,"cur":7414,"hen":7415,"Ġbees":7416,"Ġsung":7417,"Ġhero":7418,"Ġfacing":7419,"Ġparcel":7420,"Ġedit":7421,"Ġinternal":7422,"Ġsmoked":7423,"Ġincrease":7424,"Ġcategory":7425,"Ġbungalow":7426,"mates":7427,"Ġram":7428,"Ġreject":7429,"ras":7430,"Ġherbs":7431,"rus":7432,"Ġphon":7433,"ĠKong":7434,"together":7435,"Ġstraightforward":7436,"Ġincident":7437,"Ġgreenhouse":7438,"Ġseventeenth":7439,"Ġsolve":7440,"Ġofficially":7441,"Ġcrispy":7442,"Ġopportunities":7443,"Ġbarbecue":7444,"Ġmaximum":7445,"ĠRoyal":7446,"ĠBoots":7447,"Ġut":7448,"Ġhun":7449,"Ġgain":7450,"Ġinches":7451,"Ġoffended":7452,"ulated":7453,"ulations":7454,"Ġhummus":7455,"ĠFlor":7456,"ĠHitler":7457,"atives":7458,"elsea":7459,"Ġtowns":7460,"Ġoccasions":7461,"secco":7462,"ieval":7463,"oscow":7464,"Ġsymptoms":7465,"brush":7466,"pan":7467,"inal":7468,"Ġhood":7469,"Ġdiale":7470,"Ġbully":7471,"ĠMine":7472,"Ġcomplim":7473,"Ġreasonably":7474,"Ġbarn":7475,"Ġfilming":7476,"Ġfellow":7477,"Ġpiggy":7478,"Ġexercises":7479,"Ġencourage":7480,"Ġmotorbike":7481,"Ġheal":7482,"Ġalph":7483,"Ġpersu":7484,"Ġlaunch":7485,"Ġrecruit":7486,"Ġrepea":7487,"Ġstraightaway":7488,"Ġprime":7489,"Ġknives":7490,"Ġestablish":7491,"Ġblew":7492,"Ġcreating":7493,"everyone":7494,"ĠBlair":7495,"Ġgossip":7496,"Ġlifestyle":7497,"Ġsar":7498,"Ġnno":7499,"Ġselection":7500,"cas":7501,"Ġmug":7502,"eless":7503,"maid":7504,"ĠAlan":7505,"ĠGa":7506,"ĠWith":7507,"agen":7508,"ĠJe":7509,"Ġsweat":7510,"Ġgenius":7511,"ĠVi":7512,"Ġlands":7513,"someone":7514,"Ġgluten":7515,"Ġsupermarkets":7516,"Ġbulbs":7517,"nels":7518,"ua":7519,"ully":7520,"Ġtang":7521,"Ġtoes":7522,"ida":7523,"Ġjail":7524,"Ġscissors":7525,"ggings":7526,"Ġstudied":7527,"Ġfactor":7528,"Ġdinners":7529,"Ġallowance":7530,"Ġbabysit":7531,"Ġcookie":7532,"Ġraised":7533,"Ġwriter":7534,"ĠSwitzerland":7535,"Ġindustrial":7536,"Ġtourists":7537,"ĠGCSEs":7538,"Ġelderly":7539,"Ġreplaced":7540,"Ġdisabled":7541,"Ġwitness":7542,"The":7543,"Ġpurch":7544,"lets":7545,"Ġsemin":7546,"ĠSun":7547,"enders":7548,"Ġpoly":7549,"Ġshoulders":7550,"Ġclip":7551,"interest":7552,"ĠChi":7553,"ibb":7554,"Ġdesigner":7555,"ĠThis":7556,"Ġcrust":7557,"Ġrenting":7558,"Ġbullet":7559,"Ġfortun":7560,"Ġsource":7561,"Ġgallery":7562,"blah":7563,"ĠLanca":7564,"Ġknackered":7565,"Ġconvenient":7566,"Ġtrolley":7567,"ĠChannel":7568,"Ġcircumstances":7569,"Ġenthusi":7570,"Ġwre":7571,"Ġhence":7572,"Ġcoinc":7573,"ability":7574,"Ġspons":7575,"ĠRus":7576,"Ġowner":7577,"Ġadm":7578,"Ġseventh":7579,"ĠWhere":7580,"Ġteenage":7581,"rabble":7582,"Ġbumped":7583,"Ġreceipt":7584,"Ġpronun":7585,"Ġaerop":7586,"Ġintelligence":7587,"Ġshadow":7588,"food":7589,"rison":7590,"Ġsty":7591,"Ġmono":7592,"ogs":7593,"Ġcommer":7594,"Ġwinner":7595,"Ġspoil":7596,"Ġfitting":7597,"Ġvisiting":7598,"ĠCost":7599,"Ġlayers":7600,"Ġidentify":7601,"ĠWait":7602,"Ġlawyer":7603,"folk":7604,"ulance":7605,"enced":7606,"Ġsoil":7607,"itiz":7608,"cker":7609,"Ġsucks":7610,"whatever":7611,"ĠBake":7612,"omin":7613,"Ġunits":7614,"ĠDel":7615,"ĠDutch":7616,"ĠWin":7617,"Ġplat":7618,"Ġdeserve":7619,"Ġinterviewed":7620,"Ġcatching":7621,"Ġcollected":7622,"Ġbands":7623,"Ġlaws":7624,"ĠMoroc":7625,"ĠMcDonald":7626,"Ġreceived":7627,"borough":7628,"Ġarchitect":7629,"Ġmuscle":7630,"Ġschedule":7631,"Ġapprentices":7632,"Ġhassle":7633,"Ġbent":7634,"ician":7635,"icians":7636,"Ġjunk":7637,"Ġsavour":7638,"Ġtakea":7639,"Ġspices":7640,"Ġfaith":7641,"ĠPen":7642,"ĠGlas":7643,"ĠHong":7644,"ĠHave":7645,"Ġgrades":7646,"Ġmarathon":7647,"Ġslices":7648,"Ġbeaten":7649,"Ġteaches":7650,"ĠThames":7651,"Ġartific":7652,"Ġparish":7653,"ĠFrank":7654,"Ġdeterm":7655,"ĠScrabble":7656,"Ġsnake":7657,"Ġsensitive":7658,"Ġswearing":7659,"Ġhurry":7660,"Ġterrified":7661,"Ġqualified":7662,"Ġpredict":7663,"Ġapologise":7664,"Ġmaintain":7665,"too":7666,"tag":7667,"Ġtart":7668,"Ġthumb":7669,"Ġbreed":7670,"Ġpal":7671,"Ġpets":7672,"Ġsod":7673,"Ġshuff":7674,"ulif":7675,"Ġarts":7676,"loads":7677,"ĠJen":7678,"lasses":7679,"pher":7680,"acle":7681,"acked":7682,"Ġnuclear":7683,"Ġdesp":7684,"Ġpanel":7685,"Ġreferen":7686,"Ġdescription":7687,"Ġbowls":7688,"Ġcocktail":7689,"Ġanalysis":7690,"Ġaggressive":7691,"ulifl":7692,"tieth":7693,"Ġshshe":7694,"alt":7695,"mbly":7696,"ĠCla":7697,"ĠDr":7698,"Ġadding":7699,"Ġspecialist":7700,"pass":7701,"Ġexplaining":7702,"Ġsnack":7703,"Ġaccidentally":7704,"Ġblowing":7705,"Ġcriminal":7706,"lovely":7707,"Ġcinnamon":7708,"ek":7709,"iat":7710,"Ġsessions":7711,"iner":7712,"Ġbid":7713,"idents":7714,"Ġoffence":7715,"whe":7716,"Ġtracks":7717,"ĠNot":7718,"tails":7719,"Ġdefinite":7720,"Ġexamples":7721,"Ġlabour":7722,"Ġsponge":7723,"ĠValent":7724,"Ġlongest":7725,"mine":7726,"Ġoy":7727,"Ġrates":7728,"Ġuna":7729,"Ġmelt":7730,"Ġchances":7731,"Ġspit":7732,"Ġhappily":7733,"ĠChelsea":7734,"ĠHeath":7735,"Ġrocks":7736,"Ġroyal":7737,"ĠRy":7738,"Ġinterests":7739,"Ġslower":7740,"Ġcounts":7741,"Ġmature":7742,"ĠTho":7743,"Ġburg":7744,"Ġtaller":7745,"Ġfabulous":7746,"ĠQueen":7747,"ĠMinecraft":7748,"Ġalphabet":7749,"rants":7750,"Ġath":7751,"Ġles":7752,"rie":7753,"tered":7754,"ander":7755,"ĠMars":7756,"ĠBulgar":7757,"ĠDad":7758,"Ġjolly":7759,"ucky":7760,"Ġexcl":7761,"Ġsupposedly":7762,"appro":7763,"coming":7764,"Ġcrumble":7765,"Ġdickhead":7766,"Ġcritical":7767,"ĠSimps":7768,"place":7769,"pardon":7770,"Ġthr":7771,"ĠII":7772,"Ġdea":7773,"Ġinno":7774,"Ġdome":7775,"inking":7776,"Ġcaps":7777,"ĠMoscow":7778,"ager":7779,"alling":7780,"Ġpayment":7781,"ĠVir":7782,"gues":7783,"Ġcruel":7784,"Ġreveal":7785,"Ġscientific":7786,"Ġlinked":7787,"Ġdefinition":7788,"eno":7789,"especially":7790,"ppies":7791,"Ġmama":7792,"Ġties":7793,"ĠCons":7794,"ĠOut":7795,"Ġinterpret":7796,"Ġarticles":7797,"Ġdarker":7798,"Ġstrike":7799,"Ġblender":7800,"Ġracing":7801,"ĠTunis":7802,"Ġtimetable":7803,"What":7804,"aph":7805,"water":7806,"Ġtat":7807,"Ġthor":7808,"Ġicing":7809,"Ġlan":7810,"Ġfea":7811,"Ġstack":7812,"Ġmock":7813,"Ġpest":7814,"Ġcaulifl":7815,"nderland":7816,"Ġmovement":7817,"Ġcontra":7818,"Ġcrashed":7819,"Ġdepression":7820,"Ġexpress":7821,"Ġinviting":7822,"Ġsunshine":7823,"ĠComm":7824,"Ġlarger":7825,"Ġacceptable":7826,"flower":7827,"Ġyogurt":7828,"Ġscarf":7829,"ĠBrazil":7830,"Ġrotate":7831,"Ġarchitecture":7832,"Ġprawns":7833,"ĠGuardian":7834,"Ġstereoty":7835,"LT":7836,"aking":7837,"oe":7838,"Ġlion":7839,"Ġupon":7840,"Ġinte":7841,"ĠBoy":7842,"Ġpace":7843,"Ġpuppy":7844,"ggage":7845,"ublic":7846,"Ġnineteenth":7847,"ounced":7848,"Ġsauces":7849,"Ġoffering":7850,"Ġchilled":7851,"ĠWaitrose":7852,"hour":7853,"Ġwig":7854,"Ġhits":7855,"Ġretail":7856,"ĠCard":7857,"ĠNorfolk":7858,"Ġrarely":7859,"ĠMexico":7860,"rite":7861,"wind":7862,"Ġwaving":7863,"Ġrope":7864,"Ġsack":7865,"ously":7866,"ĠTE":7867,"usive":7868,"neys":7869,"alley":7870,"uber":7871,"Ġpaste":7872,"Ġpastry":7873,"Ġexpression":7874,"Ġgrowth":7875,"ungle":7876,"Ġfollowers":7877,"atcher":7878,"donald":7879,"Ġcycl":7880,"Ġpacking":7881,"Ġspinning":7882,"Ġoccup":7883,"Or":7884,"card":7885,"Ġstations":7886,"Ġaside":7887,"Ġbald":7888,"ĠHel":7889,"ĠJama":7890,"Ġwaited":7891,"Ġelection":7892,"Ġmission":7893,"Ġcrisis":7894,"Ġscored":7895,"Ġintroduce":7896,"Ġassessment":7897,"Ġgrateful":7898,"Ġdeliberately":7899,"ĠIf":7900,"Ġfrank":7901,"Ġreact":7902,"chool":7903,"Ġanni":7904,"Ġcam":7905,"Ġnicest":7906,"ĠFirst":7907,"Ġhobby":7908,"ĠLife":7909,"Ġsyll":7910,"cont":7911,"ĠNok":7912,"Ġjoining":7913,"Ġgigs":7914,"Ġbuns":7915,"ĠJews":7916,"Ġadventure":7917,"Ġpronunciation":7918,"iot":7919,"layed":7920,"anced":7921,"mbling":7922,"Ġaged":7923,"ĠFriend":7924,"ĠPet":7925,"Ġpartners":7926,"Ġfinance":7927,"gosh":7928,"ĠMarmite":7929,"Ġstaring":7930,"Ġscrape":7931,"Ġpublished":7932,"Ġcurtain":7933,"Ġumbre":7934,"hoo":7935,"Ġtone":7936,"Ġyyeah":7937,"Ġcried":7938,"Ġfolk":7939,"isa":7940,"Ġmoist":7941,"nap":7942,"elled":7943,"Ġwhore":7944,"iche":7945,"ĠMO":7946,"istically":7947,"amed":7948,"Ġundergra":7949,"ĠKat":7950,"Ġtrainer":7951,"Ġrestrict":7952,"Ġdinos":7953,"fume":7954,"Ġpenal":7955,"Ġboards":7956,"Ġbanned":7957,"Ġessays":7958,"everything":7959,"Ġaudio":7960,"Ġgutted":7961,"Ġbodies":7962,"Ġdisagree":7963,"watch":7964,"Ġsket":7965,"Ġsof":7966,"Ġhal":7967,"Ġloss":7968,"Ġoutra":7969,"Ġspl":7970,"Ġfemin":7971,"Ġrocket":7972,"Ġflop":7973,"Ġunique":7974,"ĠSunderland":7975,"Ġcooker":7976,"Ġzoo":7977,"Ġmedieval":7978,"Ġcushion":7979,"Ġshaved":7980,"ĠMcdonald":7981,"ĠKorean":7982,"Ġchemistry":7983,"Ġdisplay":7984,"Ġambulance":7985,"Ġcorpor":7986,"Ġchampagne":7987,"Ġshaped":7988,"Ġunlikely":7989,"Ġpirate":7990,"Ġbastard":7991,"Ġindoors":7992,"ĠRadio":7993,"ĠKindle":7994,"Ġlesb":7995,"IP":7996,"You":7997,"win":7998,"nother":7999,"Ġfacil":8000,"Ġpleasure":8001,"Ġgenetic":8002,"Ġsurname":8003,"ĠVan":8004,"balls":8005,"Ġphotography":8006,"ĠHolly":8007,"Ġcartoon":8008,"Ġintegr":8009,"ĠNokia":8010,"uit":8011,"Ġsso":8012,"Ġgee":8013,"onia":8014,"Ġpeak":8015,"Ġink":8016,"Ġstitch":8017,"Ġquit":8018,"ĠSqu":8019,"Ġburied":8020,"Ġhappier":8021,"Ġbean":8022,"ĠKent":8023,"Ġfiles":8024,"ibilities":8025,"Ġprescri":8026,"Ġfatty":8027,"Ġhospitals":8028,"iffer":8029,"Ġvanilla":8030,"ĠMax":8031,"Ġcocktails":8032,"Ġdoughnut":8033,"Ġvirtually":8034,"Ġefficient":8035,"AF":8036,"aire":8037,"ull":8038,"Ġyach":8039,"Ġfib":8040,"ghan":8041,"itt":8042,"lane":8043,"arr":8044,"make":8045,"ĠTri":8046,"Ġworkers":8047,"inton":8048,"Ġcheer":8049,"ĠRen":8050,"Ġowners":8051,"Ġhandbag":8052,"Ġcounty":8053,"rones":8054,"Ġcommission":8055,"izzy":8056,"izza":8057,"Ġvolume":8058,"ĠCVs":8059,"Ġfunniest":8060,"Ġexperienced":8061,"Ġfrigging":8062,"etroot":8063,"Ġankle":8064,"Ġutter":8065,"once":8066,"Ġinappro":8067,"Ġera":8068,"Ġjeez":8069,"omer":8070,"ĠLea":8071,"Ġunderwear":8072,"Ġbirthdays":8073,"Ġwarming":8074,"Ġsubmit":8075,"Ġchillies":8076,"Ġrandomly":8077,"Ġdiscussed":8078,"Ġcupboards":8079,"Ġrecommended":8080,"Ġtowels":8081,"Ġpilot":8082,"Ġexplanation":8083,"bling":8084,"sks":8085,"yd":8086,"Ġwou":8087,"ini":8088,"Ġchess":8089,"Ġupse":8090,"Ġlogo":8091,"urb":8092,"ĠLin":8093,"Ġadjust":8094,"Ġfoundation":8095,"Ġstrap":8096,"Ġinstantly":8097,"Ġgenerous":8098,"ĠWhy":8099,"Ġorganising":8100,"Ġduvet":8101,"Ġsilk":8102,"Ġbench":8103,"Ġoperate":8104,"Ġpsychology":8105,"Ġporridge":8106,"Ġsignificant":8107,"ĠViking":8108,"ĠCardiff":8109,"lict":8110,"tell":8111,"Ġov":8112,"Ġtoffee":8113,"Ġpix":8114,"Ġtwins":8115,"ĠBea":8116,"looking":8117,"Ġscrambled":8118,"Ġcandles":8119,"Ġpillow":8120,"ĠMini":8121,"Ġjunction":8122,"ĠFlorida":8123,"Ġbing":8124,"noe":8125,"vell":8126,"Ġinfect":8127,"aded":8128,"ĠCount":8129,"Ġcharger":8130,"ampire":8131,"Ġsystems":8132,"Ġpreferred":8133,"Ġfussy":8134,"fucking":8135,"Ġhelicopter":8136,"Ġcompliment":8137,"ĠConserv":8138,"gium":8139,"Ġdonate":8140,"Ġstadium":8141,"Ġabuse":8142,"eart":8143,"Ġcosy":8144,"elle":8145,"ĠSpen":8146,"ategy":8147,"ĠMill":8148,"Ġvom":8149,"ĠPower":8150,"Ġlasts":8151,"ĠHunt":8152,"Ġtyping":8153,"Ġstrategy":8154,"Ġlanding":8155,"Ġbooze":8156,"Ġdistinct":8157,"Ġselfie":8158,"Ġslash":8159,"Ġconnections":8160,"Ġprovided":8161,"Ġcelebrate":8162,"Ġautomatic":8163,"Ġarrested":8164,"Ġtechnique":8165,"Ġconfirm":8166,"Ġsavoury":8167,"Ġartificial":8168,"tu":8169,"last":8170,"sevent":8171,"Ġstiff":8172,"Ġbuzz":8173,"ĠHen":8174,"doing":8175,"Ġpressed":8176,"Ġproduced":8177,"Ġacademy":8178,"Ġblank":8179,"hist":8180,"oll":8181,"pet":8182,"Ġcrew":8183,"isle":8184,"tto":8185,"eading":8186,"Ġtenth":8187,"Ġbricks":8188,"getting":8189,"Ġartists":8190,"Ġlogic":8191,"Ġwealthy":8192,"Ġrefuge":8193,"Ġhistorical":8194,"Ġprecise":8195,"ĠVirgin":8196,"Ġumbrella":8197,"vin":8198,"Ġlou":8199,"Ġwaist":8200,"etically":8201,"verty":8202,"Ġtwat":8203,"Ġpeop":8204,"Ġpecul":8205,"Ġspan":8206,"Ġeveryday":8207,"Ġcaramel":8208,"Ġbadger":8209,"Ġmarble":8210,"Ġspoilt":8211,"Ġeditor":8212,"Ġinvestment":8213,"Ġchoices":8214,"Ġspelling":8215,"ĠCDs":8216,"ĠPrince":8217,"Ġaddicted":8218,"Ġpaedophile":8219,"Ġthorough":8220,"Ġpeculiar":8221,"gic":8222,"paste":8223,"through":8224,"Ġerror":8225,"Ġstain":8226,"Ġrear":8227,"Ġmail":8228,"Ġspy":8229,"Ġsparrow":8230,"ĠSing":8231,"ĠSeven":8232,"ĠGirl":8233,"ĠDy":8234,"next":8235,"Ġtramp":8236,"ĠNut":8237,"Ġrescue":8238,"Ġcorrupt":8239,"Ġstarving":8240,"ĠAlice":8241,"Ġcopyright":8242,"Ġtools":8243,"Ġregistered":8244,"Ġcertificate":8245,"Ġcauliflower":8246,"based":8247,"part":8248,"Ġack":8249,"Ġbay":8250,"Ġgla":8251,"rog":8252,"cho":8253,"owing":8254,"Ġaltogether":8255,"Ġpeo":8256,"Ġexec":8257,"ĠShow":8258,"ĠCol":8259,"ĠLove":8260,"weet":8261,"Ġplacement":8262,"Ġfacts":8263,"Ġinstant":8264,"Ġadds":8265,"Ġpopping":8266,"Ġflag":8267,"imetres":8268,"Ġmemories":8269,"Ġidiots":8270,"Ġlabel":8271,"Ġdownloaded":8272,"ternal":8273,"Ġcommitted":8274,"Ġaerial":8275,"Ġchoosing":8276,"Ġvacu":8277,"Ġcouples":8278,"Ġmosquit":8279,"Ġacknow":8280,"pad":8281,"van":8282,"Ġoct":8283,"Ġnons":8284,"Ġbeetroot":8285,"tering":8286,"ĠCroat":8287,"ĠMer":8288,"Ġprevent":8289,"ĠEar":8290,"ĠHome":8291,"Ġpointed":8292,"Ġswing":8293,"ached":8294,"poons":8295,"Ġsixteenth":8296,"Ġtwentieth":8297,"pretty":8298,"Ġcabin":8299,"Ġcontrolled":8300,"Ġwandering":8301,"ĠSteve":8302,"Ġsuicide":8303,"Ġtakeaway":8304,"ĠFriends":8305,"rical":8306,"Ġou":8307,"Ġyard":8308,"Ġdreams":8309,"vement":8310,"Ġrig":8311,"ede":8312,"Ġneat":8313,"Ġcans":8314,"owns":8315,"Ġsum":8316,"essor":8317,"osition":8318,"ĠBas":8319,"Ġtrapped":8320,"Ġblues":8321,"umin":8322,"ickey":8323,"Ġskating":8324,"Ġreput":8325,"Ġcollaps":8326,"Ġdaily":8327,"Ġsubt":8328,"Ġsoldiers":8329,"Ġwebsites":8330,"Ġweights":8331,"zzle":8332,"Ġstealing":8333,"Ġpoetry":8334,"Ġflexible":8335,"eddar":8336,"Ġinappropriate":8337,"vellous":8338,"ninth":8339,"uct":8340,"Ġshag":8341,"ores":8342,"Ġclicked":8343,"Ġenvelop":8344,"Ġperfume":8345,"asy":8346,"Ġgrandchildren":8347,"Ġrelease":8348,"licit":8349,"Ġstandards":8350,"Ġpolicy":8351,"Ġflush":8352,"Ġadvertise":8353,"Ġsteep":8354,"Ġexhausted":8355,"Ġribs":8356,"Ġdiagno":8357,"ĠBulgaria":8358,"cled":8359,"front":8360,"Ġliking":8361,"Ġsom":8362,"Ġnoises":8363,"lette":8364,"Ġneut":8365,"imer":8366,"ĠSta":8367,"ĠBor":8368,"ĠPat":8369,"Ġhappiness":8370,"Ġshowers":8371,"Ġfilmed":8372,"Ġrepair":8373,"Ġcurric":8374,"gines":8375,"Ġattend":8376,"Ġevol":8377,"Ġcandle":8378,"Ġdiesel":8379,"ĠBelgium":8380,"ĠGrand":8381,"Ġheavily":8382,"Ġhashtag":8383,"Ġcommercial":8384,"ele":8385,"list":8386,"mill":8387,"vil":8388,"wan":8389,"Ġtiring":8390,"Ġbust":8391,"Ġspice":8392,"ĠSams":8393,"ĠYes":8394,"Ġlists":8395,"Ġglue":8396,"Ġantib":8397,"Ġdestroy":8398,"Ġfrightened":8399,"Ġnephew":8400,"voured":8401,"Ġstorm":8402,"Ġexit":8403,"Ġexagger":8404,"Ġplum":8405,"Ġhired":8406,"ĠOb":8407,"Ġmetre":8408,"Ġladder":8409,"Ġmodels":8410,"Ġaffair":8411,"Ġaccountant":8412,"Ġvalues":8413,"Ġsexual":8414,"Ġcomplained":8415,"Ġcelebrity":8416,"Ġcabinet":8417,"Ġsuffer":8418,"Ġconservatory":8419,"Ġdramatic":8420,"break":8421,"jo":8422,"Ġast":8423,"Ġcunt":8424,"ene":8425,"Ġgoals":8426,"isms":8427,"Ġstable":8428,"Ġconsequ":8429,"ĠPan":8430,"Ġholy":8431,"nee":8432,"Ġplayground":8433,"ĠNap":8434,"Ġwatches":8435,"Ġblown":8436,"ĠOs":8437,"ĠKra":8438,"Ġsword":8439,"Ġsooner":8440,"Ġanswered":8441,"Ġknob":8442,"Ġbearing":8443,"Ġengineers":8444,"Ġblocks":8445,"Ġsuitable":8446,"Ġdamaged":8447,"ĠSyria":8448,"ĠProsecco":8449,"Ġlungs":8450,"nies":8451,"Ġthrill":8452,"Ġsin":8453,"Ġcure":8454,"Ġwestern":8455,"ades":8456,"onnaise":8457,"ĠAS":8458,"ĠPart":8459,"ermint":8460,"ĠHard":8461,"Ġwaterfall":8462,"Ġcheat":8463,"Ġcurly":8464,"Ġcurious":8465,"Ġbrownies":8466,"Ġdescribed":8467,"Ġsuitcase":8468,"Ġscrewed":8469,"Ġbattle":8470,"Ġchampion":8471,"Ġbegins":8472,"Ġbicycle":8473,"Ġannivers":8474,"bath":8475,"jud":8476,"went":8477,"Ġfond":8478,"Ġlick":8479,"lade":8480,"Ġshifts":8481,"Ġjungle":8482,"oto":8483,"ĠWik":8484,"Ġscales":8485,"Ġpops":8486,"Ġhugely":8487,"Ġbeautifully":8488,"Ġfireworks":8489,"Ġdevil":8490,"Ġsquirrel":8491,"writing":8492,"Ġkilometres":8493,"big":8494,"fth":8495,"gow":8496,"Ġthy":8497,"etime":8498,"Ġstages":8499,"Ġsometime":8500,"Ġreli":8501,"mpath":8502,"ĠMA":8503,"Ġmayonnaise":8504,"ĠEl":8505,"Ġpheno":8506,"ĠLand":8507,"Ġinterrupt":8508,"Ġcorrid":8509,"Ġbrave":8510,"Ġmode":8511,"Ġmodule":8512,"ĠWhats":8513,"Ġcultures":8514,"Ġprotection":8515,"Ġlemonade":8516,"Ġpigeon":8517,"Ġtimer":8518,"Ġfolder":8519,"Ġindependence":8520,"basically":8521,"Ġhairdresser":8522,"Is":8523,"bar":8524,"bell":8525,"hol":8526,"rates":8527,"uate":8528,"Ġbehave":8529,"Ġlocks":8530,"Ġfrog":8531,"Ġworker":8532,"Ġclient":8533,"Ġhomeless":8534,"Ġmonthly":8535,"Ġcracking":8536,"Ġcarefully":8537,"Ġdrown":8538,"graph":8539,"Ġfloors":8540,"Ġclearing":8541,"Ġassign":8542,"ouncil":8543,"Ġdeveloping":8544,"Ġpsychological":8545,"Ġvoting":8546,"Ġcotton":8547,"working":8548,"Ġarrangement":8549,"wo":8550,"Ġfran":8551,"Ġpanda":8552,"Ġcoco":8553,"Ġsaves":8554,"Ġactions":8555,"ĠPC":8556,"Ġlean":8557,"ĠHot":8558,"Ġtense":8559,"Ġmustard":8560,"Ġresident":8561,"ĠKe":8562,"Ġpractising":8563,"Ġcrossing":8564,"Ġofficers":8565,"Ġaffected":8566,"Ġtoothpaste":8567,"Ġknitted":8568,"Ġdocumentary":8569,"imed":8570,"Ġwwhat":8571,"Ġfizzy":8572,"step":8573,"ora":8574,"ppet":8575,"ĠLord":8576,"ĠHer":8577,"Ġprince":8578,"apore":8579,"ĠSuper":8580,"Ġsatell":8581,"sixty":8582,"Ġcoughing":8583,"Ġpeppermint":8584,"oes":8585,"Ġwob":8586,"rels":8587,"Ġtodd":8588,"Ġwhist":8589,"ita":8590,"Ġrul":8591,"Ġcave":8592,"Ġbacks":8593,"Ġdiabet":8594,"uls":8595,"ulum":8596,"Ġcoursework":8597,"Ġroots":8598,"Ġimages":8599,"Ġmoments":8600,"Ġinstinct":8601,"Ġhaircut":8602,"Ġfans":8603,"Ġhospice":8604,"Ġmotion":8605,"screen":8606,"Ġstruct":8607,"Ġdrawers":8608,"Ġlaying":8609,"Ġhunting":8610,"Ġrobin":8611,"Ġbarbeque":8612,"Ġguests":8613,"Ġreleased":8614,"pol":8615,"Ġtread":8616,"Ġwid":8617,"eries":8618,"Ġisol":8619,"Ġninth":8620,"Ġupload":8621,"ĠClar":8622,"Ġagents":8623,"ĠMur":8624,"Ġlasted":8625,"ranean":8626,"Ġmarkets":8627,"Ġrealistic":8628,"Ġkidney":8629,"Ġbelief":8630,"Ġmentally":8631,"ĠNews":8632,"Ġfitness":8633,"Ġposters":8634,"Ġloaded":8635,"Ġchapter":8636,"Ġavoca":8637,"Ġfabric":8638,"ĠMuslims":8639,"Ġinjured":8640,"iterranean":8641,"Ġregardless":8642,"Ġclinic":8643,"ĠSweden":8644,"Ġsniff":8645,"cles":8646,"dis":8647,"Ġwider":8648,"inst":8649,"rey":8650,"Ġpear":8651,"Ġroses":8652,"Ġcoins":8653,"Ġchlor":8654,"Ġalmond":8655,"ĠSar":8656,"ĠCC":8657,"ĠCouncil":8658,"ĠBeat":8659,"Ġpoverty":8660,"Ġpref":8661,"Ġsizes":8662,"Ġuns":8663,"ĠJere":8664,"ĠJam":8665,"tied":8666,"Ġtaxed":8667,"Ġsticker":8668,"Ġclosest":8669,"resp":8670,"Ġmanagers":8671,"Ġlegit":8672,"Ġburst":8673,"Ġattacked":8674,"ĠDevon":8675,"ĠMalays":8676,"Ġglobal":8677,"Ġmicrophone":8678,"Ġshelves":8679,"Ġadopt":8680,"ĠRussell":8681,"ĠCosta":8682,"ĠGlasgow":8683,"ĠSamsung":8684,"ila":8685,"wed":8686,"Ġauber":8687,"Ġbounce":8688,"Ġwages":8689,"ceed":8690,"Ġpole":8691,"ciple":8692,"weight":8693,"Ġnugg":8694,"Ġsyrup":8695,"Ġtuition":8696,"little":8697,"Ġcheek":8698,"Ġanalyse":8699,"Ġsummat":8700,"Ġdistracted":8701,"Ġjudging":8702,"ĠMartin":8703,"Ġvehicle":8704,"Ġnonsense":8705,"Yeah":8706,"must":8707,"Ġitem":8708,"vender":8709,"Ġhay":8710,"Ġinfection":8711,"Ġshade":8712,"Ġoffices":8713,"ishop":8714,"ĠMid":8715,"ĠFather":8716,"ĠPlay":8717,"Ġunhappy":8718,"ĠWater":8719,"ĠRa":8720,"ĠThrones":8721,"uda":8722,"Ġcooks":8723,"Ġsquad":8724,"Ġvisited":8725,"Ġwars":8726,"Ġsnowing":8727,"Ġadvertised":8728,"Ġfundament":8729,"Ġscenes":8730,"Ġpunish":8731,"ipedia":8732,"Ġcubes":8733,"Ġtissue":8734,"being":8735,"ĠBur":8736,"Ġlem":8737,"Ġleggings":8738,"ĠPM":8739,"erman":8740,"Ġblur":8741,"ĠUp":8742,"Ġsleepy":8743,"Ġparag":8744,"Ġrais":8745,"Ġproducing":8746,"Ġcuddle":8747,"Ġagreement":8748,"sometimes":8749,"Ġequally":8750,"ĠAfghan":8751,"Ġslap":8752,"Ġchopping":8753,"Ġaffects":8754,"Ġimmediate":8755,"Ġinfluenced":8756,"Ġjunior":8757,"ĠValen":8758,"Ġadminist":8759,"ĠAbbey":8760,"Ġpodcast":8761,"employed":8762,"Ġbeside":8763,"ĠValentine":8764,"Ġathlet":8765,"Ġvacuum":8766,"great":8767,"true":8768,"Ġinse":8769,"ario":8770,"owers":8771,"Ġaband":8772,"Ġresol":8773,"orts":8774,"Ġunh":8775,"ases":8776,"Ġprick":8777,"Ġtopics":8778,"Ġuniverse":8779,"anything":8780,"Ġcostumes":8781,"Ġsquid":8782,"Ġpanels":8783,"Ġcamps":8784,"Ġbowling":8785,"Ġadvanced":8786,"Ġlux":8787,"Ġcracker":8788,"Ġflipping":8789,"Ġjournalist":8790,"Ġabsor":8791,"Ġupgrade":8792,"Ġanxiety":8793,"iotics":8794,"Ġtear":8795,"Ġmut":8796,"Ġko":8797,"Ġjustify":8798,"Ġsteady":8799,"Ġcherry":8800,"uns":8801,"Ġactors":8802,"Ġspots":8803,"ĠBay":8804,"ĠLittle":8805,"Ġinsul":8806,"Ġeleventh":8807,"Ġdelight":8808,"attered":8809,"Ġstarters":8810,"second":8811,"Ġtreasure":8812,"Ġredundant":8813,"ios":8814,"ugu":8815,"Ġaid":8816,"inate":8817,"eapple":8818,"Ġbol":8819,"Ġcrown":8820,"Ġnip":8821,"vering":8822,"Ġorders":8823,"Ġups":8824,"cape":8825,"ima":8826,"ĠApp":8827,"Ġconcl":8828,"omy":8829,"ĠPath":8830,"Ġmums":8831,"Ġmarvellous":8832,"Ġaccur":8833,"Ġstrateg":8834,"Ġspoons":8835,"Ġamounts":8836,"ĠGermans":8837,"Ġcush":8838,"Ġlowest":8839,"Ġbears":8840,"Ġvarnish":8841,"Ġvalu":8842,"Ġcapable":8843,"Ġcorrectly":8844,"Ġcandid":8845,"ĠiPod":8846,"Ġbehaved":8847,"Ġvolunteers":8848,"Ġbuffet":8849,"Ġfrequently":8850,"cipline":8851,"Ġassembly":8852,"Ġpurchase":8853,"ĠMOT":8854,"Ġokey":8855,"Ġglit":8856,"Ġtoler":8857,"aye":8858,"Ġstew":8859,"Ġrevision":8860,"Ġmega":8861,"ĠSan":8862,"Ġdiving":8863,"ĠBang":8864,"ĠPass":8865,"Ġphys":8866,"Ġbelieved":8867,"Ġrelate":8868,"Ġvision":8869,"Ġpressing":8870,"ĠEastern":8871,"Ġattacking":8872,"wasn":8873,"Ġprinciple":8874,"limited":8875,"hole":8876,"Ġburns":8877,"Ġbanging":8878,"Ġgaps":8879,"Ġadmitted":8880,"Ġdestroyed":8881,"Ġmoust":8882,"Ġantibiotics":8883,"hall":8884,"reh":8885,"resh":8886,"also":8887,"Ġbackpack":8888,"standing":8889,"Ġsends":8890,"Ġincor":8891,"Ġlegally":8892,"Ġanswering":8893,"Ġcircu":8894,"Ġequals":8895,"ĠSher":8896,"Ġtoothbrush":8897,"Ġwires":8898,"Ġpouring":8899,"Ġfinancially":8900,"Ġbriefly":8901,"Ġvirus":8902,"Ġanniversary":8903,"ĠJamie":8904,"erts":8905,"Ġcanal":8906,"Ġchains":8907,"inding":8908,"ĠMount":8909,"ifying":8910,"Ġdest":8911,"Ġdeleted":8912,"Ġremembering":8913,"Ġrelief":8914,"books":8915,"Ġballet":8916,"Ġhyp":8917,"Ġcigarettes":8918,"Ġultimately":8919,"Ġlecturers":8920,"Ġshapes":8921,"ĠMediterranean":8922,"ĠLloyd":8923,"apped":8924,"ointing":8925,"pap":8926,"Ġwins":8927,"Ġthesis":8928,"enger":8929,"orous":8930,"Ġjazz":8931,"Ġcoordin":8932,"arium":8933,"Ġsells":8934,"Ġchav":8935,"iments":8936,"ĠSea":8937,"ĠSam":8938,"ĠSnap":8939,"ifi":8940,"Ġworkshop":8941,"antom":8942,"Ġhousehold":8943,"uman":8944,"Ġlavender":8945,"Ġpasses":8946,"Ġextract":8947,"ampton":8948,"Ġcentres":8949,"pause":8950,"pox":8951,"Ġplanted":8952,"Ġcrush":8953,"Ġunfortunate":8954,"Ġappointments":8955,"Ġjudgement":8956,"Ġidentity":8957,"Ġinitial":8958,"Ġnurses":8959,"ĠSyd":8960,"Ġplugged":8961,"Ġretirement":8962,"Ġquarters":8963,"Ġteddy":8964,"Ġanonymous":8965,"senal":8966,"Ġcomedian":8967,"Ġapprenticeship":8968,"ĠSpencer":8969,"Ġrif":8970,"Ġconvent":8971,"Ġvast":8972,"Ġhearts":8973,"ĠOkay":8974,"Ġmargar":8975,"Ġreserv":8976,"Ġcracked":8977,"Ġgranddad":8978,"ĠVod":8979,"Ġextend":8980,"Ġcupcakes":8981,"Ġfavourites":8982,"Ġtransp":8983,"Ġburgers":8984,"Ġpractically":8985,"build":8986,"Ġboarding":8987,"Ġperiods":8988,"Ġdigging":8989,"Ġcircles":8990,"Ġarchae":8991,"Ġprotected":8992,"Ġpints":8993,"Ġchannels":8994,"ibbean":8995,"Ġsponsor":8996,"Ġoutrageous":8997,"ĠSingapore":8998,"bul":8999,"fine":9000,"lation":9001,"omed":9002,"Ġlone":9003,"ener":9004,"Ġeighth":9005,"Ġshepher":9006,"Ġmaps":9007,"ador":9008,"ĠBank":9009,"Ġpoems":9010,"rum":9011,"ĠHam":9012,"Ġapps":9013,"Ġscro":9014,"Ġmonitor":9015,"ggie":9016,"lady":9017,"Ġlogical":9018,"Ġreduce":9019,"Ġrevolution":9020,"Ġupdated":9021,"ĠUnion":9022,"Ġhedgeh":9023,"Ġspiritual":9024,"ĠPrimark":9025,"fin":9026,"fire":9027,"oca":9028,"Ġhaz":9029,"Ġish":9030,"Ġela":9031,"Ġherb":9032,"ĠPizza":9033,"aming":9034,"Ġlamp":9035,"Ġsweep":9036,"Ġsweetcorn":9037,"Ġextraordin":9038,"Ġterrifying":9039,"Ġpreviously":9040,"Ġspectac":9041,"Ġseminar":9042,"course":9043,"ratic":9044,"Ġlung":9045,"itious":9046,"itute":9047,"orms":9048,"leg":9049,"Ġnation":9050,"Ġbalan":9051,"Ġcheddar":9052,"Ġbitten":9053,"Ġdemo":9054,"Ġpacks":9055,"ĠFact":9056,"Ġcarriage":9057,"haven":9058,"Ġminds":9059,"Ġheadache":9060,"ocop":9061,"Ġfoods":9062,"Ġbarrier":9063,"bola":9064,"achu":9065,"Ġturno":9066,"ĠIsland":9067,"Ġdaughters":9068,"Ġframes":9069,"Ġbecau":9070,"Ġironing":9071,"Ġignored":9072,"Ġlinks":9073,"Ġtouristy":9074,"Ġshoots":9075,"ĠAirb":9076,"ĠMadrid":9077,"Ġprayer":9078,"Ġmouldy":9079,"ijing":9080,"Ġsubscri":9081,"known":9082,"Ġdisturbing":9083,"Ġsketch":9084,"Ġdiabetes":9085,"uguese":9086,"ĠSydney":9087,"TV":9088,"die":9089,"Ġugh":9090,"Ġtears":9091,"Ġwis":9092,"Ġmop":9093,"Ġsocially":9094,"Ġshi":9095,"ĠSer":9096,"ĠCra":9097,"ĠTed":9098,"Ġvice":9099,"Ġgum":9100,"Ġstrings":9101,"Ġsympath":9102,"Ġsalty":9103,"Ġfluid":9104,"Ġpensions":9105,"ĠIplayer":9106,"Ġsmartphone":9107,"Ġcomparing":9108,"Ġrealized":9109,"Ġreferred":9110,"Ġcarbonara":9111,"Ġdeaf":9112,"Ġneutral":9113,"Ġavocado":9114,"ĠValencia":9115,"path":9116,"Ġmig":9117,"Ġcoke":9118,"arb":9119,"urd":9120,"Ġtips":9121,"ĠCat":9122,"ĠMel":9123,"ĠTig":9124,"Ġcomic":9125,"guin":9126,"Ġfollows":9127,"Ġdetect":9128,"Ġdisappointing":9129,"Ġmemor":9130,"Ġwhisper":9131,"Ġtorch":9132,"Ġchaos":9133,"Ġstabbed":9134,"Ġtattoos":9135,"Ġpeaceful":9136,"Ġpollution":9137,"Ġsample":9138,"Ġwrestling":9139,"Ġdespite":9140,"Ġoctop":9141,"pse":9142,"ĠIns":9143,"rost":9144,"Ġalien":9145,"shirts":9146,"ĠAD":9147,"ĠBT":9148,"Ġhob":9149,"ptain":9150,"Ġweirdo":9151,"Ġmatern":9152,"Ġgreed":9153,"Ġextended":9154,"Ġspotted":9155,"Ġvegan":9156,"Ġbasil":9157,"Ġconcern":9158,"Ġinstructor":9159,"Ġpineapple":9160,"kini":9161,"Ġtranslate":9162,"ĠCharlie":9163,"ĠSaudi":9164,"Ġfrying":9165,"Ġgathering":9166,"Ġpicnic":9167,"Ġdialect":9168,"Ġsan":9169,"Ġoxy":9170,"Ġfizz":9171,"Ġliber":9172,"Ġincent":9173,"Ġrating":9174,"Ġroles":9175,"thm":9176,"Ġstag":9177,"opes":9178,"rain":9179,"Ġmeno":9180,"Ġsuite":9181,"ando":9182,"andy":9183,"massy":9184,"ept":9185,"otions":9186,"Ġcli":9187,"ĠDist":9188,"ĠLou":9189,"ĠLion":9190,"ĠHood":9191,"ĠHall":9192,"Ġpup":9193,"Ġpuddings":9194,"ĠRh":9195,"pense":9196,"ĠKev":9197,"acity":9198,"Ġphotocop":9199,"Ġproducer":9200,"Ġtreats":9201,"Ġattach":9202,"Ġsoldier":9203,"Ġcontacted":9204,"Ġspecies":9205,"Ġdirections":9206,"Ġracket":9207,"ĠArsenal":9208,"ĠOffice":9209,"Ġsurface":9210,"Ġinspired":9211,"Ġtemporary":9212,"ĠTunisia":9213,"Ġreputation":9214,"ĠJeremy":9215,"eer":9216,"uing":9217,"Ġaqu":9218,"Ġsnee":9219,"Ġbre":9220,"Ġcere":9221,"things":9222,"gels":9223,"Ġplaster":9224,"ĠMen":9225,"ĠMouse":9226,"ored":9227,"Ġdism":9228,"Ġrides":9229,"Ġgreens":9230,"Ġcupcake":9231,"Ġpisses":9232,"Ġrefused":9233,"ĠCaptain":9234,"ĠRoss":9235,"Ġawareness":9236,"Ġeconomic":9237,"Ġverb":9238,"Ġcandy":9239,"Ġcontrovers":9240,"ĠSecond":9241,"Ġsunglasses":9242,"ĠHenry":9243,"ĠWikipedia":9244,"fam":9245,"gonna":9246,"Ġome":9247,"Ġcoin":9248,"Ġmuddy":9249,"ĠSpe":9250,"Ġbugs":9251,"ĠAsh":9252,"osing":9253,"ĠMatt":9254,"ĠTru":9255,"Ġconverted":9256,"ĠBill":9257,"ĠWester":9258,"ĠLad":9259,"Ġslides":9260,"Ġdecides":9261,"Ġcolder":9262,"Ġtwelfth":9263,"Ġconsist":9264,"Ġentry":9265,"ĠColl":9266,"Ġeducated":9267,"Ġqualifications":9268,"ĠCaribbean":9269,"Ġrecycle":9270,"Ġoutfits":9271,"Ġsweating":9272,"Ġcolleague":9273,"ĠSherlock":9274,"rick":9275,"Ġsard":9276,"Ġtherm":9277,"Ġforgive":9278,"ĠGames":9279,"Ġpanicking":9280,"fourth":9281,"sixth":9282,"Ġscenario":9283,"ĠPhil":9284,"Ġclouds":9285,"Ġgreatest":9286,"Ġfrightening":9287,"Ġexperiences":9288,"Ġpriority":9289,"olar":9290,"tut":9291,"yay":9292,"inea":9293,"Ġbib":9294,"Ġdat":9295,"Ġlact":9296,"Ġcitiz":9297,"Ġeve":9298,"ctic":9299,"Ġaspir":9300,"Ġnee":9301,"Ġreward":9302,"Ġdevice":9303,"Ġclues":9304,"antine":9305,"oodle":9306,"Ġdifferences":9307,"ĠDam":9308,"Ġlets":9309,"ĠJa":9310,"ĠRun":9311,"having":9312,"Ġsleeps":9313,"Ġsounding":9314,"Ġedges":9315,"Ġflashing":9316,"Ġpans":9317,"Ġregret":9318,"Ġfootballer":9319,"ĠBarb":9320,"Ġpassports":9321,"Ġhypo":9322,"Ġlitre":9323,"Ġpaintings":9324,"Ġpedest":9325,"Ġmechanism":9326,"Ġtrailer":9327,"Ġmarshmallows":9328,"Ġpreparation":9329,"Ġdomestic":9330,"Ġpenalty":9331,"Ġturnover":9332,"Ġsust":9333,"Ġwed":9334,"Ġrack":9335,"iry":9336,"Ġsav":9337,"Ġexcess":9338,"Ġdownhill":9339,"iful":9340,"Ġremem":9341,"Ġenqu":9342,"Ġunpl":9343,"Ġmonster":9344,"Ġdiseas":9345,"Ġrunner":9346,"Ġadvis":9347,"ĠKit":9348,"Ġinterpre":9349,"Ġdeciding":9350,"sheet":9351,"Ġterrit":9352,"Ġdash":9353,"Ġexpenses":9354,"ĠStep":9355,"Ġemptied":9356,"Ġretard":9357,"please":9358,"Ġstores":9359,"Ġstatistics":9360,"fashion":9361,"Ġopinions":9362,"ĠPortuguese":9363,"Ġconvince":9364,"Ġvouchers":9365,"Ġconsultant":9366,"bloody":9367,"Ġfeathers":9368,"Ġfacilities":9369,"Ġmoustache":9370,"Ġwisdom":9371,"ninet":9372,"rather":9373,"Ġtwin":9374,"Ġcausing":9375,"Ġcauses":9376,"ĠFire":9377,"Ġunion":9378,"Ġpride":9379,"Ġtriangle":9380,"Ġformula":9381,"Ġillness":9382,"Ġattacks":9383,"Ġeducational":9384,"Ġflown":9385,"ĠPomp":9386,"ĠMorrison":9387,"Ġobserv":9388,"ĠWethers":9389,"Ġreplacement":9390,"Ġencouraging":9391,"Ġmultip":9392,"ĠMexican":9393,"ĠRyan":9394,"cis":9395,"hor":9396,"ipe":9397,"tre":9398,"llet":9399,"sticks":9400,"laces":9401,"ĠSca":9402,"Ġintention":9403,"ĠFree":9404,"Ġunlimited":9405,"Ġpheasant":9406,"ĠWord":9407,"Ġslope":9408,"uds":9409,"kyo":9410,"Ġbeaches":9411,"mption":9412,"bacco":9413,"Ġnegoti":9414,"Ġenthusiastic":9415,"ĠObama":9416,"Good":9417,"gie":9418,"rors":9419,"uch":9420,"Ġiif":9421,"Ġhou":9422,"Ġbark":9423,"Ġditch":9424,"Ġtoot":9425,"Ġtobacco":9426,"Ġlies":9427,"Ġliver":9428,"itage":9429,"itution":9430,"erel":9431,"raq":9432,"Ġacts":9433,"erson":9434,"ongol":9435,"Ġagr":9436,"ĠBrian":9437,"Ġdifficul":9438,"Ġcarb":9439,"Ġcarrier":9440,"Ġlease":9441,"Ġfarms":9442,"Ġsmash":9443,"Ġlightning":9444,"ĠThatcher":9445,"Ġphotographer":9446,"Ġdryer":9447,"Ġarriving":9448,"Ġopera":9449,"ĠRover":9450,"ĠJohnny":9451,"ĠBeijing":9452,"Ġidentical":9453,"ĠAirways":9454,"Ġphrases":9455,"Ġcrem":9456,"Ġjournalism":9457,"ropbox":9458,"Ġcolleagues":9459,"Ġperforming":9460,"Ġrepeated":9461,"Ġcorridor":9462,"Ġoxygen":9463,"ĠDistrict":9464,"Ġdifficulty":9465,"FL":9466,"OS":9467,"brit":9468,"fia":9469,"pical":9470,"sur":9471,"turn":9472,"Ġvenue":9473,"Ġtheore":9474,"Ġlined":9475,"Ġfer":9476,"itable":9477,"Ġwellies":9478,"Ġanal":9479,"Ġpeer":9480,"Ġexternal":9481,"ĠFord":9482,"Ġunp":9483,"Ġjoker":9484,"Ġplural":9485,"Ġpuff":9486,"iley":9487,"Ġgrave":9488,"Ġscones":9489,"ĠRay":9490,"Ġhipp":9491,"ĠOli":9492,"Ġdefault":9493,"Ġsecure":9494,"Ġskis":9495,"Ġjuggling":9496,"Ġindic":9497,"Ġbrackets":9498,"Ġsynd":9499,"Ġsupervisor":9500,"Ġcreamy":9501,"Ġcounsell":9502,"Ġoperating":9503,"Ġlumps":9504,"Ġshouted":9505,"Ġsteering":9506,"Ġreceive":9507,"Ġbombs":9508,"Ġgreater":9509,"Ġmelted":9510,"Ġbouncy":9511,"Ġphoning":9512,"Ġshuffle":9513,"Ġlesbian":9514,"Ġparagraph":9515,"SA":9516,"another":9517,"jan":9518,"rings":9519,"Ġbunk":9520,"Ġwax":9521,"Ġsoda":9522,"Ġweddings":9523,"itis":9524,"Ġkay":9525,"Ġmyth":9526,"Ġchor":9527,"cend":9528,"imp":9529,"ĠTim":9530,"ĠTime":9531,"Ġflick":9532,"Ġbeating":9533,"Ġfilthy":9534,"Ġcommute":9535,"Ġmidday":9536,"Ġluggage":9537,"Ġscrap":9538,"iki":9539,"Ġemployer":9540,"Ġrobot":9541,"ĠTokyo":9542,"Ġdivorce":9543,"Ġterrace":9544,"Ġmaternity":9545,"CE":9546,"find":9547,"Ġpurs":9548,"illed":9549,"tta":9550,"ĠAd":9551,"ĠPale":9552,"ĠWas":9553,"Ġcheated":9554,"ĠFridays":9555,"crimin":9556,"Ġauto":9557,"Ġcrump":9558,"Ġspectacular":9559,"eii":9560,"mier":9561,"via":9562,"Ġticking":9563,"noid":9564,"Ġrows":9565,"Ġsewing":9566,"Ġtaps":9567,"ĠSub":9568,"ĠAct":9569,"Ġpharma":9570,"Ġcompost":9571,"ĠGr":9572,"Ġlettu":9573,"wegian":9574,"Ġpunt":9575,"amic":9576,"Ġdiscipline":9577,"ĠKy":9578,"Ġlighting":9579,"ĠVAT":9580,"Ġamazingly":9581,"Ġbarge":9582,"alsa":9583,"Ġpoles":9584,"Ġlunches":9585,"Ġsyn":9586,"Ġreckons":9587,"Ġrained":9588,"obic":9589,"Ġstrongly":9590,"Ġdrums":9591,"Ġmathem":9592,"Ġdevast":9593,"Ġbulb":9594,"Ġupdates":9595,"Ġtranslation":9596,"Ġpillows":9597,"Ġchilly":9598,"Ġethnic":9599,"Ġescaped":9600,"Ġdemanding":9601,"Ġvowels":9602,"Ġlyrics":9603,"Ġplatform":9604,"Ġreferences":9605,"Ġlanes":9606,"Ġsubtit":9607,"Ġcushions":9608,"Ġincentive":9609,"bro":9610,"por":9611,"ugg":9612,"Ġvent":9613,"Ġthth":9614,"Ġwives":9615,"Ġfidd":9616,"uto":9617,"imal":9618,"ĠBr":9619,"Ġarrow":9620,"Ġvict":9621,"Ġmanual":9622,"rug":9623,"ĠDropbox":9624,"usc":9625,"Ġreader":9626,"Ġsettee":9627,"Ġinterestingly":9628,"Ġcurries":9629,"Ġsmelt":9630,"Ġregion":9631,"Ġlandlady":9632,"Ġsuperb":9633,"Ġrainbow":9634,"Ġodds":9635,"post":9636,"Ġballoons":9637,"Ġrefuse":9638,"Ġstripes":9639,"Ġracism":9640,"Ġflavours":9641,"cheers":9642,"Ġbulk":9643,"Ġsurvived":9644,"Ġvolunteer":9645,"Ġcaptain":9646,"Ġsneaky":9647,"Ġdolphins":9648,"Ġfortunately":9649,"ĠMorocco":9650,"Ġmargarine":9651,"Ġlonely":9652,"IM":9653,"cet":9654,"gos":9655,"Ġven":9656,"Ġdys":9657,"Ġfought":9658,"Ġporn":9659,"oper":9660,"ĠMet":9661,"ĠPal":9662,"cience":9663,"ĠHigh":9664,"ĠJon":9665,"Ġflesh":9666,"ĠChristmassy":9667,"Ġtruly":9668,"Ġcrappy":9669,"Ġgenes":9670,"Ġfoam":9671,"Ġexpectations":9672,"Ġenjoys":9673,"Ġsmelly":9674,"Ġclothing":9675,"Ġstrangely":9676,"seventh":9677,"ĠBarc":9678,"Ġwraps":9679,"looks":9680,"Ġcelebrit":9681,"ĠGoth":9682,"Ġcopies":9683,"fifth":9684,"Ġconstruction":9685,"Ġstaircase":9686,"ĠBeatles":9687,"ĠKevin":9688,"dra":9689,"uous":9690,"Ġouch":9691,"Ġay":9692,"chi":9693,"Ġmuck":9694,"Ġdelayed":9695,"Ġsibling":9696,"ĠEbola":9697,"ĠHaw":9698,"liff":9699,"Ġweirdly":9700,"Ġchecks":9701,"Ġformat":9702,"Ġquietly":9703,"Ġshaking":9704,"Ġdocuments":9705,"Ġtidying":9706,"ĠBlue":9707,"Ġbastards":9708,"Ġyacht":9709,"Ġcocoa":9710,"That":9711,"cÃ©":9712,"Ġtheories":9713,"eally":9714,"Ġdual":9715,"rets":9716,"onation":9717,"stan":9718,"thur":9719,"selling":9720,"Ġallot":9721,"Ġchief":9722,"Ġloans":9723,"cano":9724,"Ġproced":9725,"Ġcage":9726,"Ġactress":9727,"ĠSav":9728,"Ġfaff":9729,"whel":9730,"ĠAA":9731,"ĠMuseum":9732,"ĠTimes":9733,"ĠBell":9734,"Ġpockets":9735,"ortion":9736,"Ġacid":9737,"ĠJane":9738,"Ġgrabbed":9739,"Ġhomemade":9740,"uba":9741,"Ġbasics":9742,"Ġslot":9743,"Ġcounted":9744,"Ġopener":9745,"Ġclassics":9746,"Ġrushed":9747,"Ġsimpl":9748,"Ġfootpath":9749,"iculate":9750,"Ġjumps":9751,"ĠNorwich":9752,"Ġstruck":9753,"egas":9754,"Ġvoices":9755,"said":9756,"Ġcategories":9757,"Ġrecall":9758,"Ġundergradu":9759,"ifferent":9760,"ĠLeague":9761,"ollen":9762,"fashioned":9763,"cod":9764,"late":9765,"Ġththere":9766,"Ġwiped":9767,"Ġbrow":9768,"Ġdict":9769,"Ġgel":9770,"Ġnomin":9771,"Ġgoo":9772,"Ġjars":9773,"Ġreached":9774,"Ġalt":9775,"ĠSk":9776,"Ġoffensive":9777,"ĠAra":9778,"ĠMark":9779,"ĠBook":9780,"Ġva":9781,"Ġcarries":9782,"ĠHR":9783,"Ġappeared":9784,"Ġmoral":9785,"Ġdragged":9786,"Ġconspir":9787,"Ġblueberries":9788,"Ġzip":9789,"fficient":9790,"Ġrisky":9791,"Ġpatience":9792,"Ġburned":9793,"Ġexplode":9794,"Ġpassionate":9795,"Ġvitamin":9796,"Ġenvelope":9797,"Ġcurriculum":9798,"Ġceremon":9799,"Ġdiseases":9800,"No":9801,"Ġyea":9802,"Ġyeast":9803,"ĠIraq":9804,"Ġclar":9805,"Ġtoen":9806,"sty":9807,"Ġchase":9808,"Ġspi":9809,"shops":9810,"Ġengines":9811,"ĠPac":9812,"Ġfirstly":9813,"ĠJord":9814,"ĠRep":9815,"Ġsideways":9816,"Ġdecla":9817,"Ġbrains":9818,"Ġdaff":9819,"Ġworthwhile":9820,"Ġtransact":9821,"Ġsmiling":9822,"Ġrubbing":9823,"Ġsnowman":9824,"Ġvillages":9825,"remember":9826,"Ġscores":9827,"Ġborrowed":9828,"Ġemployment":9829,"fifty":9830,"ĠLoch":9831,"Ġraspberry":9832,"between":9833,"ĠKenya":9834,"Ġparsnips":9835,"Ġoutdoor":9836,"Ġattempt":9837,"Ġcelebrities":9838,"brilliant":9839,"low":9840,"want":9841,"Ġaand":9842,"encies":9843,"ĠSnow":9844,"ĠSto":9845,"Ġmango":9846,"ĠFive":9847,"ĠPP":9848,"Ġindie":9849,"uded":9850,"exc":9851,"Ġretro":9852,"Ġhealthcare":9853,"Ġelectrical":9854,"Ġprofessor":9855,"Ġcircular":9856,"umba":9857,"Ġintroduction":9858,"ĠWilliam":9859,"Ġbubbles":9860,"Ġsatellite":9861,"cous":9862,"iander":9863,"Ġhint":9864,"Ġbishop":9865,"Ġdar":9866,"Ġpills":9867,"utions":9868,"Ġinner":9869,"Ġstea":9870,"Ġformed":9871,"Ġforks":9872,"Ġyourselves":9873,"Ġworm":9874,"unes":9875,"unction":9876,"Ġtab":9877,"mboo":9878,"ulpt":9879,"ota":9880,"Ġbobs":9881,"ĠBall":9882,"ĠLent":9883,"ĠLook":9884,"Ġdads":9885,"ĠHist":9886,"Ġscone":9887,"Ġcourts":9888,"Ġcamel":9889,"Ġthankfully":9890,"Ġdislike":9891,"Ġideally":9892,"Ġthirtieth":9893,"Ġearned":9894,"Ġswapped":9895,"Ġswollen":9896,"Ġwaterproof":9897,"sterdam":9898,"force":9899,"Ġbikini":9900,"Ġemphas":9901,"Ġcolleges":9902,"Ġseasons":9903,"Ġsecretly":9904,"Ġbrandy":9905,"handed":9906,"Ġwildlife":9907,"flies":9908,"Ġrelatives":9909,"Ġauthority":9910,"Ġmotivation":9911,"ĠDenmark":9912,"Ġlenses":9913,"ĠBatman":9914,"ĠWhatsapp":9915,"Ġvaluable":9916,"Ġmenopause":9917,"ĠPompeii":9918,"Ġagricult":9919,"ko":9920,"west":9921,"Ġwound":9922,"Ġyards":9923,"Ġbolog":9924,"Ġmoo":9925,"Ġfired":9926,"Ġwakes":9927,"Ġrod":9928,"than":9929,"icol":9930,"Ġwhatnot":9931,"Ġbact":9932,"Ġqui":9933,"Ġworship":9934,"ĠSIM":9935,"ĠMongol":9936,"Ġkebab":9937,"Ġcompreh":9938,"week":9939,"ĠHun":9940,"Ġtenants":9941,"ĠYour":9942,"Ġreds":9943,"Ġlocals":9944,"Ġarmies":9945,"ĠSwiss":9946,"Ġcontemp":9947,"Ġstatue":9948,"ĠAnne":9949,"Ġclaims":9950,"Ġauthors":9951,"Ġimprovement":9952,"ĠCharles":9953,"Ġtargets":9954,"underst":9955,"Ġrefund":9956,"Ġtalented":9957,"ĠFinland":9958,"Ġoccurred":9959,"conscious":9960,"Ġupsetting":9961,"ĠWestern":9962,"Ġtheoret":9963,"CD":9964,"cru":9965,"nce":9966,"pay":9967,"ĠIb":9968,"Ġware":9969,"Ġjab":9970,"Ġey":9971,"Ġnin":9972,"ĠSal":9973,"ĠMum":9974,"Ġconvert":9975,"Ġcling":9976,"ĠPic":9977,"Ġcompens":9978,"ĠDick":9979,"Ġfives":9980,"Ġappalling":9981,"Ġswan":9982,"Ġbrace":9983,"ĠSundays":9984,"Ġdull":9985,"nik":9986,"click":9987,"Ġfreshers":9988,"Ġpatio":9989,"uffed":9990,"Ġexisting":9991,"Ġchallenging":9992,"ĠGeord":9993,"Ġguarante":9994,"Ġthreatening":9995,"Ġscoop":9996,"Ġsubstant":9997,"Ġdetermined":9998,"Ġfrankly":9999,"ĠLinked":10000,"ĠSarah":10001,"ĠAfghanistan":10002,"izing":10003,"jack":10004,"zhe":10005,"Ġww":10006,"Ġstare":10007,"raction":10008,"ĠSaint":10009,"shot":10010,"ĠEton":10011,"mentia":10012,"ĠGold":10013,"liz":10014,"ĠOsc":10015,"ĠKim":10016,"Ġcollar":10017,"Ġrefere":10018,"Ġlaptops":10019,"Ġintellect":10020,"Ġpumpkin":10021,"Ġtranscribing":10022,"papers":10023,"ĠPalest":10024,"minton":10025,"nb":10026,"piece":10027,"zi":10028,"erving":10029,"Ġmuse":10030,"Ġkilos":10031,"Ġbutcher":10032,"Ġcot":10033,"arch":10034,"Ġniche":10035,"cha":10036,"Ġmaker":10037,"geons":10038,"unny":10039,"Ġexpense":10040,"Ġsorta":10041,"Ġvampire":10042,"ĠPig":10043,"esth":10044,"into":10045,"ĠHi":10046,"Ġbleach":10047,"Ġdiscrimin":10048,"Ġmetaph":10049,"ĠVegas":10050,"Ġdraft":10051,"zech":10052,"Ġhairs":10053,"Ġmusician":10054,"Ġescal":10055,"Ġnappy":10056,"Ġweap":10057,"apping":10058,"Ġcube":10059,"Ġwoken":10060,"Ġfourteenth":10061,"Ġreflection":10062,"Ġprotest":10063,"ophone":10064,"celer":10065,"iesta":10066,"Ġimproved":10067,"Ġqualification":10068,"ĠVictoria":10069,"Ġpoisoning":10070,"Ġinjections":10071,"Ġimmigration":10072,"Ġfeatures":10073,"ĠPremier":10074,"Ġrehears":10075,"Ġfetch":10076,"ĠAmsterdam":10077,"ĠJimmy":10078,"Ã¨me":10079,"ĠTrust":10080,"Ġstyles":10081,"Ġaccurate":10082,"foot":10083,"iative":10084,"same":10085,"Ġmal":10086,"rem":10087,"Ġcul":10088,"inge":10089,"Ġwasting":10090,"Ġrural":10091,"Ġsting":10092,"opp":10093,"Ġloll":10094,"Ġmaid":10095,"Ġmacar":10096,"Ġmuff":10097,"ĠCross":10098,"ĠDJ":10099,"Ġhousemate":10100,"Ġbadminton":10101,"Ġrounds":10102,"Ġtricks":10103,"aced":10104,"forty":10105,"Ġscand":10106,"ĠAndroid":10107,"Ġfluent":10108,"club":10109,"Ġvisitors":10110,"Ġalcoholic":10111,"Ġvibe":10112,"Ġurban":10113,"Ġcommitment":10114,"Ġparanoid":10115,"Ġfeature":10116,"Ġlipstick":10117,"Ġfruits":10118,"Ġaeroplane":10119,"ĠMalaysia":10120,"Ġluxury":10121,"ĠOliver":10122,"ĠHunger":10123,"gins":10124,"ssels":10125,"Ġ4":10126,"Ġlat":10127,"Ġgently":10128,"Ġfrost":10129,"Ġdivision":10130,"Ġdaytime":10131,"ĠTai":10132,"Ġarrog":10133,"Ġvalley":10134,"ĠPand":10135,"ĠGat":10136,"ĠNi":10137,"Ġhorn":10138,"Ġbeast":10139,"Ġtrunk":10140,"Ġdistrict":10141,"bbling":10142,"Ġtender":10143,"Ġsnakes":10144,"Ġsnacks":10145,"Ġspeeding":10146,"Ġpatron":10147,"Ġirre":10148,"Ġfreaked":10149,"wouldn":10150,"ĠBecause":10151,"uttering":10152,"Ġbroadband":10153,"Ġyawn":10154,"ĠFlore":10155,"Ġcrunchy":10156,"cs":10157,"si":10158,"wagen":10159,"Ġwicked":10160,"Ġsings":10161,"inter":10162,"Ġbot":10163,"Ġgender":10164,"enance":10165,"Ġrew":10166,"unky":10167,"ĠDes":10168,"ĠLet":10169,"Ġbookshop":10170,"Ġhiya":10171,"Ġrunny":10172,"Ġcoriander":10173,"without":10174,"Ġceil":10175,"Ġdeeper":10176,"Ġwhisk":10177,"nolog":10178,"Ġvoluntary":10179,"Ġchewing":10180,"Ġscientist":10181,"Ġcontribute":10182,"ĠHelen":10183,"ĠHollywood":10184,"dog":10185,"rator":10186,"talk":10187,"Ã±":10188,"Ġthrees":10189,"nopoly":10190,"onic":10191,"uster":10192,"Ġee":10193,"rov":10194,"inkle":10195,"irk":10196,"Ġbamboo":10197,"Ġmasc":10198,"Ġquo":10199,"Ġexists":10200,"abeth":10201,"ĠMaster":10202,"iforn":10203,"Ġsized":10204,"irsty":10205,"intage":10206,"ĠWim":10207,"ĠWonder":10208,"Ġtrap":10209,"Ġsculpt":10210,"Ġbrides":10211,"Ġhorrid":10212,"gettes":10213,"Ġcatalogue":10214,"ization":10215,"Ġseafood":10216,"Ġexplicit":10217,"Ġbrass":10218,"Ġgenerations":10219,"udes":10220,"Ġenjoyable":10221,"boards":10222,"ĠIslam":10223,"Ġbrownie":10224,"Ġcontracts":10225,"Ġessential":10226,"Ġcapacity":10227,"Ġpatients":10228,"Ġcreams":10229,"Ġlifts":10230,"Ġhoops":10231,"Ġdepartments":10232,"Ġfocused":10233,"Ġfashioned":10234,"Ġcloudy":10235,"Ġdispos":10236,"ĠDVDs":10237,"Ġmagnet":10238,"Ġassociate":10239,"Ġsweaty":10240,"Ġeconomics":10241,"Ġcongrat":10242,"Ġlouder":10243,"Ġthoroughly":10244,"Ġtoddler":10245,"ĠApprent":10246,"Ġlettuce":10247,"zheimer":10248,"Bay":10249,"Ġswell":10250,"stics":10251,"Ġsus":10252,"Ġneedles":10253,"ĠEn":10254,"ĠFore":10255,"Ġunf":10256,"ĠWay":10257,"Ġsupporting":10258,"aren":10259,"ĠHob":10260,"ĠNice":10261,"Ġdefend":10262,"Ġhoriz":10263,"Ġador":10264,"Ġserver":10265,"Ġcharities":10266,"Ġimpress":10267,"Ġsmallest":10268,"Ġbuilders":10269,"Ġsleepover":10270,"Ġparad":10271,"Ġtaxis":10272,"ĠWhich":10273,"Ġwishes":10274,"Ġdoubled":10275,"Ġkissing":10276,"ĠPhoto":10277,"Ġcrop":10278,"Ġblankets":10279,"Ġobjective":10280,"Ġdesserts":10281,"Ġdecorating":10282,"Ġlifetime":10283,"Ġproofread":10284,"Ġrhythm":10285,"Ġinherit":10286,"Ġzombies":10287,"Ġfranch":10288,"Ġconspiracy":10289,"lizabeth":10290,"Ġoak":10291,"Ġdong":10292,"Ġorang":10293,"Ġmole":10294,"Ġbuck":10295,"Ġpaw":10296,"Ġvile":10297,"ĠFred":10298,"Ġcompuls":10299,"Ġfung":10300,"Ġtraum":10301,"ĠHugh":10302,"Ġelsewhere":10303,"ĠOrange":10304,"Ġskate":10305,"Ġbuilder":10306,"Ġcentimetres":10307,"ĠAustria":10308,"Ġprivile":10309,"Ġprincip":10310,"Ġcompete":10311,"Ġcrisp":10312,"Ġdevices":10313,"ĠBudd":10314,"ĠLabrad":10315,"ĠEdward":10316,"ĠGrey":10317,"ĠCaliforn":10318,"ĠCroatia":10319,"Ġomelette":10320,"ĠScand":10321,"Ġwarehouse":10322,"peas":10323,"Ġsalsa":10324,"Ġrats":10325,"Ġabst":10326,"oler":10327,"ĠCast":10328,"sored":10329,"soft":10330,"ĠMat":10331,"bek":10332,"been":10333,"ĠBad":10334,"need":10335,"ĠLib":10336,"Ġbrut":10337,"Ġtruffles":10338,"Ġtrigger":10339,"ĠWhen":10340,"Ġbanter":10341,"plus":10342,"Ġchucking":10343,"Ġlitter":10344,"Ġincreasing":10345,"Ġmonkeys":10346,"olkswagen":10347,"Ġrenew":10348,"Ġrefugees":10349,"Ġaubergine":10350,"Ġdatab":10351,"Tube":10352,"kow":10353,"kka":10354,"rous":10355,"ville":10356,"inty":10357,"Ġbrew":10358,"atar":10359,"Ġfeas":10360,"Ġfeast":10361,"stra":10362,"eness":10363,"itz":10364,"lains":10365,"Ġdozen":10366,"Ġchut":10367,"cep":10368,"mpire":10369,"Ġactively":10370,"igan":10371,"ĠCir":10372,"ĠCad":10373,"shut":10374,"Ġvintage":10375,"ĠHung":10376,"Ġpulls":10377,"issions":10378,"Ġrung":10379,"ubarb":10380,"Ġhormon":10381,"ocal":10382,"Ġgrandda":10383,"Ġjug":10384,"Ġmeets":10385,"Ġexposed":10386,"Ġinduction":10387,"Ġchickenpox":10388,"Ġedition":10389,"Ġshortly":10390,"Ġpostc":10391,"Ġrash":10392,"Ġjumpers":10393,"Ġboob":10394,"appy":10395,"Ġdetention":10396,"Ġinvolve":10397,"Ġbanking":10398,"ĠNotting":10399,"ringe":10400,"ĠArthur":10401,"Ġsucceed":10402,"ĠMonopoly":10403,"speaking":10404,"Ġsquares":10405,"ĠMcC":10406,"Ġantique":10407,"Ġcommittee":10408,"Ġreports":10409,"Ġrosemary":10410,"Ġmembership":10411,"Ġparsley":10412,"Ġconstruct":10413,"Ġradiator":10414,"ĠLancaster":10415,"ĠSimpsons":10416,"ĠApprentice":10417,"dro":10418,"hope":10419,"za":10420,"Ġtuck":10421,"Ġsang":10422,"incess":10423,"Ġsoph":10424,"Ġsoak":10425,"oray":10426,"Ġstove":10427,"Ġforum":10428,"Ġorient":10429,"Ġredo":10430,"Ġbak":10431,"Ġloses":10432,"Ġmac":10433,"Ġherbal":10434,"ĠSome":10435,"Ġtwos":10436,"Ġboing":10437,"ishing":10438,"Ġoverwhel":10439,"Ġclients":10440,"ĠFood":10441,"ĠGri":10442,"nect":10443,"necess":10444,"Ġacres":10445,"Ġacceler":10446,"ĠRom":10447,"ĠRock":10448,"taking":10449,"Ġamusing":10450,"ask":10451,"Ġdripping":10452,"Ġpasty":10453,"Ġelements":10454,"Ġcattle":10455,"ĠVien":10456,"Ġheated":10457,"Ġtexture":10458,"Ġinspir":10459,"Ġflame":10460,"Ġmixing":10461,"Ġhumanity":10462,"Ġspreading":10463,"Ġincludes":10464,"Ġdaren":10465,"Ġarrangements":10466,"Ġultra":10467,"Ġgraphics":10468,"Ġdedic":10469,"Ġchunks":10470,"ĠIntern":10471,"Ġtrek":10472,"ĠKrakow":10473,"Ġraisins":10474,"Ġcontroversial":10475,"Ġsustain":10476,"Ġsyndrome":10477,"ĠPhotoshop":10478,"Ġamp":10479,"eant":10480,"Ġdarts":10481,"Ġfuse":10482,"Ġpist":10483,"Ġster":10484,"ali":10485,"ĠMic":10486,"Ġpavement":10487,"ĠOCD":10488,"igned":10489,"apart":10490,"Ġfactors":10491,"Ġclassical":10492,"ĠState":10493,"Ġchilling":10494,"Ġcrumbs":10495,"Ġlifted":10496,"ĠAlzheimer":10497,"Ġinvested":10498,"Ġroasted":10499,"Ġhumid":10500,"Ġtweeted":10501,"ĠAtlant":10502,"Ġrecruitment":10503,"Ġresidential":10504,"Ġlactose":10505,"ĠSubway":10506,"ĠRepublic":10507,"ĠGatwick":10508,"ĠCalifornia":10509,"gling":10510,"je":10511,"ki":10512,"zbek":10513,"Ġwwhen":10514,"Ġsst":10515,"Ġhid":10516,"Ġcel":10517,"stream":10518,"Ġsacri":10519,"Ġbash":10520,"Ġlogs":10521,"Ġlogged":10522,"cases":10523,"making":10524,"ĠAw":10525,"ĠTit":10526,"ĠBlu":10527,"ĠPD":10528,"their":10529,"irect":10530,"Ġhopeless":10531,"Ġspecially":10532,"Ġlaughs":10533,"Ġwallpaper":10534,"Ġclimate":10535,"ĠCanad":10536,"Ġpromotion":10537,"Ġdivided":10538,"Ġsmiley":10539,"Ġterrorist":10540,"Ġorchest":10541,"interesting":10542,"respond":10543,"Ġhypoth":10544,"MA":10545,"dies":10546,"lucky":10547,"mith":10548,"oir":10549,"wl":10550,"Ġsons":10551,"erves":10552,"Ġhut":10553,"Ġpity":10554,"Ġlied":10555,"icip":10556,"etor":10557,"archy":10558,"Ġsections":10559,"Ġsacked":10560,"Ġbackup":10561,"Ġvotes":10562,"Ġguilt":10563,"perhaps":10564,"Ġnightclub":10565,"ĠJer":10566,"Ġperce":10567,"Ġgirly":10568,"Ġdrinker":10569,"Ġtruffle":10570,"Ġdepth":10571,"formed":10572,"ickens":10573,"Ġallows":10574,"Ġmusicians":10575,"Ġsentences":10576,"Ġfootage":10577,"Ġpains":10578,"Ġincon":10579,"Ġediting":10580,"Ġespress":10581,"Ġregiment":10582,"Ġassault":10583,"Ġraces":10584,"Ġsadly":10585,"Ġmeatballs":10586,"Ġcudd":10587,"Ġturb":10588,"Ġsprout":10589,"somebody":10590,"Ġmillionaire":10591,"Ġsnapped":10592,"laxy":10593,"Ġslipped":10594,"Ġdelivering":10595,"Ġscrews":10596,"Ġemployers":10597,"Ġmurdered":10598,"Ġgoogled":10599,"Ġlolz":10600,"ĠNext":10601,"Ġoutsour":10602,"Ġsealed":10603,"Ġparsnip":10604,"ĠThomas":10605,"Ġsparrows":10606,"ĠEarth":10607,"ĠAirbnb":10608,"Ġsubtitles":10609,"outhern":10610,"inson":10611,"nobody":10612,"Ġration":10613,"Ġdow":10614,"Ġnil":10615,"Ġanch":10616,"Ġdiaries":10617,"ĠCook":10618,"ĠCamp":10619,"ĠElizabeth":10620,"Ġguards":10621,"ĠFro":10622,"Ġweekly":10623,"Ġcarol":10624,"ango":10625,"Ġreads":10626,"Ġhardest":10627,"Ġbedtime":10628,"Ġhotter":10629,"Ġmasses":10630,"Ġexplains":10631,"Ġartistic":10632,"Ġvisits":10633,"ealthy":10634,"Ġlocally":10635,"atched":10636,"Ġinterviewing":10637,"ĠIsa":10638,"Ġquieter":10639,"Ġmentioning":10640,"Ġpoliceman":10641,"Ġfluff":10642,"ĠYouTube":10643,"Ġjourneys":10644,"Ġsuggestion":10645,"Ġpolitically":10646,"Ġinclined":10647,"Ġstruggled":10648,"Ġhyper":10649,"Ġexplos":10650,"Ġcrocod":10651,"Ġfashionable":10652,"Ġpropag":10653,"Ġapproached":10654,"Ġcopied":10655,"Ġlimits":10656,"ĠLucy":10657,"Ġfailure":10658,"seventy":10659,"Ġceremony":10660,"Ġdaffod":10661,"Ġske":10662,"Ġcord":10663,"Ġhaunt":10664,"Ġfare":10665,"ĠMoses":10666,"ĠTech":10667,"Ġpalace":10668,"Ġguinea":10669,"ĠGulf":10670,"ĠDu":10671,"Ġleaning":10672,"Ġaccep":10673,"Ġelim":10674,"Ġmarma":10675,"Ġgrandson":10676,"ĠVolkswagen":10677,"eighty":10678,"Ġrequired":10679,"Ġcottages":10680,"Ġsevere":10681,"Ġcombine":10682,"Ġtypically":10683,"couldn":10684,"Ġethics":10685,"Ġscientists":10686,"Ġassociated":10687,"Ġpiercing":10688,"Ġgraphic":10689,"Ġshrink":10690,"Ġlandscape":10691,"ĠCommun":10692,"vinj":10693,"Ġcollapsed":10694,"Ġshepherd":10695,"Ġclarinet":10696,"ĠPacific":10697,"ĠFlorence":10698,"BS":10699,"St":10700,"sight":10701,"Ġdonated":10702,"chang":10703,"Ġalter":10704,"show":10705,"Ġbob":10706,"ĠTinder":10707,"ĠFry":10708,"ĠDur":10709,"again":10710,"Ġlaser":10711,"Ġshits":10712,"ĠUh":10713,"Ġparticip":10714,"guard":10715,"Ġordering":10716,"Ġevolution":10717,"Ġbutterfly":10718,"Ġtoasted":10719,"Ġcouscous":10720,"Ġrowing":10721,"Ġpunct":10722,"Ġpunched":10723,"Ġcopying":10724,"Ġcivilised":10725,"Ġsardines":10726,"Ġabstract":10727,"ĠNottingham":10728,"bows":10729,"cla":10730,"different":10731,"fol":10732,"Ġaisle":10733,"Ġwri":10734,"Ġwolf":10735,"Ġyuck":10736,"inav":10737,"Ġbatch":10738,"Ġdirt":10739,"repre":10740,"Ġlame":10741,"Ġfog":10742,"Ġtoaster":10743,"Ġrou":10744,"Ġshamp":10745,"Ġanger":10746,"riers":10747,"Ġmaca":10748,"Ġbites":10749,"oline":10750,"mbles":10751,"Ġvicious":10752,"Ġremembers":10753,"ĠFiction":10754,"ĠFanta":10755,"ĠPra":10756,"ĠPug":10757,"ĠLE":10758,"Ġolds":10759,"ptic":10760,"Ġappet":10761,"iams":10762,"centric":10763,"byn":10764,"Ġskirts":10765,"Ġgrid":10766,"Ġtyres":10767,"berg":10768,"Ġcolouring":10769,"Ġraffle":10770,"Ġchatty":10771,"Ġnewspapers":10772,"Ġpissing":10773,"Ġrackets":10774,"backs":10775,"Ġsuggesting":10776,"Ġprovides":10777,"Ġvolcano":10778,"Ġnationality":10779,"Ġignorant":10780,"Ġbonkers":10781,"ĠDoctor":10782,"person":10783,"Ġgraduated":10784,"Ġfrustrated":10785,"Ġpermanently":10786,"Ġscooter":10787,"abyte":10788,"ĠTopshop":10789,"ĠSwedish":10790,"Ġvowel":10791,"Ġcrawling":10792,"Ġvariation":10793,"Ġpersuade":10794,"Ġburglar":10795,"ĠPowerpoint":10796,"Ġconclusion":10797,"ĠStephen":10798,"uscany":10799,"Ġchutney":10800,"Ġbakery":10801,"folio":10802,"reprene":10803,"uy":10804,"Ġiin":10805,"Ġdye":10806,"Ġpalm":10807,"Ġlips":10808,"Ġstool":10809,"Ġrede":10810,"Ġmast":10811,"ĠMand":10812,"ĠTories":10813,"Ġdementia":10814,"Ġmanner":10815,"ĠFight":10816,"Ġunnecess":10817,"ĠGard":10818,"ĠGall":10819,"ĠGran":10820,"Ġpayments":10821,"Ġemotions":10822,"Ġheaded":10823,"Ġguessed":10824,"Ġyoungsters":10825,"Ġgrena":10826,"Ġblacks":10827,"Ġpickled":10828,"Ġwindscreen":10829,"Ġbottoms":10830,"Ġelectro":10831,"Ġballoon":10832,"Ġinfra":10833,"Ġpackaging":10834,"Ġcounselling":10835,"Ġsupported":10836,"Ġportfolio":10837,"Ġironic":10838,"Ġdollar":10839,"worth":10840,"Ġchimney":10841,"Ġflooded":10842,"ĠUSB":10843,"Ġimagination":10844,"Ġshelter":10845,"Ġinjection":10846,"Ġgentleman":10847,"Ġcontainer":10848,"Ġnumer":10849,"Ġguaranteed":10850,"Ġturt":10851,"esar":10852,"Ġloaf":10853,"nah":10854,"urning":10855,"ĠMick":10856,"ĠTen":10857,"ĠTay":10858,"Ġpoke":10859,"ĠFox":10860,"estival":10861,"Ġcompass":10862,"Ġcharming":10863,"Ġnearby":10864,"Ġcorrespond":10865,"Ġsignature":10866,"Ġentreprene":10867,"Ġviewing":10868,"Ġcycled":10869,"ĠArgent":10870,"Ġpretended":10871,"Ġdivide":10872,"Ġcelebration":10873,"Ġpropos":10874,"Ġbasketball":10875,"Ġfoxes":10876,"Ġlandlords":10877,"Ġcasual":10878,"ĠSecret":10879,"Ġtorture":10880,"woah":10881,"Ġsubstantial":10882,"Ġmarmalade":10883,"han":10884,"mat":10885,"near":10886,"pist":10887,"Ġtins":10888,"Ġtho":10889,"Ġdum":10890,"Ġping":10891,"Ġstagger":10892,"oda":10893,"Ġintim":10894,"Ġease":10895,"type":10896,"ĠPulp":10897,"Ġslop":10898,"stein":10899,"Ġconflict":10900,"poss":10901,"Ġshares":10902,"Ġchestnuts":10903,"Ġtreating":10904,"ĠPrincess":10905,"ĠTele":10906,"Ġnavig":10907,"Ġtherapy":10908,"otherwise":10909,"ĠSnapchat":10910,"Ġextraordinary":10911,"Ġdevastated":10912,"Ġmuseums":10913,"Ġcelery":10914,"aff":10915,"col":10916,"lins":10917,"lots":10918,"rong":10919,"spe":10920,"Ġtel":10921,"Ġace":10922,"Ġauction":10923,"Ġwink":10924,"Ġsoups":10925,"Ġdated":10926,"Ġwagon":10927,"Ġsole":10928,"Ġgown":10929,"lab":10930,"Ġinh":10931,"etics":10932,"Ġnative":10933,"always":10934,"Ġsax":10935,"oded":10936,"Ġoutbreak":10937,"Ġmuffin":10938,"ader":10939,"Ġdialogue":10940,"icho":10941,"Ġintri":10942,"Ġfever":10943,"ĠBC":10944,"ĠPG":10945,"Ġpho":10946,"Ġcompon":10947,"Ġcompleted":10948,"lia":10949,"Ġperception":10950,"ĠRE":10951,"ordon":10952,"Ġhandsome":10953,"atherine":10954,"Ġfarming":10955,"Ġadvisor":10956,"Ġfreelance":10957,"Ġpassenger":10958,"Ġmessaging":10959,"Ġinvoice":10960,"Ġtribe":10961,"Ġbrake":10962,"ocolate":10963,"ocking":10964,"Ġinternship":10965,"Ġwarrant":10966,"Ġwriters":10967,"Ġcommunities":10968,"Ġcreates":10969,"Ġprocessed":10970,"Ġreligions":10971,"Ġfunds":10972,"Ġbasement":10973,"Ġrevol":10974,"Ġobjects":10975,"Ġcontroller":10976,"ĠCorbyn":10977,"Ġemotionally":10978,"Ġconditioning":10979,"Ġimmigrants":10980,"ĠDaniel":10981,"Ġchemicals":10982,"Ġdimens":10983,"Ġdinosaur":10984,"ĠSquare":10985,"ĠVikings":10986,"Ġconfirmation":10987,"Ġpunishment":10988,"Ġabandoned":10989,"Ġinconven":10990,"Ġshampoo":10991,"brea":10992,"vas":10993,"Ġaward":10994,"Ġtoss":10995,"Ġwhip":10996,"Ġshite":10997,"racy":10998,"Ġchunky":10999,"Ġmafia":11000,"ĠCr":11001,"Ġdeca":11002,"ĠBuda":11003,"ĠEmpire":11004,"Ġguid":11005,"Ġjogging":11006,"ĠNa":11007,"ĠJess":11008,"Ġperpet":11009,"ggers":11010,"Ġminded":11011,"ĠKid":11012,"Ġreporting":11013,"Ġaddiction":11014,"Ġgeneric":11015,"Ġfishy":11016,"Ġsquat":11017,"Ġposting":11018,"Ġtucked":11019,"Ġseparated":11020,"Ġchops":11021,"Ġfixing":11022,"Ġspawn":11023,"Ġviable":11024,"Ġtours":11025,"Ġrhubarb":11026,"Ġwheelchair":11027,"Ġmicrowa":11028,"ĠCarl":11029,"Ġincreased":11030,"Ġsponsored":11031,"ĠJustin":11032,"Ġelephants":11033,"Ġmeasuring":11034,"Ġinnocent":11035,"Ġacknowledge":11036,"Ġglitter":11037,"ĠPassover":11038,"Ġphysio":11039,"Ġarchaeology":11040,"Ġirrelevant":11041,"face":11042,"liest":11043,"Ġii":11044,"Ġslaugh":11045,"...":11046,"erk":11047,"Ġbou":11048,"Ġgim":11049,"Ġrival":11050,"thrit":11051,"Ġstal":11052,"Ġrechar":11053,"ĠArm":11054,"Ġvul":11055,"Ġmanic":11056,"Ġtales":11057,"Ġcomprom":11058,"ĠLi":11059,"ĠHal":11060,"Ġtens":11061,"cock":11062,"Ġdefine":11063,"Ġsurve":11064,"Ġcheesecake":11065,"Ġpresented":11066,"ĠRovinj":11067,"Ġthinner":11068,"Ġrivers":11069,"Ġmagazines":11070,"Ġultimate":11071,"ĠBrussels":11072,"Ġrequires":11073,"Ġsquirrels":11074,"ĠDarth":11075,"Ġoutdoors":11076,"Ġcontrast":11077,"Ġphenomen":11078,"ĠGeordie":11079,"ĠScandinav":11080,"ĠMicro":11081,"eighth":11082,"Ġtet":11083,"Ġhhe":11084,"Ġci":11085,"Ġff":11086,"start":11087,"Ġtipped":11088,"ĠMoodle":11089,"ĠTor":11090,"Ġoverc":11091,"ĠEmma":11092,"ĠFlash":11093,"ĠDeath":11094,"ĠRes":11095,"moon":11096,"Ġcater":11097,"Ġholder":11098,"ĠStan":11099,"Ġstickers":11100,"Ã©mon":11101,"Ġmouthful":11102,"Ġelectrician":11103,"bedroom":11104,"ĠPok":11105,"ĠArt":11106,"ĠArgos":11107,"Ġnetball":11108,"Ġindividuals":11109,"Ġscrewdri":11110,"Ġdecorate":11111,"ĠBrad":11112,"ĠCoronation":11113,"burg":11114,"Ġcontinuing":11115,"ĠMidlands":11116,"ĠVodaf":11117,"Ġintimid":11118,"FC":11119,"In":11120,"So":11121,"bled":11122,"kok":11123,"lery":11124,"nese":11125,"ola":11126,"uries":11127,"words":11128,"yr":11129,"Ġ1":11130,"Ġthigh":11131,"Ġththis":11132,"atical":11133,"Ġliar":11134,"Ġinn":11135,"isance":11136,"lemma":11137,"ĠeBay":11138,"Ġcoats":11139,"Ġnerve":11140,"Ġnarr":11141,"Ġstung":11142,"chers":11143,"Ġquilt":11144,"ohyd":11145,"Ġdilemma":11146,"Ġintoler":11147,"ĠTa":11148,"ifting":11149,"ĠBon":11150,"Ġoverla":11151,"Ġhub":11152,"ĠEver":11153,"ĠWood":11154,"Ġobst":11155,"ĠChamp":11156,"ĠNick":11157,"Ġmining":11158,"ogen":11159,"Ġhelmet":11160,"ĠKnight":11161,"Ġtroub":11162,"Ġlisted":11163,"Ġsurgeon":11164,"ĠVader":11165,"Ġbelieves":11166,"Ġfoil":11167,"Ġcolon":11168,"Ġstrang":11169,"Ġmeantime":11170,"Ġtaxes":11171,"Ġshortbread":11172,"lanes":11173,"excellent":11174,"Ġrents":11175,"Ġclubbing":11176,"Ġelected":11177,"ymes":11178,"Ġfurry":11179,"Ġsmokes":11180,"Ġprivacy":11181,"Ġdrawings":11182,"Ġthicker":11183,"Ġowl":11184,"Ġfundra":11185,"Ġtights":11186,"Ġglobe":11187,"Ġsearching":11188,"Ġantiques":11189,"Ġattracted":11190,"ĠBrownie":11191,"Ġjackets":11192,"Ġaiming":11193,"Ġundo":11194,"Ġtwisted":11195,"Ġinteraction":11196,"Ġcrawl":11197,"umberland":11198,"Ġsyllab":11199,"Ġvomit":11200,"Ġrifle":11201,"ĠService":11202,"Ġcitizen":11203,"ĠArabs":11204,"Ġeyel":11205,"rovnik":11206,"Ġsophistic":11207,"Ġintrigu":11208,"Th":11209,"beat":11210,"tom":11211,"Ġwwell":11212,"ĠIS":11213,"Ġhose":11214,"Ġburs":11215,"Ġdub":11216,"Ġgifts":11217,"orious":11218,"Ġrer":11219,"irls":11220,"Ġsector":11221,"Ġabilities":11222,"Ġnev":11223,"Ġtale":11224,"ĠSe":11225,"Ġplaced":11226,"ĠCE":11227,"ĠMi":11228,"Ġconj":11229,"ĠBet":11230,"ĠBear":11231,"Ġpoking":11232,"Ġmansion":11233,"ĠGen":11234,"ĠDark":11235,"ĠHind":11236,"Ġbride":11237,"ĠOz":11238,"Ġearrings":11239,"Ġswede":11240,"Ġcutlery":11241,"Ġrelations":11242,"Ġwines":11243,"Ġpossibilities":11244,"Ġvest":11245,"Ġquestioning":11246,"Ġkills":11247,"Ġflavoured":11248,"Ġbothering":11249,"Ġinfo":11250,"Ġcreature":11251,"Ġneighbourhood":11252,"Ġdesktop":11253,"Ġfreaky":11254,"Ġcarpets":11255,"Ġviolin":11256,"Ġconcentrating":11257,"Ġnests":11258,"Ġencouraged":11259,"Ġkilo":11260,"Ġassociation":11261,"black":11262,"Ġeccentric":11263,"Ġsparkly":11264,"Ġvehicles":11265,"Christ":11266,"Ġcomplaint":11267,"Ġvitamins":11268,"Ġcoincidence":11269,"ĠTEFL":11270,"Ġattendance":11271,"Ġisolated":11272,"Ġsneeze":11273,"Ġcounsellor":11274,"ĠMongolia":11275,"Ġscandal":11276,"CA":11277,"Like":11278,"long":11279,"mor":11280,"pies":11281,"Ġfen":11282,"iti":11283,"orer":11284,"Ġinsec":11285,"Ġnoun":11286,"cest":11287,"Ġthingies":11288,"mping":11289,"best":11290,"ĠTuscany":11291,"ĠErm":11292,"Ġweekday":11293,"Ġrotten":11294,"Ġelbow":11295,"Ġgrav":11296,"move":11297,"Ġbras":11298,"grand":11299,"aches":11300,"Ġedible":11301,"Ġattic":11302,"Ġzoom":11303,"ĠNorwegian":11304,"Ġinfant":11305,"ĠUKIP":11306,"Ġproviding":11307,"Ġpromised":11308,"Ġnutrit":11309,"Ġethical":11310,"Ġolives":11311,"Ġsurprisingly":11312,"Ġhorrific":11313,"Ġbelongs":11314,"Ġrusty":11315,"ĠHolmes":11316,"ĠConservative":11317,"Ġnugget":11318,"ĠJordan":11319,"ĠTechnic":11320,"ĠTaylor":11321,"gles":11322,"power":11323,"umption":11324,"Ġddo":11325,"stable":11326,"organ":11327,"uting":11328,"thought":11329,"oops":11330,"Ġrein":11331,"Ġbagu":11332,"imilar":11333,"elve":11334,"ĠSom":11335,"ĠMetro":11336,"bee":11337,"ĠTerry":11338,"Ġvary":11339,"ĠFam":11340,"Ġleak":11341,"ĠJak":11342,"Ġblast":11343,"Ġsecondly":11344,"ĠUzbek":11345,"Ġsweeth":11346,"Ġpenguin":11347,"ĠAndy":11348,"bbled":11349,"Ġspreadsheet":11350,"Ġplumber":11351,"Ġstretching":11352,"Ġchickpeas":11353,"Ġmanufacturing":11354,"Ġsuspicious":11355,"Ġwobbly":11356,"Ġbrutal":11357,"ĠCanadian":11358,"Ġorchestra":11359,"ĠPokÃ©mon":11360,"ĠVodafone":11361,"Ġbaguette":11362,"Ġsweetheart":11363,"''":11364,"aha":11365,"ben":11366,"fting":11367,"hire":11368,"iens":11369,"lea":11370,"overs":11371,"Ġache":11372,"eran":11373,"Ġitchy":11374,"Ġlodge":11375,"Ġthathat":11376,"enni":11377,"itative":11378,"lamic":11379,"Ġshark":11380,"opath":11381,"Ġbacked":11382,"Ġchart":11383,"Ġprosec":11384,"inee":11385,"maids":11386,"Ġdizzy":11387,"Ġbushes":11388,"ĠBol":11389,"Ġpackets":11390,"Ġmana":11391,"Ġmanip":11392,"ĠPik":11393,"asco":11394,"Ġmargin":11395,"Ġdefrost":11396,"iph":11397,"Ġnuisance":11398,"Ġdoorway":11399,"Ġbarrel":11400,"Ġruins":11401,"Ġrushing":11402,"Ġaccidents":11403,"Ġbusinessman":11404,"Ġmentality":11405,"Ġregional":11406,"ographic":11407,"obia":11408,"Ġillust":11409,"ĠIsle":11410,"Ġoptim":11411,"Ġsaucepan":11412,"Ġclay":11413,"Ġrouter":11414,"Ġexception":11415,"Ġowed":11416,"Ġexisted":11417,"liner":11418,"Ġdiscover":11419,"Ġcriteria":11420,"Ġcartoons":11421,"Ġlicense":11422,"ĠChristianity":11423,"Ġspont":11424,"Ġdetailed":11425,"Ġinjury":11426,"Ġmaintenance":11427,"Ġsatisfying":11428,"Ġobliged":11429,"Ġ24":11430,"Ġponytail":11431,"Ġestablished":11432,"ĠPatrick":11433,"judice":11434,"urdish":11435,"Ġvictim":11436,"ĠLabrador":11437,"Ġhormones":11438,"ĠPrague":11439,"burn":11440,"cat":11441,"count":11442,"Ġhym":11443,"Ġcens":11444,"Ġpears":11445,"Ġsoa":11446,"Ġrere":11447,"ights":11448,"Ġstem":11449,"Ġcann":11450,"imag":11451,"Ġsucked":11452,"Ġcanoe":11453,"Ġseeking":11454,"urgh":11455,"Ġheritage":11456,"elf":11457,"ĠSix":11458,"ĠSorry":11459,"asters":11460,"Ġdiab":11461,"Ġfacial":11462,"Ġneeding":11463,"ĠMeth":11464,"Ġeater":11465,"ĠTy":11466,"Ġpointy":11467,"Ġoverly":11468,"Ġlee":11469,"ĠPula":11470,"Ġhott":11471,"Ġleaking":11472,"Ġpuppet":11473,"Ġscholar":11474,"Ġblinking":11475,"Ġhippy":11476,"Ġslots":11477,"Ġlandline":11478,"Ġshoved":11479,"Ġdistribut":11480,"ĠIsis":11481,"Ġdetached":11482,"ĠIndones":11483,"Ġtumble":11484,"Ġbutterflies":11485,"Ġpsychiat":11486,"everybody":11487,"Ġcoaches":11488,"ĠDubrovnik":11489,"ĠBrothers":11490,"ĠLuke":11491,"Ġachievement":11492,"Ġashamed":11493,"Ġkittens":11494,"Ġsofas":11495,"Ġbingo":11496,"Ġinfected":11497,"Ġsacrif":11498,"ĠBudapest":11499,"depend":11500,"ige":11501,"uv":11502,"Ġau":11503,"Ġmes":11504,"Ġlining":11505,"Ġlions":11506,"Ġwag":11507,"Ġgoats":11508,"Ġrucks":11509,"edge":11510,"oof":11511,"Ġmeow":11512,"Ġmasks":11513,"Ġpeep":11514,"ĠTar":11515,"ifted":11516,"ĠBan":11517,"ĠPix":11518,"Ġphew":11519,"Ġcarbs":11520,"ĠDom":11521,"ĠLee":11522,"ago":11523,"ĠHeb":11524,"Ġwalnuts":11525,"ĠOld":11526,"Ġserial":11527,"Ġparrot":11528,"Ġcurren":11529,"Ġinsult":11530,"Ġthrows":11531,"Ġradical":11532,"Ġslaves":11533,"speak":11534,"Ġfreaking":11535,"ĠEastenders":11536,"ĠPalace":11537,"ĠBelfast":11538,"Ġelderflower":11539,"Ġanxious":11540,"Ġcorporate":11541,"Ġunhealthy":11542,"Ġcarbohyd":11543,"Ġcompulsory":11544,"ĠCadbury":11545,"Ġpropaganda":11546,"ĠMicrosoft":11547,"Ġrucksack":11548,"bus":11549,"cup":11550,"uma":11551,"ĠIkea":11552,"reens":11553,"Ġpiles":11554,"Ġerad":11555,"urts":11556,"ĠBey":11557,"omile":11558,"active":11559,"ĠLiz":11560,"aga":11561,"ĠJerry":11562,"ddie":11563,"Ġgrape":11564,"Ġheadphones":11565,"Ġclearer":11566,"Ġsurprises":11567,"ĠMarg":11568,"Ġpositions":11569,"normal":11570,"ĠCornish":11571,"Ġmulticol":11572,"Ġllike":11573,"fifteen":11574,"ĠBruges":11575,"Ġappearance":11576,"Ġsatisfact":11577,"Ġtechniques":11578,"Ġteaspoon":11579,"Ġacademics":11580,"ĠJamaican":11581,"instead":11582,"Ġdisposable":11583,"Ġcongratulations":11584,"Ġdatabase":11585,"bers":11586,"dling":11587,"rich":11588,"rary":11589,"ugs":11590,"Ġsis":11591,"Ġdd":11592,"rex":11593,"Ġpid":11594,"Ġpip":11595,"Ġpins":11596,"Ġsock":11597,"Ġwelf":11598,"Ġhalls":11599,"Ġongoing":11600,"ision":11601,"Ġuk":11602,"arin":11603,"Ġalley":11604,"Ġrevers":11605,"rams":11606,"Ġchoc":11607,"Ġspat":11608,"Ġarthrit":11609,"Ġoverh":11610,"ĠGet":11611,"ĠDickens":11612,"log":11613,"ĠLane":11614,"Ġfours":11615,"athan":11616,"aret":11617,"Ġbeings":11618,"Ġminers":11619,"ileys":11620,"ĠRS":11621,"orders":11622,"Ġlakes":11623,"Ġdrift":11624,"Ġfined":11625,"Ġmindset":11626,"phy":11627,"iband":11628,"rossman":11629,"Ġdoorstep":11630,"Ġjuggle":11631,"Ġgreet":11632,"Ġaddition":11633,"Ġdifficulties":11634,"Ġveggie":11635,"Ġparall":11636,"Ġexperiments":11637,"eltic":11638,"Ġstoryline":11639,"Ġmothers":11640,"Ġsunlight":11641,"Ġdeadline":11642,"ĠWednesdays":11643,"visions":11644,"Ġcommunal":11645,"ĠLeg":11646,"ĠZumba":11647,"Ġstatements":11648,"Ġprints":11649,"aneous":11650,"bourne":11651,"Ġproductive":11652,"egro":11653,"Ġnetworking":11654,"iency":11655,"Ġpoliticians":11656,"Ġsecretary":11657,"Ġcontinent":11658,"Ġmortar":11659,"Ġlambs":11660,"Ġexistence":11661,"Ġrhymes":11662,"Ġpurposes":11663,"Ġappreciated":11664,"Ġlitres":11665,"ĠBush":11666,"ĠPax":11667,"Ġfussed":11668,"Ġhoneymoon":11669,"Ġpeeling":11670,"lamation":11671,"Ġaspects":11672,"Ġnickname":11673,"igsaw":11674,"ĠCentral":11675,"Ġtraditionally":11676,"Ġsarca":11677,"Ġcyclist":11678,"ĠParty":11679,"Ġunpleasant":11680,"Ġallotment":11681,"ĠWonderland":11682,"Ġfeasible":11683,"Ġespresso":11684,"ennium":11685,"Ġwelfare":11686,"cross":11687,"vag":11688,"Ġdil":11689,"Ġgal":11690,"Ġgained":11691,"onies":11692,"Ġwhwhat":11693,"Ġdoh":11694,"odd":11695,"open":11696,"Ġabbey":11697,"mbl":11698,"Ġsplash":11699,"ĠSouthern":11700,"ĠCatherine":11701,"Ġfag":11702,"Ġworkout":11703,"Ġclown":11704,"ĠPi":11705,"Ġhobb":11706,"Ġhooray":11707,"ĠNaz":11708,"Ġmines":11709,"Ġappli":11710,"Ġblu":11711,"Ġmarch":11712,"Ġbeams":11713,"Ġgrated":11714,"Ġcharm":11715,"Ġtrays":11716,"Ġunderstands":11717,"Ġjumble":11718,"Ġroadworks":11719,"Ġblackbird":11720,"Ġdrained":11721,"Ġseaside":11722,"Ġbrakes":11723,"ĠStra":11724,"ĠSaturdays":11725,"Ġapartments":11726,"Ġpenises":11727,"paid":11728,"Ġresearching":11729,"aired":11730,"Ġdrying":11731,"Ġslave":11732,"Ġsolving":11733,"Ġpublicity":11734,"Ġkisses":11735,"Ġpigeons":11736,"Ġwireless":11737,"sala":11738,"Ġirritated":11739,"Ġnovels":11740,"Ġannounced":11741,"Ġremotely":11742,"Ġremaining":11743,"Ġinherited":11744,"Ġclinical":11745,"Ġtrendy":11746,"Ġelectronic":11747,"Ġpremium":11748,"Ġnegotiate":11749,"ĠMiliband":11750,"Ġdyna":11751,"Ġincorrect":11752,"ĠMethod":11753,"Che":11754,"FI":11755,"dep":11756,"hy":11757,"mus":11758,"Ġyup":11759,"eating":11760,"Ġmmy":11761,"Ġreind":11762,"ĠCru":11763,"Ġneedle":11764,"ĠBilly":11765,"ĠGrossman":11766,"ĠDiet":11767,"ĠWag":11768,"ĠHT":11769,"ĠHappy":11770,"ĠReally":11771,"Ġdiscon":11772,"Ġrealistically":11773,"ubby":11774,"Ġreserve":11775,"Ġfairs":11776,"ĠThree":11777,"anks":11778,"Ġblackcur":11779,"Ġhangover":11780,"Ġemplo":11781,"Ġbaths":11782,"Ġorgans":11783,"Ġrefre":11784,"Ġbillions":11785,"ĠDonald":11786,"Ġexploring":11787,"ĠGuy":11788,"Ġnursing":11789,"Ġsprayed":11790,"Ġdesperately":11791,"Ġmagnetic":11792,"Ġdumped":11793,"Ġfictional":11794,"Ġparcels":11795,"Ġrejected":11796,"Ġdeclare":11797,"bert":11798,"hel":11799,"mummy":11800,"nical":11801,"pus":11802,"wide":11803,"Ġthirsty":11804,"Ġwwhy":11805,"Ġlam":11806,"Ġcork":11807,"Ġfulf":11808,"Ġnib":11809,"ckers":11810,"eard":11811,"Ġmaple":11812,"essive":11813,"mba":11814,"Ġbuz":11815,"Ġclutch":11816,"Ġunlucky":11817,"Ġphases":11818,"Ġcaring":11819,"ĠGary":11820,"ĠDI":11821,"Ġtragic":11822,"Ġhips":11823,"Ġliterary":11824,"until":11825,"bums":11826,"Ġgymna":11827,"Ġcrystal":11828,"Ġurgent":11829,"Ġanticip":11830,"better":11831,"Ġsignificantly":11832,"ĠHeathrow":11833,"Ġkosher":11834,"Ġscrewdriver":11835,"TE":11836,"iwa":11837,"jÃ":11838,"njan":11839,"prus":11840,"uper":11841,"xual":11842,"Ġax":11843,"Ġale":11844,"Ġalar":11845,"Ġicy":11846,"Ġyy":11847,"Ġbree":11848,"nda":11849,"nos":11850,"Ġgag":11851,"Ġwaves":11852,"Ġsolic":11853,"Ġsober":11854,"utive":11855,"idh":11856,"Ġnnot":11857,"Ġniece":11858,"Ġforces":11859,"Ġangel":11860,"Ġsafer":11861,"Ġloyal":11862,"Ġalbums":11863,"reamed":11864,"mper":11865,"arta":11866,"elin":11867,"ĠSol":11868,"ĠCeltic":11869,"Ġbuggy":11870,"ĠAge":11871,"ĠBron":11872,"ĠBridge":11873,"Ġovers":11874,"ĠEggs":11875,"ĠFut":11876,"ĠPress":11877,"Ġunreal":11878,"ĠDow":11879,"ĠChrome":11880,"ĠNess":11881,"Ġaccomp":11882,"Ġappears":11883,"Ġwalnut":11884,"Ġbuyers":11885,"ggies":11886,"Ġdisk":11887,"Ġdisgu":11888,"Ġwaitress":11889,"Ġresort":11890,"doke":11891,"Ġgrounds":11892,"Ġexclamation":11893,"Ġinvitation":11894,"Ġwinds":11895,"Ġholds":11896,"Ġemailing":11897,"Ġcookery":11898,"Ġentered":11899,"Ġbehalf":11900,"Ġscam":11901,"Ġwarmed":11902,"Ġraising":11903,"Ġresearcher":11904,"Ġdoctorate":11905,"ĠLevel":11906,"Ġbanner":11907,"Ġsexist":11908,"Ġdoubles":11909,"ĠBarry":11910,"Ġsupportive":11911,"ĠSouthampton":11912,"Ġfleet":11913,"Ġburner":11914,"Ġdancer":11915,"Ġscratching":11916,"Ġscratched":11917,"ĠJohnson":11918,"ĠDoes":11919,"Ġmiracle":11920,"Ġpitched":11921,"Ġtranslated":11922,"Ġdecorations":11923,"Ġspirits":11924,"Ġeldest":11925,"Ġimagined":11926,"ĠBaileys":11927,"Ġannual":11928,"Ġreplacing":11929,"Ġweighed":11930,"ĠOlympic":11931,"huah":11932,"ovies":11933,"warf":11934,"ĠDragon":11935,"Ġengagement":11936,"Ġhonour":11937,"Ġbullying":11938,"ĠWinnie":11939,"Ġdiagnosed":11940,"Ġconsequences":11941,"ĠBangkok":11942,"ĠFactor":11943,"Ġliberal":11944,"ĠWetherspoons":11945,"Ġundergraduate":11946,"Ġsolicitor":11947,"equ":11948,"una":11949,"yl":11950,"Ġox":11951,"Ġmute":11952,"Ġlend":11953,"Ġfolks":11954,"stone":11955,"Ġlique":11956,"Ġweeds":11957,"Ġhav":11958,"Ġrah":11959,"Ġdoo":11960,"Ġshred":11961,"Ġcoles":11962,"Ġformer":11963,"Ġangels":11964,"Ġseg":11965,"Ġarena":11966,"Ġfrogs":11967,"Ġbury":11968,"ĠEddie":11969,"Ġbypass":11970,"Ġunex":11971,"dele":11972,"ĠDer":11973,"isters":11974,"ĠWilly":11975,"weed":11976,"dder":11977,"Ġbookmark":11978,"Ġbland":11979,"Ġcooler":11980,"Ġcardigan":11981,"Ġdecl":11982,"Ġwinding":11983,"Ġtermin":11984,"Ġbottled":11985,"Ġdependent":11986,"Ġsquish":11987,"unting":11988,"Ġrainy":11989,"Ġburea":11990,"Ġslag":11991,"Ġbullied":11992,"Ġsalads":11993,"Ġcredits":11994,"allenge":11995,"Ġverse":11996,"Ġgrub":11997,"Ġchristening":11998,"Ġapplications":11999,"Ġimagining":12000,"Ġpreparing":12001,"Ġwreck":12002,"whether":12003,"Ġfibre":12004,"ĠClark":12005,"Ġcircuit":12006,"Ġscroll":12007,"ĠStock":12008,"ĠFrozen":12009,"Ġaccepting":12010,"mblr":12011,"Ġcoleslaw":12012,"di":12013,"Ġastro":12014,"eage":12015,"nding":12016,"Ġgest":12017,"onto":12018,"Ġsew":12019,"quee":12020,"Ġmamm":12021,"ĠSus":12022,"ĠAlex":12023,"ĠMot":12024,"ĠBah":12025,"ieve":12026,"icker":12027,"ĠDomin":12028,"ĠWat":12029,"ĠChip":12030,"ĠNev":12031,"Ġlearner":12032,"Ġdesigning":12033,"Ġshallow":12034,"Ġwarran":12035,"Ġpracticing":12036,"ĠIslamic":12037,"ĠLeon":12038,"ĠLeice":12039,"Ġfraud":12040,"Ġteeny":12041,"Ġimproving":12042,"Ġrhetor":12043,"Ġsurvival":12044,"ĠDolly":12045,"Ġcroiss":12046,"Ġcombined":12047,"Ġsnoo":12048,"Ġvolunteering":12049,"Ġdestroying":12050,"Ġtranscribe":12051,"Ġregistration":12052,"Ġbouncing":12053,"Ġhooks":12054,"ĠCyprus":12055,"ĠBattle":12056,"Ġutterly":12057,"ique":12058,"play":12059,"zie":12060,"ĠIan":12061,"Ġdive":12062,"ani":12063,"etam":12064,"Ġdipl":12065,"ĠAg":12066,"ĠAli":12067,"ĠBack":12068,"Ġmightn":12069,"usky":12070,"Ġpuddle":12071,"Ġgrappa":12072,"phra":12073,"tenegro":12074,"udy":12075,"Ġhealthier":12076,"Ġwrapping":12077,"Ġpermit":12078,"Ġblocking":12079,"Ġdiscourse":12080,"Ġgingerbread":12081,"Ġignoring":12082,"Ġcroquet":12083,"Ġcheeks":12084,"Ġstrictly":12085,"aurs":12086,"lÃ©":12087,"rals":12088,"£o":12089,"¯ve":12090,"Ã¢":12091,"Ã§":12092,"Ã£o":12093,"Ã¯ve":12094,"eather":12095,"rek":12096,"Ġgerm":12097,"Ġfaded":12098,"Ġfringe":12099,"kens":12100,"eners":12101,"Ġwaffle":12102,"Ġros":12103,"Ġshattered":12104,"icial":12105,"Ġcog":12106,"Ġcoffin":12107,"roomed":12108,"Ġstates":12109,"Ġreass":12110,"Ġsala":12111,"raith":12112,"Ġrightly":12113,"Ġalert":12114,"ffield":12115,"ppe":12116,"unich":12117,"Ġtasks":12118,"Ġfroggy":12119,"Ġspies":12120,"uled":12121,"ĠMir":12122,"ĠTory":12123,"Ġpapri":12124,"ĠPay":12125,"ĠWraith":12126,"Ġteasing":12127,"ĠHello":12128,"Ġgrabbing":12129,"Ġscoring":12130,"Ġdisrupt":12131,"Ġmarker":12132,"Ġdefence":12133,"Ġhandful":12134,"Ġcontrad":12135,"ĠKin":12136,"ĠKurdish":12137,"Ġrecliner":12138,"Ġtyped":12139,"iza":12140,"Ġbreakdown":12141,"Ġexport":12142,"Ġexperts":12143,"Ġflatmates":12144,"Ġfloating":12145,"Ġpostage":12146,"ĠnaÃ¯ve":12147,"ilton":12148,"except":12149,"Ġretweet":12150,"Ġmixer":12151,"emic":12152,"Ġtended":12153,"Ġrespite":12154,"bourg":12155,"Ġcontrols":12156,"Ġadvise":12157,"Ġportions":12158,"Ġconcerns":12159,"Ġclimbed":12160,"Ġimmature":12161,"Ġwoolly":12162,"Ġhunter":12163,"super":12164,"Ġstamps":12165,"Ġadventures":12166,"Ġrequirements":12167,"cracy":12168,"Ġhorrified":12169,"Ġterraced":12170,"Ġmotivated":12171,"Ġfeta":12172,"Ġmethods":12173,"Ġhammered":12174,"Ġrebate":12175,"Ġtherapist":12176,"Ġgranted":12177,"Ġbabysitting":12178,"Ġgeek":12179,"Ġreservoir":12180,"Ġemphasis":12181,"Ġbacteria":12182,"ĠTaiwan":12183,"Ġanchovies":12184,"Ġvulner":12185,"Ġsophisticated":12186,"Ġarthritis":12187,"Ġsarcastic":12188,"core":12189,"Ġicon":12190,"erally":12191,"Ġcerv":12192,"Ġfatter":12193,"Ġpads":12194,"utiful":12195,"around":12196,"Ġnn":12197,"Ġmasala":12198,"abor":12199,"Ġspill":12200,"ĠSil":12201,"ĠCom":12202,"Ġboar":12203,"ĠAdele":12204,"ĠTurn":12205,"ĠBrid":12206,"Ġoverhead":12207,"ĠGordon":12208,"weird":12209,"ĠNando":12210,"Ġkeeper":12211,"Ġlamps":12212,"Ġresent":12213,"Ġswine":12214,"Ġwatering":12215,"Ġskim":12216,"Ġnumb":12217,"Ġcutter":12218,"ĠUnder":12219,"Ġexplo":12220,"Ġexcite":12221,"Ġmisses":12222,"Ġcollabor":12223,"Ġvet":12224,"Ġparade":12225,"atively":12226,"Ġsqueak":12227,"Ġpostgra":12228,"Ġrental":12229,"Ġcommunist":12230,"ĠFrancis":12231,"ĠTumblr":12232,"Ġsolved":12233,"Ġcondu":12234,"Ġlayout":12235,"ĠMorgan":12236,"aux":12237,"mesan":12238,"ĠBull":12239,"Ġprotective":12240,"ĠExpl":12241,"Ġcontrolling":12242,"Ġmarrying":12243,"Ġnovelty":12244,"Ġappealing":12245,"Ġexpertise":12246,"Ġfrequency":12247,"Ġinstalled":12248,"Ġcrafts":12249,"ĠLancashire":12250,"ĠCountry":12251,"Ġstainless":12252,"ĠBoris":12253,"Ġgreedy":12254,"Ġkayaking":12255,"Ġdyslex":12256,"Ġunnecessary":12257,"ĠJakarta":12258,"ĠPikachu":12259,"Ġdiabetic":12260,"ĠIndonesia":12261,"Eng":12262,"God":12263,"ikes":12264,"rin":12265,"school":12266,"aty":12267,"nded":12268,"rett":12269,"Ġling":12270,"nom":12271,"Ġtoll":12272,"Ġrant":12273,"Ġdos":12274,"inky":12275,"caster":12276,"rease":12277,"mpus":12278,"olo":12279,"ĠCivil":12280,"ĠCzech":12281,"ĠMunich":12282,"Ġprecious":12283,"Ġsip":12284,"ĠEnd":12285,"ĠWii":12286,"pected":12287,"Ġdescend":12288,"Ġinvis":12289,"Ġbreadcru":12290,"Ġmeditation":12291,"Ġslowing":12292,"Ġremark":12293,"Ġpetite":12294,"Ġstripped":12295,"Ġimmune":12296,"ĠMont":12297,"Ġplums":12298,"supp":12299,"ĠSheffield":12300,"Ġcapture":12301,"Ġcalculate":12302,"minded":12303,"trying":12304,"Ġlemons":12305,"Ġcrumpets":12306,"Ġintellectual":12307,"Ġceilidh":12308,"ĠDurham":12309,"Ġcurrency":12310,"ĠLeicester":12311,"bless":12312,"woo":12313,"none":12314,"itual":12315,"Ġhan":12316,"irting":12317,"Ġreset":12318,"Ġquotes":12319,"urry":12320,"Ġtikka":12321,"ĠCI":12322,"ĠMickey":12323,"ĠGro":12324,"ĠWords":12325,"Ġcouch":12326,"Ġjoints":12327,"Ġplumb":12328,"ĠKill":12329,"both":12330,"Ġbreads":12331,"Ġdescript":12332,"Ġpinch":12333,"Ġalal":12334,"Ġsources":12335,"Ġmelon":12336,"Ġdaffodils":12337,"Do":12338,"aca":12339,"bane":12340,"eys":12341,"loo":12342,"oqu":12343,"rations":12344,"vation":12345,"zet":12346,"Ġtents":12347,"Ġhind":12348,"Ġdense":12349,"Ġlark":12350,"Ġglu":12351,"Ġgears":12352,"kel":12353,"station":12354,"Ġray":12355,"Ġdots":12356,"ett":12357,"Ġnets":12358,"Ġsometh":12359,"Ġnegle":12360,"raine":12361,"Ġchalk":12362,"Ġoutstanding":12363,"Ġsuited":12364,"Ġmanoe":12365,"Ġmugs":12366,"urous":12367,"ilation":12368,"mpson":12369,"Ġfroze":12370,"ĠSee":12371,"Ġdiarr":12372,"ichiwa":12373,"ouses":12374,"Ġfac":12375,"Ġintended":12376,"ĠMaybe":12377,"ifer":12378,"Ġclicking":12379,"ĠFA":12380,"ĠPA":12381,"them":12382,"Ġobsc":12383,"agus":12384,"ĠRiver":12385,"ĠRAF":12386,"Ġfewer":12387,"Ġhandwriting":12388,"Ġwaiter":12389,"Ġswir":12390,"Ġfreelan":12391,"Ġimplic":12392,"upuy":12393,"Ġclassed":12394,"Ġrestru":12395,"Ġstandby":12396,"achel":12397,"Ġsugary":12398,"Ġpostal":12399,"Ġregards":12400,"Ġfavours":12401,"Ġsunbath":12402,"Ġreckoned":12403,"Ġsubtle":12404,"minster":12405,"Ġfires":12406,"Ġturret":12407,"Ġsprings":12408,"Ġfootballers":12409,"Ġinvolves":12410,"Ġcynical":12411,"Ġclapping":12412,"Ġsubjective":12413,"hoea":12414,"Ġdances":12415,"Ġconcerts":12416,"Ġdebts":12417,"auge":12418,"Ġbonnet":12419,"Ġavoiding":12420,"amama":12421,"Ġrespects":12422,"Ġqueuing":12423,"borne":12424,"Ġcreoles":12425,"Ġpredomin":12426,"ĠITV":12427,"Ġannounce":12428,"Ġresponded":12429,"Ġimmigrant":12430,"Ġheavier":12431,"Ġsequence":12432,"Ġdolphin":12433,"Ġattemp":12434,"Ġhealing":12435,"Ġadmire":12436,"ĠThompson":12437,"Ġdinosaurs":12438,"Ġstitches":12439,"Ġprefers":12440,"antomime":12441,"ĠRyanair":12442,"Ġmetaphor":12443,"Ġweapons":12444,"Ġadorable":12445,"hopefully":12446,"ĠRomans":12447,"ĠPGCE":12448,"Ġcompromise":12449,"Ġpaprika":12450,"Ġmanoeuv":12451,"Be":12452,"class":12453,"wife":12454,"Ġtto":12455,"Ġbible":12456,"Ġgaz":12457,"Ġinput":12458,"Ġrode":12459,"Ġstap":12460,"chef":12461,"Ġbail":12462,"Ġmozz":12463,"Ġaloe":12464,"ĠSur":12465,"ĠSÃ£o":12466,"Ġdial":12467,"ĠCry":12468,"ĠTK":12469,"ĠBart":12470,"Ġcarers":12471,"ĠLag":12472,"Ġpussy":12473,"Ġhiking":12474,"Ġbron":12475,"Ġmarquee":12476,"Ġrescu":12477,"Ġliteracy":12478,"Ġextrem":12479,"Ġstret":12480,"Ġforeigner":12481,"Ġlegis":12482,"Ġflooring":12483,"Ġboost":12484,"minute":12485,"Ġrubbed":12486,"Ġchats":12487,"Ġpresenting":12488,"ĠMarvel":12489,"Ġagreeing":12490,"Ġshakes":12491,"ĠZe":12492,"Ġcrucial":12493,"Ġgovernments":12494,"ĠAngel":12495,"Ġclaiming":12496,"ĠGoggle":12497,"Ġenvironmental":12498,"Ġdecoration":12499,"Ġbeards":12500,"seriously":12501,"Ġsuffering":12502,"Ġgrocer":12503,"Ġjellyfish":12504,"Ġboundaries":12505,"Ġvirtual":12506,"Ġpeanuts":12507,"ĠDorset":12508,"Ġsamples":12509,"Ġtissues":12510,"Ġzombie":12511,"Ġberries":12512,"ĠChihuah":12513,"Ġaeroplanes":12514,"Ġsodium":12515,"ĠDylan":12516,"Ġreliable":12517,"Ġassignments":12518,"Ġhedgehog":12519,"ĠLady":12520,"Ġmacaroni":12521,"Ġfranchise":12522,"Ġoranges":12523,"ĠAtlantic":12524,"Ġcrocodile":12525,"Ġhottest":12526,"Ġwarranty":12527,"Mr":12528,"They":12529,"dr":12530,"fo":12531,"ju":12532,"tr":12533,"Ġlag":12534,"Ġfoo":12535,"Ġfian":12536,"Ġnostal":12537,"esc":12538,"Ġinland":12539,"Ġinev":12540,"Ġdoc":12541,"Ġwhatsit":12542,"Ġstarling":12543,"Ġmulled":12544,"Ġexac":12545,"eling":12546,"ĠMD":12547,"ĠTer":12548,"ĠBB":12549,"ĠFif":12550,"ĠPS":12551,"ĠPink":12552,"ĠWild":12553,"loc":12554,"Ġdribbling":12555,"Ġsecrets":12556,"ĠKron":12557,"door":12558,"gets":12559,"Ġbaron":12560,"Ġtonic":12561,"Ġsuperv":12562,"Ġretain":12563,"Ġaffordable":12564,"Ġgeese":12565,"Ġmortg":12566,"Ġaccessible":12567,"such":12568,"Ġauthorities":12569,"Ġromance":12570,"Ġgypsy":12571,"Ġquarantine":12572,"Ġpatches":12573,"Ġsubsid":12574,"Ġscrub":12575,"Ġutility":12576,"ĠSimpson":12577,"Ġpestle":12578,"Ġinsulting":12579,"Ġelastic":12580,"Ġobservation":12581,"ĠBarclays":12582,"ĠOscar":12583,"Ġarrogant":12584,"Ġpistach":12585,"ĠMargaret":12586,"ĠWagamama":12587,"cill":12588,"pipe":12589,"Ġze":12590,"Ġaux":12591,"Ġmunch":12592,"Ġmerry":12593,"Ġpantomime":12594,"orse":12595,"irs":12596,"olves":12597,"ĠMade":12598,"ĠBird":12599,"ĠBee":12600,"Ġmanners":12601,"ĠET":12602,"Ġcarer":12603,"ĠWalking":12604,"ĠLind":12605,"Ġacorn":12606,"Ġmanageable":12607,"Ġtransition":12608,"Ġkitchens":12609,"Ġpackages":12610,"Ġestuary":12611,"Ġlibraries":12612,"Ġhideous":12613,"ĠPeterborough":12614,"Ġchewed":12615,"ĠRobert":12616,"ĠRomania":12617,"abytes":12618,"ĠGreggs":12619,"ĠHoliday":12620,"Ġprecisely":12621,"Ġthyme":12622,"Ġchainsaw":12623,"Ġpedestrian":12624,"Ġsiblings":12625,"VA":12626,"cus":12627,"fty":12628,"iuse":12629,"jay":12630,"mod":12631,"vid":12632,"yre":12633,"ziness":12634,"Ġwifi":12635,"Ġoats":12636,"eaux":12637,"Ġhhow":12638,"atable":12639,"Ġdwarf":12640,"Ġmous":12641,"Ġgauge":12642,"Ġfiddle":12643,"Ġpoured":12644,"Ġsocket":12645,"Ġbec":12646,"Ġbetting":12647,"Ġrated":12648,"Ġkits":12649,"Ġshook":12650,"icorn":12651,"Ġheel":12652,"entic":12653,"Ġsamos":12654,"odor":12655,"Ġbabes":12656,"rait":12657,"Ġmeg":12658,"illion":12659,"Ġaliens":12660,"nament":12661,"naise":12662,"ppings":12663,"Ġmas":12664,"Ġmammy":12665,"Ġquad":12666,"Ġgoods":12667,"advant":12668,"Ġbacking":12669,"ĠCro":12670,"ĠCow":12671,"Ġdowns":12672,"Ġvans":12673,"Ġovertake":12674,"Ġclowns":12675,"Ġmayor":12676,"Ġguided":12677,"ĠPil":12678,"ĠPooh":12679,"Ġbets":12680,"Ġunis":12681,"ĠWil":12682,"ĠLaw":12683,"ilda":12684,"Ġtram":12685,"Ġtrash":12686,"Ġtrainee":12687,"liers":12688,"ĠJob":12689,"Ġdisadvant":12690,"Ġtrucks":12691,"ĠUg":12692,"ĠVer":12693,"Ġbracket":12694,"Ġarticho":12695,"Ġmainstream":12696,"Ġflask":12697,"Ġdealt":12698,"Ġpanicked":12699,"Ġextravag":12700,"Ġemper":12701,"Ġrains":12702,"Ġpractised":12703,"ounces":12704,"Ġbowel":12705,"Ġclaimed":12706,"Ġcleverer":12707,"Ġstrikes":12708,"Ġdescribing":12709,"Ġsupports":12710,"risbane":12711,"Ġoccasional":12712,"Ġbeneficial":12713,"ĠMoss":12714,"Ġportray":12715,"Ġroasting":12716,"Ġscenery":12717,"Ġhyster":12718,"assy":12719,"Ġbridges":12720,"Ġindividually":12721,"iddles":12722,"Ġqualify":12723,"Ġpeaches":12724,"Ġauthentic":12725,"Ġcreep":12726,"Ġmirrors":12727,"Ġpronounced":12728,"ĠSyrian":12729,"Ġwandered":12730,"ĠLost":12731,"Ġstirring":12732,"Ġuniforms":12733,"ĠiPhones":12734,"Ġcontinued":12735,"ĠEmily":12736,"Ġbubbly":12737,"saying":12738,"ĠFinnish":12739,"Ġselected":12740,"Ġexpressions":12741,"Ġcamomile":12742,"Ġrestrictions":12743,"Ġtreadmill":12744,"Ġbalanced":12745,"ĠInsurance":12746,"Ġprocedure":12747,"Ġrehearsals":12748,"possibly":12749,"Ġsyllabus":12750,"Ġvulnerable":12751,"auxhall":12752,"Ġdiarrhoea":12753,"As":12754,"oi":12755,"since":12756,"Ġthunderst":12757,"Ġoth":12758,"Ġhooked":12759,"Ġlor":12760,"Ġritual":12761,"Ġshining":12762,"Ġjaw":12763,"chicken":12764,"Ġsomewhat":12765,"ira":12766,"Ġbaker":12767,"Ġlolly":12768,"quar":12769,"therap":12770,"Ġtagged":12771,"Ġuser":12772,"ĠCle":12773,"ĠCour":12774,"whose":12775,"ĠBreak":12776,"ĠBrisbane":12777,"ĠPho":12778,"Ġunemployed":12779,"Ġplough":12780,"ĠNig":12781,"Ġscreens":12782,"ĠRon":12783,"ĠRail":12784,"Ġpasties":12785,"Ġhighway":12786,"Ġbarra":12787,"Ġexcuses":12788,"Ġcolumn":12789,"Ġbiased":12790,"Ġinsured":12791,"Ġvisible":12792,"Ġwarned":12793,"fourteen":12794,"Ġfills":12795,"ĠComp":12796,"Ġwoodland":12797,"Ġchatted":12798,"Ġsauna":12799,"Ġpricey":12800,"ĠScots":12801,"Ġeyesight":12802,"Ġcatches":12803,"ĠAustralians":12804,"Ġdiscussions":12805,"Ġtravels":12806,"Ġcloses":12807,"Ġgrip":12808,"ĠAnge":12809,"Ġtrouser":12810,"ĠBuild":12811,"Ġhostels":12812,"Ġbehaving":12813,"Ġantid":12814,"Ġchooses":12815,"ĠDublin":12816,"ĠGPs":12817,"Ġcheeses":12818,"Ġterrorists":12819,"Ġrelying":12820,"Ġleadership":12821,"Ġinsisted":12822,"Ġwrecked":12823,"Ġstereotype":12824,"Ġevolved":12825,"ĠTiger":12826,"ĠDamon":12827,"Ġcomprehensive":12828,"Ġcontempor":12829,"Ġinheritance":12830,"ĠInternational":12831,"Ġsteril":12832,"Ġgrenade":12833,"Ġsoaked":12834,"Ġbureauc":12835,"ĠExplorer":12836,"ĠGogglebox":12837,"bin":12838,"del":12839,"fen":12840,"rr":12841,"Ġmit":12842,"Ġfries":12843,"stuff":12844,"Ġliz":12845,"Ġsoaking":12846,"Ġramp":12847,"Ġwithdra":12848,"opy":12849,"Ġmeh":12850,"Ġcher":12851,"came":12852,"called":12853,"Ġquack":12854,"Ġcared":12855,"Ġspor":12856,"ĠSage":12857,"ĠSoph":12858,"ĠSlim":12859,"ĠCumb":12860,"wha":12861,"ĠAth":12862,"ĠAny":12863,"Ġdelay":12864,"Ġpolar":12865,"ĠEll":12866,"ĠGates":12867,"ĠLut":12868,"Ġacou":12869,"mole":12870,"Ġreserved":12871,"ĠKar":12872,"Ġsurreal":12873,"Ġmomentum":12874,"Ġmileage":12875,"Ġcosting":12876,"Ġarticulate":12877,"ieties":12878,"month":12879,"Ġaffairs":12880,"Ġmilksh":12881,"ĠMario":12882,"built":12883,"grounds":12884,"group":12885,"Ġloading":12886,"essional":12887,"Ġinflation":12888,"prof":12889,"Ġcryst":12890,"Ġmadness":12891,"Ġgeograph":12892,"Ġpersonalities":12893,"Ġinvesting":12894,"seeing":12895,"Ġpsycho":12896,"ĠJackie":12897,"Ġdownloading":12898,"ĠMontenegro":12899,"Ġflexibility":12900,"Ġsmoothie":12901,"Ġwhipped":12902,"Ġpesto":12903,"Ġpixie":12904,"Ġwhistle":12905,"ĠIbiza":12906,"nological":12907,"Ġtraumatic":12908,"Ġgimme":12909,"Ġphenomenal":12910,"ĠFamily":12911,"ĠKronen":12912,"HD":12913,"pants":12914,"Ġaa":12915,"ooby":12916,"ctive":12917,"rive":12918,"cap":12919,"Ġsup":12920,"urf":12921,"ĠSir":12922,"ĠSab":12923,"ĠCoo":12924,"shi":12925,"ĠMI":12926,"ĠBern":12927,"ĠGrant":12928,"Ġplon":12929,"ĠHay":12930,"ddled":12931,"ĠRice":12932,"Ġdisgra":12933,"ensit":12934,"ridges":12935,"Ġfancies":12936,"Ġmedal":12937,"bringing":12938,"poor":12939,"Ġcreativity":12940,"Ġfraction":12941,"flakes":12942,"Ġmosquito":12943,"Ġdemocracy":12944,"ĠJonathan":12945,"Ġauxili":12946,"brough":12947,"ciously":12948,"dale":12949,"otto":12950,"wi":12951,"woman":12952,"zers":12953,"inse":12954,"inity":12955,"Ġbinding":12956,"Ġgno":12957,"Ġgon":12958,"Ġgates":12959,"Ġglam":12960,"Ġnosy":12961,"Ġgoi":12962,"ori":12963,"Ġrational":12964,"Ġropes":12965,"Ġdock":12966,"Ġkings":12967,"Ġkale":12968,"throp":12969,"Ġships":12970,"icies":12971,"Ġjus":12972,"Ġjew":12973,"eties":12974,"irth":12975,"opper":12976,"Ġrese":12977,"rior":12978,"rians":12979,"Ġbac":12980,"Ġanyways":12981,"immer":12982,"Ġsund":12983,"Ġmains":12984,"Ġquir":12985,"mmies":12986,"Ġproxy":12987,"ilight":12988,"ado":12989,"abi":12990,"elines":12991,"Ġplague":12992,"ĠCap":12993,"ĠCav":12994,"osexual":12995,"Ġintro":12996,"Ġintensive":12997,"Ġdownside":12998,"beth":12999,"ĠTower":13000,"orec":13001,"Ġcones":13002,"ĠPep":13003,"ĠDol":13004,"ĠDales":13005,"athers":13006,"Ġbadges":13007,"Ġgrace":13008,"feed":13009,"ĠRings":13010,"Ġblade":13011,"Ġblazer":13012,"icted":13013,"Ġearnt":13014,"ubile":13015,"ogram":13016,"Ġhandbra":13017,"Ġslur":13018,"ĠKFC":13019,"Ġswept":13020,"ronic":13021,"Ġfairies":13022,"acetam":13023,"Ġcommand":13024,"Ġfactories":13025,"Ġcorners":13026,"gover":13027,"Ġtrials":13028,"Ġterr":13029,"Ġpolicies":13030,"Ġstranger":13031,"Ġtextbook":13032,"Ġprim":13033,"ĠStone":13034,"ĠStory":13035,"Ġposts":13036,"Ġmoder":13037,"ĠCold":13038,"Ġdistant":13039,"eatre":13040,"airo":13041,"Ġprivat":13042,"Ġpreference":13043,"Ġlargest":13044,"Ġversa":13045,"ĠTwenty":13046,"Ġyellows":13047,"Ġchairman":13048,"Ġdirectors":13049,"ĠShop":13050,"Ġstrips":13051,"Ġdesigns":13052,"Ġestimate":13053,"Ġoperations":13054,"Ġrecognize":13055,"Ġdeeply":13056,"Ġsuggests":13057,"Ġmagical":13058,"Ġloos":13059,"ĠItalians":13060,"Ġcastles":13061,"Ġidiom":13062,"Ġowt":13063,"Ġresponsibilities":13064,"Ġironically":13065,"engers":13066,"Ġrailways":13067,"Ġharbour":13068,"ĠBuzet":13069,"Ġreceiving":13070,"Ġfolders":13071,"Ġdemol":13072,"Ġtunes":13073,"Ġreported":13074,"Ġflipped":13075,"Ġpedal":13076,"Ġbroadcast":13077,"Ġpyram":13078,"Ġlifting":13079,"Ġpeeler":13080,"Ġraped":13081,"Ġmeasurements":13082,"oleon":13083,"Ġliner":13084,"ĠLamb":13085,"Ġremains":13086,"Ġfunctional":13087,"Ġquantity":13088,"Ġblended":13089,"Ġadopted":13090,"Ġhighlights":13091,"ĠPaulo":13092,"Ġsurrounded":13093,"Ġlentils":13094,"Ġdemonstrate":13095,"Ġsleeve":13096,"rasound":13097,"ĠGalaxy":13098,"Ġmonopoly":13099,"Ġexcluded":13100,"Ġrevealed":13101,"Ġinterpretation":13102,"Ġcyclists":13103,"ĠMaxx":13104,"ĠElvis":13105,"ĠCCG":13106,"Ġmutual":13107,"Ġcandidates":13108,"ĠTrump":13109,"Ġterritory":13110,"stanbul":13111,"Ġmuffins":13112,"Ġbridesmaid":13113,"Ġdedicated":13114,"Ġsaxophone":13115,"Ġparallel":13116,"ĠLegacy":13117,"Ġdiplom":13118,"Ã¢t":13119,"Ġlorries":13120,"acetamol":13121,"He":13122,"cr":13123,"rint":13124,"Ġsed":13125,"Ġbats":13126,"Ġdodge":13127,"Ġsheds":13128,"Ġnig":13129,"Ġsheer":13130,"chet":13131,"irteen":13132,"Ġallergy":13133,"riages":13134,"illi":13135,"Ġanyth":13136,"Ġtwitch":13137,"Ġpromo":13138,"Ġbackside":13139,"Ġprobab":13140,"otal":13141,"ĠAv":13142,"Ġdebit":13143,"omen":13144,"Ġahh":13145,"Ġguides":13146,"ĠForm":13147,"ĠPorec":13148,"Ġcomposition":13149,"ĠDj":13150,"Ġpartying":13151,"Ġsuppliers":13152,"eads":13153,"ĠHy":13154,"Ġblunt":13155,"Ġscope":13156,"Ġtrump":13157,"Ġbeats":13158,"ĠKate":13159,"Ġserum":13160,"Ġsevens":13161,"Ġfiling":13162,"Ġcrashing":13163,"Ġsmack":13164,"Ġpassengers":13165,"Ġresting":13166,"ĠVauxhall":13167,"Ġrepet":13168,"Ġreluct":13169,"Ġinstitution":13170,"Ġtrim":13171,"Ġindicate":13172,"ĠSpring":13173,"Ġtills":13174,"Ġedited":13175,"Ġagenda":13176,"Ġsqua":13177,"Ġconfuse":13178,"Ġtonnes":13179,"Ġmenus":13180,"Ġrape":13181,"Ġblob":13182,"Ġcrosses":13183,"Ġvaries":13184,"Ġclap":13185,"Ġstripy":13186,"Ġepic":13187,"Ġbruise":13188,"Ġowes":13189,"Ġtrades":13190,"Ġbrands":13191,"Ġscraping":13192,"Ġclocks":13193,"ĠLegoland":13194,"Ġfreaks":13195,"Ġanalysing":13196,"Ġmoody":13197,"ĠHoward":13198,"Ġcontribution":13199,"Ġhorribly":13200,"ĠHammer":13201,"ĠDennis":13202,"Ġspectrum":13203,"Ġminority":13204,"Ġcomplaints":13205,"Ġbreeding":13206,"Ġtatty":13207,"Ġmoistur":13208,"Ġprescription":13209,"Ġovarian":13210,"Ġoctopus":13211,"ĠRhodes":13212,"Ġretarded":13213,"Ġfiddling":13214,"Ġnominated":13215,"Ġbolognese":13216,"Ġtheoretically":13217,"Ġcompensation":13218,"Ġpatronising":13219,"Ġinspiration":13220,"Ġturtle":13221,"Ġhobbies":13222,"Ġrefreshing":13223,"Ġbreadcrumbs":13224,"ĠCrystal":13225,"bie":13226,"gains":13227,"Ġtul":13228,"Ġthethey":13229,"Ġbicar":13230,"rep":13231,"Ġlager":13232,"Ġfff":13233,"Ġply":13234,"esis":13235,"Ġbef":13236,"Ġrave":13237,"Ġrinse":13238,"Ġsharks":13239,"Ġnotic":13240,"race":13241,"Ġmoor":13242,"cale":13243,"Ġcaffe":13244,"ĠSad":13245,"ĠSmo":13246,"ĠAudi":13247,"Ġmayo":13248,"ĠGry":13249,"Ġwonky":13250,"ĠHill":13251,"Ġgrain":13252,"Ġperse":13253,"ĠRod":13254,"ĠReg":13255,"Ġlava":13256,"Ġrunners":13257,"Ġmats":13258,"Ġcardio":13259,"Ġeggy":13260,"print":13261,"ĠCoast":13262,"Ġpresenter":13263,"Ġdeter":13264,"Ġinfla":13265,"Ġfights":13266,"Ġslang":13267,"Ġyeyeah":13268,"Ġbrushed":13269,"Ġpromote":13270,"Ġaffecting":13271,"Ġrevise":13272,"ĠPercy":13273,"Ġpunching":13274,"ĠCorpus":13275,"ĠTravel":13276,"Ġevaluate":13277,"ĠGPS":13278,"Ġexhaust":13279,"ĠOnly":13280,"boys":13281,"Ġdiamonds":13282,"ĠJamaica":13283,"ĠNaples":13284,"Ġinsect":13285,"Ġhypoc":13286,"excuse":13287,"Ġproposal":13288,"ĠBahrain":13289,"Ġcrystals":13290,"bre":13291,"bins":13292,"either":13293,"natural":13294,"yn":13295,"Ġting":13296,"Ġamber":13297,"Ġgaw":13298,"itness":13299,"anic":13300,"Ġrar":13301,"isk":13302,"ughter":13303,"Ġjustice":13304,"rolled":13305,"alia":13306,"rah":13307,"rand":13308,"olis":13309,"ership":13310,"Ġspook":13311,"mall":13312,"ĠCB":13313,"ĠAx":13314,"ĠMocking":13315,"ĠELT":13316,"istent":13317,"ĠWalk":13318,"ĠNar":13319,"ĠRick":13320,"Ġfiftieth":13321,"apor":13322,"boat":13323,"twelve":13324,"Ġreturning":13325,"Ġpushchair":13326,"Ġcamper":13327,"wash":13328,"Ġkissed":13329,"Ġbaseball":13330,"amazing":13331,"Ġreturned":13332,"Ġenglish":13333,"ĠMadonna":13334,"Ġsettling":13335,"Ġbranches":13336,"Ġcontinuous":13337,"ATs":13338,"ĠJuliet":13339,"Ġfundamental":13340,"ĠPalestine":13341,"Ġpostcode":13342,"Christmas":13343,"imagine":13344,"Ġbuzzing":13345,"Ġpredominantly":13346,"fix":13347,"gone":13348,"gien":13349,"hou":13350,"vals":13351,"yad":13352,"zo":13353,"Ġounces":13354,"Ġavenue":13355,"Ġwipes":13356,"inary":13357,"inations":13358,"inho":13359,"atomy":13360,"Ġfate":13361,"kest":13362,"state":13363,"Ġwaffles":13364,"Ġwhites":13365,"Ġgover":13366,"Ġonwards":13367,"isations":13368,"Ġcoord":13369,"etooth":13370,"aroo":13371,"irable":13372,"alonia":13373,"ckham":13374,"Ġmeles":13375,"Ġmocks":13376,"Ġthemes":13377,"ppines":13378,"Ġproved":13379,"Ġtigers":13380,"Ġtimed":13381,"Ġfags":13382,"otch":13383,"ĠAber":13384,"ĠTalk":13385,"Ġpaella":13386,"Ġclips":13387,"ĠFo":13388,"Ġunpack":13389,"Ġcompart":13390,"ĠDown":13391,"ĠWitch":13392,"athe":13393,"ĠCha":13394,"ĠHere":13395,"ĠHealth":13396,"Ġrobbed":13397,"ĠJose":13398,"Ġtenant":13399,"psies":13400,"Ġgraft":13401,"ĠRange":13402,"Ġmovements":13403,"Ġdefending":13404,"hams":13405,"ubbies":13406,"rence":13407,"Ġbroom":13408,"Ġmoron":13409,"Ġswings":13410,"ibal":13411,"ocation":13412,"Ġgrind":13413,"Ġtyre":13414,"Ġstraps":13415,"Ġterabyte":13416,"bob":13417,"udge":13418,"Ġboxing":13419,"Ġgardener":13420,"Ġflatten":13421,"Ġdelicate":13422,"Ġsalon":13423,"Ġproduces":13424,"Ġbloss":13425,"ologically":13426,"omet":13427,"Ġpennies":13428,"ĠCole":13429,"Ġretreat":13430,"Ġretiring":13431,"urton":13432,"Ġhospices":13433,"ĠIslands":13434,"Ġautistic":13435,"letubbies":13436,"Ġequity":13437,"Ġclari":13438,"Ġdrummer":13439,"Ġcement":13440,"closed":13441,"Ġcreatures":13442,"ĠRussians":13443,"Ġsenses":13444,"Ġdisappears":13445,"Ġcompeting":13446,"Ġarchive":13447,"Ġarchery":13448,"Ġpolitician":13449,"Ġbruises":13450,"Ġemptying":13451,"Ġguitars":13452,"Ġforeigners":13453,"ĠCarrie":13454,"Ġsnob":13455,"Ġsnoring":13456,"Ġearnings":13457,"Ġchristmas":13458,"Ġtweets":13459,"ulele":13460,"eamish":13461,"Ġpowers":13462,"Ġtubes":13463,"ĠSheeran":13464,"Ġprogramming":13465,"Ġadventurous":13466,"okov":13467,"ĠUSA":13468,"ĠBrother":13469,"Ġreceptionist":13470,"Ġvacc":13471,"Ġcaptured":13472,"ĠLakes":13473,"Ġtweeting":13474,"Ġinjuries":13475,"ĠAbout":13476,"ĠSchool":13477,"ilippines":13478,"Ġacquis":13479,"boyfriend":13480,"Ġtactical":13481,"Ġmanufactur":13482,"bacca":13483,"Ġsuspended":13484,"Ġstalls":13485,"ĠAnglo":13486,"wheel":13487,"ittles":13488,"Ġtrampoline":13489,"ĠNutella":13490,"holm":13491,"Ġruler":13492,"Ġinsects":13493,"Ġdismiss":13494,"Ġoverwhelming":13495,"bledon":13496,"Ġnarrative":13497,"Ġukulele":13498,"Ġblackcurrant":13499,"acamole":13500,"upuyt":13501,"iuseppe":13502,"ĠPhoen":13503,"ubilee":13504,"blimey":13505,"emy":13506,"hips":13507,"jesus":13508,"lift":13509,"mid":13510,"pace":13511,"talking":13512,"vate":13513,"Ġbrill":13514,"Ġbatt":13515,"Ġdwell":13516,"Ġcumin":13517,"Ġgh":13518,"Ġfont":13519,"stones":13520,"Ġligh":13521,"Ġhaw":13522,"Ġstained":13523,"Ġneuro":13524,"Ġrena":13525,"Ġchuffed":13526,"Ġouter":13527,"Ġsuss":13528,"Ġprospect":13529,"Ġcass":13530,"Ġherd":13531,"ilm":13532,"ĠSS":13533,"ĠSand":13534,"shh":13535,"Ġfem":13536,"ĠMS":13537,"Ġeastern":13538,"ĠTex":13539,"Ġdee":13540,"Ġpawn":13541,"Ġpoker":13542,"ĠPers":13543,"Ġcompound":13544,"locked":13545,"ĠCher":13546,"ĠChew":13547,"ĠHD":13548,"Ġacup":13549,"Ġtension":13550,"Ġcheques":13551,"ĠRachel":13552,"ĠOman":13553,"Ġsliced":13554,"Ġresidence":13555,"lings":13556,"ocus":13557,"Ġgene":13558,"Ġgenetically":13559,"ĠUk":13560,"Ġreprodu":13561,"Ġbuilds":13562,"cups":13563,"gotta":13564,"Ġgenerate":13565,"Ġconsuming":13566,"Ġcolourful":13567,"Ġterminal":13568,"Ġmainland":13569,"Ġregime":13570,"Ġraving":13571,"ĠCoca":13572,"Ġwoody":13573,"Ġpushes":13574,"ĠAndrew":13575,"Ġshaving":13576,"Ġvilla":13577,"Ġfantasy":13578,"Ġtempting":13579,"Ġdevelopers":13580,"Ġrecover":13581,"Ġrecovery":13582,"Ġversions":13583,"market":13584,"Ġfrag":13585,"Ġloudly":13586,"ĠPost":13587,"ĠSwans":13588,"Ġimprov":13589,"ĠcafÃ©s":13590,"Ġbanged":13591,"Ġaudition":13592,"Ġfirms":13593,"Ġbumpy":13594,"Ġtorto":13595,"Ġarsehole":13596,"Ġhomoph":13597,"ĠOfsted":13598,"Ġpoisoned":13599,"Ġroundabouts":13600,"Ġflooding":13601,"Ġmechanical":13602,"ĠKingdom":13603,"Ġwitches":13604,"Ġinvestigate":13605,"ĠRomeo":13606,"Ġconfirmed":13607,"Ġhairdressers":13608,"Ġexpanding":13609,"ĠHunter":13610,"Ġacknowled":13611,"ĠBasque":13612,"Ġthyroid":13613,"Ġfundamentally":13614,"Ġcampsite":13615,"nineteen":13616,"ĠLinkedin":13617,"ĠPandora":13618,"Ġmicrowaves":13619,"Ġsurveys":13620,"Ġbursary":13621,"Ġliqueur":13622,"ĠTurner":13623,"ĠFrancisco":13624,"Ġmortgages":13625,"Ġdisgrace":13626,"cuts":13627,"sw":13628,"spr":13629,"tea":13630,"atta":13631,"Ġdang":13632,"Ġmr":13633,"Ġgerb":13634,"Ġkon":13635,"Ġshsh":13636,"Ġcancers":13637,"Ġchicks":13638,"ĠSlo":13639,"white":13640,"ulating":13641,"som":13642,"ieber":13643,"ĠFat":13644,"ĠFra":13645,"ĠDie":13646,"ĠLA":13647,"ĠHu":13648,"ĠHoo":13649,"ĠNever":13650,"Ġsmashing":13651,"aped":13652,"Ġruining":13653,"Ġvaried":13654,"ĠDeben":13655,"Ġslagging":13656,"ĠQI":13657,"ĠNoel":13658,"Ġopposition":13659,"Ġglow":13660,"ĠGull":13661,"check":13662,"Ġdecorated":13663,"Ġdusty":13664,"Ġmerch":13665,"complete":13666,"ĠSteven":13667,"Ġstinks":13668,"ĠLloyds":13669,"Ġoysters":13670,"Ġpartnership":13671,"ĠCountdown":13672,"ĠASOS":13673,"Ġabsorb":13674,"Ġchavvy":13675,"ĠHamlet":13676,"ĠLouis":13677,"Ġpursue":13678,"Ġtoenails":13679,"ĠDomino":13680,"Ġgymnastics":13681,"Ġinvisible":13682,"Ġauxiliary":13683,"ĠDebenhams":13684,"Well":13685,"bear":13686,"uana":13687,"ĠId":13688,"stay":13689,"ena":13690,"Ġnoth":13691,"Ġuno":13692,"Ġnurt":13693,"roph":13694,"ĠCock":13695,"Ġbog":13696,"ĠMiddles":13697,"ĠTro":13698,"Ġworkshops":13699,"ĠEcu":13700,"Ġblows":13701,"ĠRog":13702,"Ġunderstandable":13703,"Ġsmelling":13704,"Ġturmeric":13705,"ĠScooby":13706,"Ġboyfriends":13707,"Ġhydro":13708,"cheese":13709,"putting":13710,"Ġleaflet":13711,"ĠChurchill":13712,"ĠMoroccan":13713,"ĠNapoleon":13714,"ĠEcuador":13715,"GM":13716,"Ts":13717,"done":13718,"far":13719,"furt":13720,"gam":13721,"giar":13722,"jama":13723,"lear":13724,"uel":13725,"vated":13726,"wra":13727,"Ġtarts":13728,"ouns":13729,"Ġscept":13730,"inch":13731,"Ġhating":13732,"Ġmim":13733,"Ġmish":13734,"noff":13735,"Ġgi":13736,"gher":13737,"Ġpp":13738,"ĠpÃ¢t":13739,"Ġwaved":13740,"Ġsoggy":13741,"anus":13742,"Ġrally":13743,"isers":13744,"lying":13745,"erella":13746,"Ġstron":13747,"Ġreactions":13748,"ckerel":13749,"Ġrevenue":13750,"Ġchow":13751,"Ġmoors":13752,"cad":13753,"Ġsufficient":13754,"pples":13755,"Ġmand":13756,"Ġquicke":13757,"sses":13758,"ados":13759,"Ġspac":13760,"ĠSA":13761,"Ġfav":13762,"ĠAmy":13763,"ĠAdam":13764,"ĠTal":13765,"ifies":13766,"ĠBy":13767,"ieces":13768,"Ġpall":13769,"ĠFiesta":13770,"ĠGM":13771,"ĠDC":13772,"ĠDN":13773,"ĠDem":13774,"ĠWal":13775,"Ġsupplier":13776,"Ġteabag":13777,"angaroo":13778,"ĠChery":13779,"Ġtrace":13780,"cob":13781,"comb":13782,"issance":13783,"asa":13784,"ason":13785,"ggered":13786,"ictitious":13787,"Ġbusier":13788,"Ġweirdest":13789,"Ġemo":13790,"ĠYoda":13791,"ĠKings":13792,"Ġswapping":13793,"gette":13794,"Ġgenetics":13795,"Ġdearer":13796,"Ġdeserved":13797,"ĠValley":13798,"Ġrepublic":13799,"ĠSuff":13800,"Ġaddressed":13801,"Ġallowing":13802,"Ġaccum":13803,"ĠSprite":13804,"Ġsentiment":13805,"Ġstrung":13806,"Ġparacetamol":13807,"Ġbrilliantly":13808,"Ġcurve":13809,"Ġflakes":13810,"ĠBrits":13811,"Ġsuperior":13812,"Ġsunbed":13813,"arsi":13814,"Ġcheaply":13815,"Ġattraction":13816,"ucc":13817,"Ġwok":13818,"ĠIndians":13819,"Ġprivately":13820,"Ġtripod":13821,"Ġtempt":13822,"Ġconsideration":13823,"Ġtelephones":13824,"Ġcalmed":13825,"Ġprocesses":13826,"eroes":13827,"Ġsocieties":13828,"ĠMoon":13829,"Ġflee":13830,"Ġsteer":13831,"Ġgiggle":13832,"Ġchapters":13833,"ĠJackson":13834,"Ġobsession":13835,"ĠIpod":13836,"Ġcommented":13837,"Ġchemist":13838,"Ġgraduation":13839,"Ġchestnut":13840,"Ġdissimilar":13841,"Ġconcentrated":13842,"Ġsafari":13843,"Ġcellar":13844,"ĠMichelin":13845,"Ġambass":13846,"Ġcaravans":13847,"Ġrapid":13848,"Ġjournalists":13849,"Ġbreasts":13850,"Ġgroove":13851,"Ġfloods":13852,"Ġweakness":13853,"arios":13854,"Ġterrorism":13855,"Ġaddictive":13856,"ijuana":13857,"Ġbonds":13858,"Ġtedious":13859,"Ġbicycles":13860,"Ġsurrounding":13861,"Ġorchard":13862,"umph":13863,"Ġresistance":13864,"ĠAnglia":13865,"Ġinspection":13866,"Ġhungover":13867,"Ġfortunate":13868,"ĠPeters":13869,"Ġfeminist":13870,"Ġcheerful":13871,"ĠMillennium":13872,"Ġdistinctive":13873,"Ġthrilled":13874,"Ġathletics":13875,"Ġresolution":13876,"Ġtolerate":13877,"Ġcarriageway":13878,"Ġbrewer":13879,"Ġagriculture":13880,"esthetic":13881,"Ġdiscrimination":13882,"ĠWimbledon":13883,"Ġsculpture":13884,"ĠHungary":13885,"ĠGallery":13886,"lability":13887,"Ġintolerant":13888,"Ġstrangers":13889,"Ġfundraising":13890,"bestos":13891,"ĠrosÃ©":13892,"Ġemperor":13893,"Ġquickest":13894,"Friday":13895,"amb":13896,"gate":13897,"geant":13898,"pla":13899,"sister":13900,"Ġ5":13901,"eats":13902,"atient":13903,"ĠdI":13904,"Ġfert":13905,"Ġnod":13906,"itting":13907,"esy":13908,"Ġwasps":13909,"Ġkarma":13910,"Ġforcing":13911,"nton":13912,"Ġcosmet":13913,"Ġchino":13914,"quest":13915,"Ġmeaty":13916,"Ġmala":13917,"Ġpeck":13918,"Ġcapp":13919,"Ġplagiar":13920,"ĠCors":13921,"ĠCats":13922,"Ġintent":13923,"ĠMu":13924,"ĠTab":13925,"Ġovertime":13926,"tech":13927,"Ġhump":13928,"Ġenemy":13929,"Ġguacamole":13930,"ĠGhost":13931,"new":13932,"ciety":13933,"Ġpluck":13934,"ĠHeart":13935,"ĠNin":13936,"ĠRi":13937,"ĠChristians":13938,"Ġresid":13939,"Ġnude":13940,"duh":13941,"Ġpicky":13942,"ĠStrat":13943,"Ġstupidly":13944,"Ġscares":13945,"Ġshovel":13946,"letter":13947,"comes":13948,"Ġposing":13949,"Ġcultured":13950,"literally":13951,"produ":13952,"Ġcryptic":13953,"Ġcouncill":13954,"Ġcompetitions":13955,"Ġlush":13956,"Ġbattered":13957,"Ġstepped":13958,"Ġtrading":13959,"ĠPhilippines":13960,"Ġlabels":13961,"Ġlabelled":13962,"Ġchallenges":13963,"Ġqueues":13964,"Ġgambling":13965,"Ġyogurts":13966,"Ġgraduates":13967,"Ġinitiative":13968,"Ġchefs":13969,"Ġdocumentaries":13970,"Ġtreasur":13971,"ĠMacbeth":13972,"Ġhomosexual":13973,"Ġtransferred":13974,"Ġmussels":13975,"Ġsummary":13976,"ĠJoey":13977,"Ġcomplexity":13978,"Ġdistracting":13979,"Ġmeasured":13980,"Ġuncertain":13981,"Ġeconomically":13982,"Ġmotorbikes":13983,"ĠMagic":13984,"Ġsleeves":13985,"Ġrammed":13986,"Ġreceipts":13987,"ĠDelhi":13988,"ĠPlaystation":13989,"ĠMountain":13990,"Ġhedgehogs":13991,"ĠMelbourne":13992,"Ġtransaction":13993,"Ġprivilege":13994,"ĠCastle":13995,"ĠTelegraph":13996,"Ġtetanus":13997,"Ġsacrifice":13998,"Ġdynamic":13999,"Ġunexpected":14000,"Ġgesture":14001,"Ġcontemporary":14002,"ĠTexas":14003,"We":14004,"gro":14005,"jig":14006,"vig":14007,"Ġide":14008,"Ġseas":14009,"Ġhoh":14010,"Ġmart":14011,"llers":14012,"nope":14013,"lal":14014,"Ġdocks":14015,"Ġkangaroo":14016,"Ġsherry":14017,"vere":14018,"Ġsage":14019,"Ġsaint":14020,"Ġoutright":14021,"ffled":14022,"shaped":14023,"ĠBaby":14024,"Ġpotty":14025,"ĠFer":14026,"Ġuncon":14027,"ĠDun":14028,"Ġscars":14029,"Ġdrizzle":14030,"Ġcramp":14031,"mails":14032,"full":14033,"Ġtinned":14034,"Ġforehead":14035,"ĠThursdays":14036,"Ġradius":14037,"Ġlargely":14038,"Ġrisotto":14039,"ĠMaps":14040,"Ġsplitting":14041,"ĠDoncaster":14042,"Ġscenarios":14043,"Ġexploded":14044,"ĠPolo":14045,"Ġcelebrating":14046,"Ġtimber":14047,"Ġwhawhat":14048,"Ġclassrooms":14049,"Ġpitta":14050,"ĠPeppa":14051,"Ġsymbols":14052,"Ġacquired":14053,"ĠJeff":14054,"Ġfloppy":14055,"ĠHotmail":14056,"Ġdestination":14057,"straight":14058,
[...]
